{
  "version": "1.0",
  "truncation": null,
  "padding": null,
  "added_tokens": [
    {
      "id": 0,
      "content": "<|endoftext|>",
      "single_word": false,
      "lstrip": false,
      "rstrip": false,
      "normalized": false,
      "special": true
    },
    {
      "id": 1,
      "content": "<|pad|>",
      "single_word": false,
      "lstrip": false,
      "rstrip": false,
      "normalized": false,
      "special": true
    },
    {
      "id": 2,
      "content": "<|unk|>",
      "single_word": false,
      "lstrip": false,
      "rstrip": false,
      "normalized": false,
      "special": true
    }
  ],
  "normalizer": {
    "type": "NFKC"
  },
  "pre_tokenizer": {
    "type": "ByteLevel",
    "add_prefix_space": true,
    "trim_offsets": true,
    "use_regex": true
  },
  "post_processor": null,
  "decoder": {
    "type": "ByteLevel",
    "add_prefix_space": true,
    "trim_offsets": true,
    "use_regex": true
  },
  "model": {
    "type": "BPE",
    "dropout": null,
    "unk_token": "<|unk|>",
    "continuing_subword_prefix": null,
    "end_of_word_suffix": null,
    "fuse_unk": false,
    "byte_fallback": false,
    "ignore_merges": false,
    "vocab": {
      "<|endoftext|>": 0,
      "<|pad|>": 1,
      "<|unk|>": 2,
      "!": 3,
      "\"": 4,
      "#": 5,
      "$": 6,
      "%": 7,
      "&": 8,
      "'": 9,
      "(": 10,
      ")": 11,
      "*": 12,
      "+": 13,
      ",": 14,
      "-": 15,
      ".": 16,
      "/": 17,
      "0": 18,
      "1": 19,
      "2": 20,
      "3": 21,
      "4": 22,
      "5": 23,
      "6": 24,
      "7": 25,
      "8": 26,
      "9": 27,
      ":": 28,
      ";": 29,
      "<": 30,
      "=": 31,
      ">": 32,
      "?": 33,
      "@": 34,
      "A": 35,
      "B": 36,
      "C": 37,
      "D": 38,
      "E": 39,
      "F": 40,
      "G": 41,
      "H": 42,
      "I": 43,
      "J": 44,
      "K": 45,
      "L": 46,
      "M": 47,
      "N": 48,
      "O": 49,
      "P": 50,
      "Q": 51,
      "R": 52,
      "S": 53,
      "T": 54,
      "U": 55,
      "V": 56,
      "W": 57,
      "X": 58,
      "Y": 59,
      "Z": 60,
      "[": 61,
      "\\": 62,
      "]": 63,
      "^": 64,
      "_": 65,
      "`": 66,
      "a": 67,
      "b": 68,
      "c": 69,
      "d": 70,
      "e": 71,
      "f": 72,
      "g": 73,
      "h": 74,
      "i": 75,
      "j": 76,
      "k": 77,
      "l": 78,
      "m": 79,
      "n": 80,
      "o": 81,
      "p": 82,
      "q": 83,
      "r": 84,
      "s": 85,
      "t": 86,
      "u": 87,
      "v": 88,
      "w": 89,
      "x": 90,
      "y": 91,
      "z": 92,
      "|": 93,
      "}": 94,
      "~": 95,
      "¡": 96,
      "¢": 97,
      "£": 98,
      "¤": 99,
      "¥": 100,
      "¦": 101,
      "§": 102,
      "¨": 103,
      "©": 104,
      "ª": 105,
      "«": 106,
      "¬": 107,
      "®": 108,
      "¯": 109,
      "°": 110,
      "±": 111,
      "²": 112,
      "³": 113,
      "´": 114,
      "µ": 115,
      "¶": 116,
      "·": 117,
      "¸": 118,
      "¹": 119,
      "º": 120,
      "»": 121,
      "¼": 122,
      "½": 123,
      "¾": 124,
      "¿": 125,
      "Â": 126,
      "Ã": 127,
      "Ä": 128,
      "Å": 129,
      "Æ": 130,
      "Ç": 131,
      "È": 132,
      "É": 133,
      "Ê": 134,
      "Ë": 135,
      "Ì": 136,
      "Í": 137,
      "Î": 138,
      "Ï": 139,
      "Ð": 140,
      "Ñ": 141,
      "Ò": 142,
      "Ó": 143,
      "Ô": 144,
      "Õ": 145,
      "Ö": 146,
      "×": 147,
      "Ø": 148,
      "Ù": 149,
      "Ú": 150,
      "Û": 151,
      "ß": 152,
      "à": 153,
      "á": 154,
      "â": 155,
      "ã": 156,
      "ä": 157,
      "å": 158,
      "æ": 159,
      "ç": 160,
      "è": 161,
      "é": 162,
      "ê": 163,
      "ë": 164,
      "ì": 165,
      "í": 166,
      "ï": 167,
      "ð": 168,
      "Ċ": 169,
      "Ġ": 170,
      "Ģ": 171,
      "ģ": 172,
      "Ĥ": 173,
      "ĥ": 174,
      "Ħ": 175,
      "ħ": 176,
      "Ĩ": 177,
      "ĩ": 178,
      "Ī": 179,
      "ī": 180,
      "Ĭ": 181,
      "ĭ": 182,
      "Į": 183,
      "į": 184,
      "İ": 185,
      "ı": 186,
      "Ĳ": 187,
      "ĳ": 188,
      "Ĵ": 189,
      "ĵ": 190,
      "Ķ": 191,
      "ķ": 192,
      "ĸ": 193,
      "Ĺ": 194,
      "ĺ": 195,
      "Ļ": 196,
      "ļ": 197,
      "Ľ": 198,
      "ľ": 199,
      "Ŀ": 200,
      "ŀ": 201,
      "Ł": 202,
      "ł": 203,
      "Ń": 204,
      "Ġt": 205,
      "he": 206,
      "Ġa": 207,
      "in": 208,
      "Ġthe": 209,
      "er": 210,
      "on": 211,
      "Ġs": 212,
      "re": 213,
      "Ġw": 214,
      "nd": 215,
      "or": 216,
      "Ġf": 217,
      "at": 218,
      "Ġb": 219,
      "ing": 220,
      "it": 221,
      "Ġo": 222,
      "en": 223,
      "is": 224,
      "Ġc": 225,
      "Ġp": 226,
      "ed": 227,
      "Ġto": 228,
      "es": 229,
      "an": 230,
      "al": 231,
      "ar": 232,
      "ou": 233,
      "Ġh": 234,
      "Ġin": 235,
      "as": 236,
      "Ġand": 237,
      "âĢ": 238,
      "Ġm": 239,
      "Ġof": 240,
      "le": 241,
      "Ġth": 242,
      "Ġd": 243,
      "am": 244,
      "om": 245,
      "Ġg": 246,
      "ll": 247,
      "ĠT": 248,
      "ic": 249,
      "ay": 250,
      "ĠS": 251,
      "ion": 252,
      "st": 253,
      "ac": 254,
      "Ġl": 255,
      "ve": 256,
      "Ġbe": 257,
      "ĠC": 258,
      "ot": 259,
      "Ġon": 260,
      "ent": 261,
      "ĠA": 262,
      "Ġn": 263,
      "Ġe": 264,
      "âĢĻ": 265,
      "id": 266,
      "Ġre": 267,
      "Ġfor": 268,
      "ly": 269,
      "ad": 270,
      "ut": 271,
      "ow": 272,
      "ĠI": 273,
      "et": 274,
      "ĠM": 275,
      "ĠB": 276,
      "ig": 277,
      "ur": 278,
      "ver": 279,
      "im": 280,
      "ir": 281,
      "ith": 282,
      "ld": 283,
      "Ġhe": 284,
      "Ġst": 285,
      "ro": 286,
      "Ġy": 287,
      "Ġis": 288,
      "ĠW": 289,
      "Ġwith": 290,
      "ter": 291,
      "se": 292,
      "Ġthat": 293,
      "ĠP": 294,
      "ĠH": 295,
      "Ġ2": 296,
      "Ġat": 297,
      "Ġse": 298,
      "ill": 299,
      "ĠThe": 300,
      "Ġ1": 301,
      "ch": 302,
      "Ġu": 303,
      "ĠR": 304,
      "ĠF": 305,
      "Ġr": 306,
      "ce": 307,
      "ĠN": 308,
      "ers": 309,
      "ke": 310,
      "Ġpl": 311,
      "ĠâĢ": 312,
      "ts": 313,
      "ĠD": 314,
      "Ġwh": 315,
      "ĠL": 316,
      "Ġas": 317,
      "Ġwas": 318,
      "ag": 319,
      "Ġit": 320,
      "ol": 321,
      "igh": 322,
      "Ġha": 323,
      "Ġwe": 324,
      "all": 325,
      "Ġan": 326,
      "ĠG": 327,
      "il": 328,
      "th": 329,
      "ore": 330,
      "ain": 331,
      "Ġhis": 332,
      "ĠJ": 333,
      "Ġyou": 334,
      "ct": 335,
      "Ġplay": 336,
      "ation": 337,
      "un": 338,
      "Ġde": 339,
      "ie": 340,
      "Ġfr": 341,
      "ack": 342,
      "ame": 343,
      "por": 344,
      "est": 345,
      "Ġte": 346,
      "ĠE": 347,
      "her": 348,
      "ive": 349,
      "ĠO": 350,
      "Ġgo": 351,
      "Ġcom": 352,
      "if": 353,
      "and": 354,
      "ard": 355,
      "Ġcon": 356,
      "Ġ(": 357,
      "ear": 358,
      "Ġ20": 359,
      "Ġle": 360,
      "ate": 361,
      "Ġhave": 362,
      "ight": 363,
      "os": 364,
      "ĠâĢľ": 365,
      "Ġare": 366,
      "ul": 367,
      "pe": 368,
      "Ġhas": 369,
      "Ġfrom": 370,
      "Ġwill": 371,
      "ast": 372,
      "ri": 373,
      "Ġthis": 374,
      "us": 375,
      "od": 376,
      "el": 377,
      "Ġne": 378,
      "art": 379,
      "Ġsh": 380,
      "Ġteam": 381,
      "âĢĿ": 382,
      "ust": 383,
      "qu": 384,
      "our": 385,
      "pp": 386,
      "Ġv": 387,
      "ess": 388,
      "ĠK": 389,
      "ould": 390,
      "Ġal": 391,
      "um": 392,
      "ab": 393,
      "Ġex": 394,
      "Ġpro": 395,
      "em": 396,
      "ak": 397,
      "Ġch": 398,
      "ason": 399,
      "oc": 400,
      "Ġj": 401,
      "ant": 402,
      "ity": 403,
      "Ġsa": 404,
      "gh": 405,
      "Ġbut": 406,
      "'s": 407,
      "Ġby": 408,
      "ost": 409,
      "ue": 410,
      "ome": 411,
      "Ġnot": 412,
      "ok": 413,
      "res": 414,
      "rou": 415,
      "ĠU": 416,
      "Ġout": 417,
      "Ġtheir": 418,
      "ick": 419,
      "out": 420,
      "ra": 421,
      "ĠSt": 422,
      "Ġsu": 423,
      "Ġall": 424,
      "op": 425,
      "ions": 426,
      "Ġup": 427,
      "ies": 428,
      "Ġag": 429,
      "ally": 430,
      "ip": 431,
      "Ġwhe": 432,
      "Ġthey": 433,
      "Ġor": 434,
      "Ġwho": 435,
      "iv": 436,
      "Ġyear": 437,
      "Ġ-": 438,
      "irst": 439,
      "Ġoff": 440,
      "Ġgame": 441,
      "Ġab": 442,
      "Ġseason": 443,
      "ime": 444,
      "port": 445,
      "Ġsaid": 446,
      "ist": 447,
      "amp": 448,
      "ĠTh": 449,
      "Ġk": 450,
      "ond": 451,
      "ge": 452,
      "Ġcan": 453,
      "ide": 454,
      "Ġwin": 455,
      "ff": 456,
      "ĠCh": 457,
      "Ġfirst": 458,
      "nt": 459,
      "Ġtr": 460,
      "Ġone": 461,
      "ine": 462,
      "Ġcl": 463,
      "ach": 464,
      "oin": 465,
      "ball": 466,
      "Ġ3": 467,
      "fter": 468,
      "own": 469,
      "ans": 470,
      "ich": 471,
      "wo": 472,
      "Ġwor": 473,
      "ia": 474,
      "Ġhad": 475,
      "are": 476,
      "ake": 477,
      "ree": 478,
      "ong": 479,
      "ment": 480,
      "ace": 481,
      "ĠHe": 482,
      "Ġover": 483,
      "ning": 484,
      "Ġfin": 485,
      "ike": 486,
      "ud": 487,
      "ap": 488,
      "Ġsc": 489,
      "ub": 490,
      "ere": 491,
      "Ġdo": 492,
      "very": 493,
      "Ġ201": 494,
      "ure": 495,
      "ĠV": 496,
      "Ġbeen": 497,
      "up": 498,
      "Ġmore": 499,
      "Ġcomp": 500,
      "Ġtwo": 501,
      "oot": 502,
      "00": 503,
      "to": 504,
      "ew": 505,
      "ĠIn": 506,
      "ber": 507,
      "one": 508,
      "Ġlo": 509,
      "so": 510,
      "Ġget": 511,
      "Ġ\"": 512,
      "ports": 513,
      "Ġco": 514,
      "Ġcont": 515,
      "Ġafter": 516,
      "ep": 517,
      "Ġad": 518,
      "ames": 519,
      "Ġqu": 520,
      "for": 521,
      "Ġtime": 522,
      "ven": 523,
      "day": 524,
      "act": 525,
      "Ġagain": 526,
      "ĠY": 527,
      "ther": 528,
      "Ġso": 529,
      "Ġback": 530,
      "Ġper": 531,
      "ance": 532,
      "ting": 533,
      "cc": 534,
      "Ġhim": 535,
      "Ġjust": 536,
      "Ġalso": 537,
      "ial": 538,
      "ass": 539,
      "av": 540,
      "Ġlast": 541,
      "Ġwere": 542,
      "Ġme": 543,
      "age": 544,
      "urn": 545,
      "ite": 546,
      "ound": 547,
      "ire": 548,
      "atch": 549,
      "Ġwhen": 550,
      "ile": 551,
      "Ġ4": 552,
      "ĠIt": 553,
      "ens": 554,
      "ĠLe": 555,
      "ated": 556,
      "mer": 557,
      "ence": 558,
      "Ġsec": 559,
      "Ġlike": 560,
      "Ġman": 561,
      "Ġim": 562,
      "Ġbet": 563,
      "Ġrec": 564,
      "Ġop": 565,
      "ry": 566,
      "Ġdef": 567,
      "ous": 568,
      "ord": 569,
      "Ġwould": 570,
      "hed": 571,
      "let": 572,
      "cl": 573,
      "als": 574,
      "ice": 575,
      "Ġsp": 576,
      "ays": 577,
      "au": 578,
      "ks": 579,
      "Ġabout": 580,
      "able": 581,
      "ition": 582,
      "ne": 583,
      "Ġwhich": 584,
      "ague": 585,
      "ĠâĢĵ": 586,
      ".âĢĿ": 587,
      "ian": 588,
      "..": 589,
      "Ġpre": 590,
      "ose": 591,
      "Ġpoin": 592,
      "uc": 593,
      "ng": 594,
      "Ġyour": 595,
      "Ġthere": 596,
      "ade": 597,
      "Ġrun": 598,
      "Ġsome": 599,
      "Ġnew": 600,
      "Ġinto": 601,
      "ough": 602,
      "ase": 603,
      "Ġplayers": 604,
      "Ġ5": 605,
      "nder": 606,
      "hip": 607,
      "Ġwee": 608,
      "Ġsecond": 609,
      "ootball": 610,
      "reat": 611,
      "Ġus": 612,
      "Ġthree": 613,
      "Ġthan": 614,
      "Ġkn": 615,
      "Ġagainst": 616,
      "ign": 617,
      "Ġpr": 618,
      "ark": 619,
      ",âĢĿ": 620,
      "Ġbec": 621,
      "ish": 622,
      "Ġres": 623,
      "ĠWe": 624,
      "Ġour": 625,
      "ory": 626,
      "fer": 627,
      "Ġpart": 628,
      "Ġen": 629,
      "son": 630,
      "Ġgames": 631,
      "Ġun": 632,
      "ble": 633,
      "ors": 634,
      "ft": 635,
      "vent": 636,
      "Ġro": 637,
      "ield": 638,
      "Ġwhat": 639,
      "anc": 640,
      "Ġthem": 641,
      "ĠBr": 642,
      "ull": 643,
      "Ġ202": 644,
      "ict": 645,
      "ings": 646,
      "ary": 647,
      "Ġfe": 648,
      "Ġstart": 649,
      "Ġother": 650,
      "we": 651,
      "pl": 652,
      "iz": 653,
      "ob": 654,
      "Ġany": 655,
      "per": 656,
      "rough": 657,
      "Ġfour": 658,
      "vel": 659,
      "ress": 660,
      "Ġlook": 661,
      "Ġ6": 662,
      "Ġonly": 663,
      "ov": 664,
      "oy": 665,
      "man": 666,
      "Ġcould": 667,
      "ward": 668,
      "ind": 669,
      "ount": 670,
      "uch": 671,
      "Ġdid": 672,
      "form": 673,
      "ampions": 674,
      "ix": 675,
      "ink": 676,
      "old": 677,
      "fore": 678,
      "hes": 679,
      "te": 680,
      "Ġif": 681,
      "ug": 682,
      "Ġgood": 683,
      "Ġ19": 684,
      "og": 685,
      "ner": 686,
      "Ġmy": 687,
      "ail": 688,
      "Ġher": 689,
      "iver": 690,
      "oll": 691,
      "Ġlead": 692,
      "Ġwork": 693,
      "land": 694,
      "oss": 695,
      "ton": 696,
      "Ġend": 697,
      "Ġwell": 698,
      "Ġmost": 699,
      "Ġbr": 700,
      "Ġevery": 701,
      "Ġnow": 702,
      "Ġgoing": 703,
      "ational": 704,
      "round": 705,
      "Ġinter": 706,
      "les": 707,
      "ock": 708,
      "ction": 709,
      "ool": 710,
      "Ġapp": 711,
      "ier": 712,
      "ĠRe": 713,
      "Ġfootball": 714,
      "ĠWh": 715,
      "Ġhow": 716,
      "Ġsports": 717,
      "ang": 718,
      "Ġtop": 719,
      "Ġbest": 720,
      "ĠNew": 721,
      "pect": 722,
      "Ġyears": 723,
      "Ġbefore": 724,
      "uring": 725,
      "Ġscore": 726,
      "Ġmake": 727,
      "ort": 728,
      "ĠAs": 729,
      "ĠAnd": 730,
      "Ġpoints": 731,
      "Ġ7": 732,
      "ations": 733,
      "ĠUn": 734,
      "Ġthrough": 735,
      "Ġits": 736,
      "Ġstr": 737,
      "ult": 738,
      "iss": 739,
      "aw": 740,
      "Ġno": 741,
      "oth": 742,
      "clud": 743,
      "Ġ10": 744,
      "Ġdis": 745,
      "ited": 746,
      "Ġadd": 747,
      "Ġsee": 748,
      "pt": 749,
      "ĠFr": 750,
      "Ġmade": 751,
      "aking": 752,
      "und": 753,
      "Ġam": 754,
      "ĠThis": 755,
      "Ġteams": 756,
      "Ġgu": 757,
      "ause": 758,
      "Ġear": 759,
      "ĠAl": 760,
      "ĠTe": 761,
      "ious": 762,
      "Ġcompet": 763,
      "Ġneed": 764,
      "Ġdown": 765,
      "ĠBut": 766,
      "hing": 767,
      "xt": 768,
      "'t": 769,
      "ĠDe": 770,
      "Ġser": 771,
      "ah": 772,
      "Ġknow": 773,
      "Ġevent": 774,
      "Ġimp": 775,
      "Ġspe": 776,
      "Ġke": 777,
      "Ġgreat": 778,
      "other": 779,
      "Ġcoach": 780,
      "Ġwon": 781,
      "ince": 782,
      "ets": 783,
      "ect": 784,
      "Ġmatch": 785,
      "row": 786,
      "Ġmin": 787,
      "Ġinclud": 788,
      "Ġplayer": 789,
      "Ġbig": 790,
      "Ġwhile": 791,
      "ĠMar": 792,
      "Ġunder": 793,
      "Ġhome": 794,
      "Ġway": 795,
      "Ġret": 796,
      "Ġhel": 797,
      "Ġar": 798,
      "ove": 799,
      "ĠWor": 800,
      "ĠLeague": 801,
      "ues": 802,
      "Ġthink": 803,
      "Ġvery": 804,
      "ampionship": 805,
      "ense": 806,
      "Ġclub": 807,
      "Ġthen": 808,
      "itt": 809,
      "olle": 810,
      "Ġshe": 811,
      "Ġtake": 812,
      "Ġweek": 813,
      "ird": 814,
      "Ġacc": 815,
      "arter": 816,
      "ph": 817,
      "ĠâĢĶ": 818,
      "way": 819,
      "Ġbo": 820,
      "Ġwhere": 821,
      "ates": 822,
      "ys": 823,
      "Ġright": 824,
      "ents": 825,
      "Ġreg": 826,
      "ĠSh": 827,
      "Ġwant": 828,
      "),": 829,
      "ank": 830,
      "Ġgot": 831,
      "Ġpe": 832,
      "ise": 833,
      "Ġeven": 834,
      "tain": 835,
      "Ġbeing": 836,
      "com": 837,
      "ons": 838,
      "ved": 839,
      "Ġhelp": 840,
      "ĠCup": 841,
      "ild": 842,
      "ĠCl": 843,
      "Ġshow": 844,
      "Ġdec": 845,
      "Ġ8": 846,
      "Ġball": 847,
      "ollow": 848,
      "ating": 849,
      "||": 850,
      "ĠJo": 851,
      "oun": 852,
      "back": 853,
      "red": 854,
      "Ġhigh": 855,
      "Ġgoal": 856,
      "ision": 857,
      "Ġrem": 858,
      "Ġbecause": 859,
      "ĠWorld": 860,
      "Ġcare": 861,
      "Ġhit": 862,
      "Ġset": 863,
      "ics": 864,
      "Ġdif": 865,
      "hlet": 866,
      "Ġnext": 867,
      "ards": 868,
      "ady": 869,
      "ople": 870,
      "Ġcomm": 871,
      "sel": 872,
      "ĠSe": 873,
      "ĠFor": 874,
      "Ġboth": 875,
      "Ġatt": 876,
      "ĠAr": 877,
      "Ġmuch": 878,
      "ont": 879,
      "Ġfinal": 880,
      "ving": 881,
      "ram": 882,
      "Ġhead": 883,
      "Ġduring": 884,
      "Ġbas": 885,
      "Ġreally": 886,
      "Ġlong": 887,
      "io": 888,
      "Ġbl": 889,
      "Ġworld": 890,
      "Ġstill": 891,
      "att": 892,
      "Ġplayed": 893,
      "Ġshould": 894,
      "Ġday": 895,
      ".\"": 896,
      "Ġass": 897,
      "chool": 898,
      "Ġpass": 899,
      "Ġdes": 900,
      "Ġput": 901,
      "hen": 902,
      "ros": 903,
      "ins": 904,
      "ib": 905,
      "alf": 906,
      "Ġathlet": 907,
      "ical": 908,
      "ling": 909,
      "Ġ$": 910,
      "ĠYou": 911,
      "Ġsince": 912,
      "Ġent": 913,
      "Ġfive": 914,
      "ves": 915,
      "Ġpeople": 916,
      "cer": 917,
      "Ġlot": 918,
      "Ġcr": 919,
      "ular": 920,
      "mp": 921,
      "ities": 922,
      "ced": 923,
      "ty": 924,
      "Ġmany": 925,
      "The": 926,
      "Ġdon": 927,
      "enn": 928,
      "Ġthird": 929,
      "Ġ9": 930,
      "ater": 931,
      "ope": 932,
      "Ġ12": 933,
      "ĠBe": 934,
      "ily": 935,
      "led": 936,
      "Ġmay": 937,
      "Ġline": 938,
      "Ġact": 939,
      "Ġcons": 940,
      "Ġinj": 941,
      "ĠAll": 942,
      "Ġfollow": 943,
      "Ġac": 944,
      "ensive": 945,
      "Ġsix": 946,
      "ied": 947,
      ",\"": 948,
      "ever": 949,
      "Ġhere": 950,
      "Ġplace": 951,
      "air": 952,
      "erson": 953,
      "Ġ200": 954,
      "ars": 955,
      "ley": 956,
      "alk": 957,
      "wn": 958,
      "Ġopen": 959,
      "...": 960,
      "Ġminut": 961,
      "ĠThey": 962,
      "FL": 963,
      "off": 964,
      "ood": 965,
      ").": 966,
      "ident": 967,
      "Ġgr": 968,
      "pr": 969,
      "Ġpos": 970,
      "ĠMc": 971,
      "Ġleague": 972,
      "Ġcome": 973,
      "ility": 974,
      "Ġcour": 975,
      "atur": 976,
      "Ġfans": 977,
      "ĠBl": 978,
      "aining": 979,
      "ĠNo": 980,
      "Ġthose": 981,
      "Ġplaying": 982,
      "Ġleft": 983,
      "Ġcontin": 984,
      "be": 985,
      "ĠInd": 986,
      "Ġfield": 987,
      "Ġmed": 988,
      "Ġ11": 989,
      "ath": 990,
      "Ġsign": 991,
      "uck": 992,
      "gan": 993,
      "We": 994,
      "Ġrecord": 995,
      "iew": 996,
      "ual": 997,
      "ior": 998,
      "ĠSports": 999,
      "ott": 1000,
      "ful": 1001,
      "Ġstre": 1002,
      "ury": 1003,
      "ĠCo": 1004,
      "ĠAn": 1005,
      "Ġind": 1006,
      "vers": 1007,
      "ĠIf": 1008,
      "ash": 1009,
      "Ġbel": 1010,
      "year": 1011,
      "ament": 1012,
      "Ġanother": 1013,
      "ters": 1014,
      "atc": 1015,
      "end": 1016,
      "Ġexper": 1017,
      "Ġsport": 1018,
      "Ġhand": 1019,
      "get": 1020,
      "ĠHow": 1021,
      "ĠZ": 1022,
      "ium": 1023,
      "ik": 1024,
      "ĠQ": 1025,
      "Ġcareer": 1026,
      "Ġthough": 1027,
      "Ġperform": 1028,
      "Ġsl": 1029,
      "Ġmon": 1030,
      "roup": 1031,
      "ĠThat": 1032,
      "imes": 1033,
      "ster": 1034,
      "Ġinc": 1035,
      "Ġaround": 1036,
      "Ġfl": 1037,
      "Ġround": 1038,
      "Ġhalf": 1039,
      "br": 1040,
      "side": 1041,
      "aj": 1042,
      "Ġinv": 1043,
      "Ġeach": 1044,
      "Ġbetter": 1045,
      "Ġdiffer": 1046,
      "Ġpick": 1047,
      "Ġquarter": 1048,
      "ible": 1049,
      "Ġdoes": 1050,
      "Ġsur": 1051,
      "ĠPl": 1052,
      "ren": 1053,
      "Ġnum": 1054,
      "Ġtit": 1055,
      "Ġhapp": 1056,
      "Ġthese": 1057,
      "ower": 1058,
      "ĠState": 1059,
      "Ġrece": 1060,
      "ave": 1061,
      "Ġtri": 1062,
      "omet": 1063,
      "Ġshot": 1064,
      "Ġvict": 1065,
      "by": 1066,
      "ĠOn": 1067,
      "ished": 1068,
      "ific": 1069,
      "akes": 1070,
      "ĠNFL": 1071,
      "20": 1072,
      "Ġprog": 1073,
      "ck": 1074,
      "Ġsup": 1075,
      "rem": 1076,
      "ale": 1077,
      "ĠAt": 1078,
      "ccess": 1079,
      "unity": 1080,
      "hn": 1081,
      "line": 1082,
      "ross": 1083,
      "Ġcount": 1084,
      "Ġmanag": 1085,
      "Ġprov": 1086,
      "ĠWith": 1087,
      "ange": 1088,
      "Ġ|": 1089,
      "omen": 1090,
      "az": 1091,
      "ĠCar": 1092,
      "ork": 1093,
      "ween": 1094,
      "Ġpost": 1095,
      "aturday": 1096,
      "Ġrace": 1097,
      "Ġside": 1098,
      "Ġown": 1099,
      "ĠSo": 1100,
      "Ġkeep": 1101,
      "Ġnight": 1102,
      "Ġrel": 1103,
      "ĠCom": 1104,
      "ĠSaturday": 1105,
      "Ġcap": 1106,
      "Ġbu": 1107,
      "Ġreturn": 1108,
      "Ġsay": 1109,
      "ional": 1110,
      "ered": 1111,
      "Ġcame": 1112,
      "outh": 1113,
      "ivers": 1114,
      "rent": 1115,
      "Ġdra": 1116,
      "Ġtourn": 1117,
      "Ġtook": 1118,
      "Ġ15": 1119,
      "ĠThere": 1120,
      "self": 1121,
      "field": 1122,
      "Ġbetween": 1123,
      "illion": 1124,
      "ĠâĢĺ": 1125,
      "ral": 1126,
      "Ġfew": 1127,
      "ĠCity": 1128,
      "enc": 1129,
      "ĠSp": 1130,
      "Ġgiv": 1131,
      "ĠJohn": 1132,
      "Ġhard": 1133,
      "Ġpit": 1134,
      "ĠSc": 1135,
      "Ġmonth": 1136,
      "iam": 1137,
      "ook": 1138,
      "Ġscored": 1139,
      "Ġsuccess": 1140,
      "ience": 1141,
      "ĠGr": 1142,
      "urs": 1143,
      "It": 1144,
      "Ġwent": 1145,
      "erm": 1146,
      "Ġschool": 1147,
      "ĠEng": 1148,
      "ying": 1149,
      "Ġpoint": 1150,
      "Ġcur": 1151,
      "Ġcall": 1152,
      "meric": 1153,
      "but": 1154,
      "uss": 1155,
      "Ġcolle": 1156,
      "tern": 1157,
      "Ġgoals": 1158,
      "ann": 1159,
      "ĠPh": 1160,
      "Ġaway": 1161,
      "ket": 1162,
      "Ġph": 1163,
      "Ġincluding": 1164,
      "BA": 1165,
      "ĠUnited": 1166,
      "ember": 1167,
      "lymp": 1168,
      "ways": 1169,
      "Ġsame": 1170,
      "Ġem": 1171,
      "ĠChampionship": 1172,
      "Ġann": 1173,
      "ham": 1174,
      "Ġdidn": 1175,
      "ually": 1176,
      "ane": 1177,
      "000": 1178,
      "acing": 1179,
      "Ġfeel": 1180,
      "ody": 1181,
      "ats": 1182,
      "Ġfree": 1183,
      "Ġcar": 1184,
      "rew": 1185,
      "its": 1186,
      "Ġable": 1187,
      "pped": 1188,
      "ĠOlymp": 1189,
      "Ġallow": 1190,
      "ĠNor": 1191,
      "Ġmid": 1192,
      "Ġsoc": 1193,
      "ights": 1194,
      "Ġeff": 1195,
      "lic": 1196,
      "ĠAd": 1197,
      "Ġsk": 1198,
      "Ġfull": 1199,
      "olf": 1200,
      "Ġtoo": 1201,
      "ared": 1202,
      "ell": 1203,
      "Ġposs": 1204,
      "Ġpres": 1205,
      "ments": 1206,
      "Ġminutes": 1207,
      "ina": 1208,
      "Ġyards": 1209,
      "ife": 1210,
      "ĠTr": 1211,
      "Ġturn": 1212,
      "ĠSund": 1213,
      "ger": 1214,
      "Ġformer": 1215,
      "Ġvs": 1216,
      "Ġ13": 1217,
      "ances": 1218,
      "ather": 1219,
      "ittle": 1220,
      "Ġmark": 1221,
      "Ġwinning": 1222,
      "ple": 1223,
      "Ġsomet": 1224,
      "Ġ14": 1225,
      "bs": 1226,
      "Ġbre": 1227,
      "Ġpast": 1228,
      "ris": 1229,
      "Ġthings": 1230,
      "Ġexpect": 1231,
      "Ġstate": 1232,
      "Ġdifferent": 1233,
      "ially": 1234,
      "Ġalways": 1235,
      "vious": 1236,
      "ric": 1237,
      "ness": 1238,
      "Ġmiss": 1239,
      "ĠCon": 1240,
      "ketball": 1241,
      "ĠSunday": 1242,
      "Ġyoung": 1243,
      "nes": 1244,
      "Ġtitle": 1245,
      "ures": 1246,
      "time": 1247,
      "Ġfam": 1248,
      "Ġ16": 1249,
      "Ġ18": 1250,
      "ĠShe": 1251,
      "Ġforward": 1252,
      "Ġstand": 1253,
      "Ġadv": 1254,
      "Ġqual": 1255,
      "ners": 1256,
      "Ġprof": 1257,
      "Ġspec": 1258,
      "ĠAfter": 1259,
      "velop": 1260,
      "ative": 1261,
      "ired": 1262,
      "Ġcle": 1263,
      "ĠAmeric": 1264,
      "Ġnever": 1265,
      "bers": 1266,
      "ĠUS": 1267,
      "Ġsupport": 1268,
      "Ġgroup": 1269,
      "Ġfind": 1270,
      "thing": 1271,
      "oring": 1272,
      "str": 1273,
      "Ġsuch": 1274,
      "Ġlevel": 1275,
      "Ġcor": 1276,
      "ener": 1277,
      "ĠCan": 1278,
      "Ġhist": 1279,
      "Ġel": 1280,
      "10": 1281,
      "co": 1282,
      "Ġprogram": 1283,
      "Ġtournament": 1284,
      "Ġmove": 1285,
      "Ġpartic": 1286,
      "key": 1287,
      "gin": 1288,
      "Ġvictory": 1289,
      "pec": 1290,
      "ĠTeam": 1291,
      "Ġconf": 1292,
      "du": 1293,
      "Ġbeh": 1294,
      "Ġfight": 1295,
      "Ġdou": 1296,
      "Ġstar": 1297,
      "Ġopport": 1298,
      "ĠMan": 1299,
      "down": 1300,
      "atches": 1301,
      "lect": 1302,
      "ering": 1303,
      "CA": 1304,
      "Ġform": 1305,
      "ĠWill": 1306,
      "iting": 1307,
      "ĠAust": 1308,
      "ured": 1309,
      "ler": 1310,
      "ted": 1311,
      "head": 1312,
      "ĠPro": 1313,
      "ased": 1314,
      "Ġav": 1315,
      "Ġearly": 1316,
      "Ġcamp": 1317,
      "Ġlittle": 1318,
      "adium": 1319,
      "Ġtrans": 1320,
      "ĠFl": 1321,
      "Ġtimes": 1322,
      "allen": 1323,
      "ĠRo": 1324,
      "Ġ&": 1325,
      "ajor": 1326,
      "ract": 1327,
      "ference": 1328,
      "ĠEur": 1329,
      "Ġrecent": 1330,
      "hel": 1331,
      "iday": 1332,
      "Ġfar": 1333,
      "Ġcurrent": 1334,
      "Ġperson": 1335,
      "cent": 1336,
      "Ġoffic": 1337,
      "Ġmillion": 1338,
      "ably": 1339,
      "19": 1340,
      "Ġcent": 1341,
      "Ġsim": 1342,
      "Ġjoin": 1343,
      "ump": 1344,
      "Ġgetting": 1345,
      "Ġnumber": 1346,
      "Ġwr": 1347,
      "Ġtraining": 1348,
      "Ġreal": 1349,
      "ĠBar": 1350,
      "Ġdefe": 1351,
      "tend": 1352,
      "Ġimport": 1353,
      "Ġsit": 1354,
      "Ġmaking": 1355,
      "Ġext": 1356,
      "ĠSup": 1357,
      "Ġsm": 1358,
      "ĠSer": 1359,
      "Ġprom": 1360,
      "Ġopp": 1361,
      "Ġhaving": 1362,
      "med": 1363,
      "ement": 1364,
      "ertain": 1365,
      "Ġwatch": 1366,
      "icket": 1367,
      "Ġbetting": 1368,
      "ĠMay": 1369,
      "orn": 1370,
      "Ġloss": 1371,
      "ists": 1372,
      "Ġlooking": 1373,
      "Ġchampionship": 1374,
      "Ġmom": 1375,
      "Ġhost": 1376,
      "Ġsomething": 1377,
      "Ġmight": 1378,
      "Ġcoming": 1379,
      "ines": 1380,
      "Ġinjury": 1381,
      "gest": 1382,
      "Ġfinish": 1383,
      "sh": 1384,
      "Ġdevelop": 1385,
      "Ġbase": 1386,
      "ampion": 1387,
      "ĠSouth": 1388,
      "ene": 1389,
      "Ġdeal": 1390,
      "ĠPlay": 1391,
      "Ġstarted": 1392,
      "Ġstrong": 1393,
      "Ġposition": 1394,
      "Ġ17": 1395,
      "Ġdays": 1396,
      "oney": 1397,
      "Ġstud": 1398,
      "Ġsays": 1399,
      "alth": 1400,
      "ready": 1401,
      "Ġ0": 1402,
      "ax": 1403,
      "Ġgive": 1404,
      "Ġmov": 1405,
      "enal": 1406,
      "cept": 1407,
      "Ġ2020": 1408,
      "Ġtoday": 1409,
      "Ġnews": 1410,
      "Ġseem": 1411,
      "Ġdr": 1412,
      "Ġche": 1413,
      "Ġathletes": 1414,
      "season": 1415,
      "der": 1416,
      "ately": 1417,
      "ĠDav": 1418,
      "ĠSte": 1419,
      "Ġdefense": 1420,
      "itive": 1421,
      "Ġseven": 1422,
      "Ġimpro": 1423,
      "wit": 1424,
      "ills": 1425,
      "Ġuse": 1426,
      "view": 1427,
      "Ġchance": 1428,
      "ĠJun": 1429,
      "irect": 1430,
      "Ġfound": 1431,
      "uary": 1432,
      "Ġseries": 1433,
      "cess": 1434,
      "ĠFootball": 1435,
      "ĠRed": 1436,
      "inal": 1437,
      "Ġvis": 1438,
      "rest": 1439,
      "ĠCol": 1440,
      "Ġcomplet": 1441,
      "Ġperformance": 1442,
      "Ġadded": 1443,
      "ned": 1444,
      "Ġannoun": 1445,
      "Ġtouch": 1446,
      "ised": 1447,
      "verage": 1448,
      "Ġalready": 1449,
      "Ġstri": 1450,
      "ĠEngland": 1451,
      "Ġtal": 1452,
      "Ġrep": 1453,
      "Ġ25": 1454,
      "ĠFriday": 1455,
      "kend": 1456,
      "Ġfeat": 1457,
      "ged": 1458,
      "lex": 1459,
      "Ġrunning": 1460,
      "ĠNBA": 1461,
      "Ġbehind": 1462,
      "ĠHowever": 1463,
      "Ġunt": 1464,
      "Ġ2019": 1465,
      "Ġfav": 1466,
      "ief": 1467,
      "Ġdri": 1468,
      "iversity": 1469,
      "Ġloc": 1470,
      "Ġsure": 1471,
      "Ġhistory": 1472,
      "err": 1473,
      "duc": 1474,
      "Ġtold": 1475,
      "Ġexperience": 1476,
      "Ġchar": 1477,
      "Ġ30": 1478,
      "mber": 1479,
      "ĠMich": 1480,
      "Ġmem": 1481,
      "Ġtra": 1482,
      "ote": 1483,
      "ided": 1484,
      "aced": 1485,
      "ĠKe": 1486,
      "ĠMe": 1487,
      "less": 1488,
      "Ġlist": 1489,
      "ĠGre": 1490,
      "FC": 1491,
      "Ġwithout": 1492,
      "tt": 1493,
      "Ġlost": 1494,
      "ĠSm": 1495,
      "Ġleg": 1496,
      "Ġbreak": 1497,
      "Ġ2018": 1498,
      "Ġruns": 1499,
      "ĠOr": 1500,
      "Ġsqu": 1501,
      "vil": 1502,
      "ds": 1503,
      "Ġfollowing": 1504,
      "ĠTo": 1505,
      "ined": 1506,
      "Ġgl": 1507,
      "Ġimportant": 1508,
      "ec": 1509,
      "Ġwomen": 1510,
      "Ġbasketball": 1511,
      "Ġkick": 1512,
      "Ġexc": 1513,
      "ĠHar": 1514,
      "Ġdet": 1515,
      "Ġclose": 1516,
      "Ġsub": 1517,
      "Ġfourth": 1518,
      "Ġcourse": 1519,
      "Ġed": 1520,
      "Ġreport": 1521,
      "Ġlater": 1522,
      "aces": 1523,
      "Ġmen": 1524,
      "asy": 1525,
      "Ġever": 1526,
      "Ġbeat": 1527,
      "app": 1528,
      "Ġweekend": 1529,
      "itions": 1530,
      "ots": 1531,
      "ĠWhen": 1532,
      "Ġmatches": 1533,
      "Ġsing": 1534,
      "Ġeight": 1535,
      "ls": 1536,
      "Ġled": 1537,
      "Ġuntil": 1538,
      "Ġfact": 1539,
      "Ġintern": 1540,
      "ek": 1541,
      "Ġcompetition": 1542,
      "ices": 1543,
      "ublic": 1544,
      "Ġint": 1545,
      "aff": 1546,
      "Ġdel": 1547,
      "Ġappear": 1548,
      "Ġ.": 1549,
      "Ġfinished": 1550,
      "Ġalong": 1551,
      "Ġshort": 1552,
      "Ġbro": 1553,
      "ivision": 1554,
      "ants": 1555,
      "Ġpri": 1556,
      "Ġlive": 1557,
      "ĠWest": 1558,
      "ĠNe": 1559,
      "Ġprofess": 1560,
      "Ġmajor": 1561,
      "Ġpower": 1562,
      "Ġenough": 1563,
      "any": 1564,
      "aches": 1565,
      "ĠSuper": 1566,
      "ieve": 1567,
      "ĠJon": 1568,
      "ĠHis": 1569,
      "Ġplayoff": 1570,
      "Ġmeet": 1571,
      "Ġtot": 1572,
      "Ġexp": 1573,
      "elt": 1574,
      "wards": 1575,
      "ital": 1576,
      "ummer": 1577,
      "Ġ24": 1578,
      "Ġbit": 1579,
      "Ġpract": 1580,
      "Ġcountry": 1581,
      "Ġopt": 1582,
      "go": 1583,
      "Ġfront": 1584,
      "Ġ'": 1585,
      "Ġconsid": 1586,
      "oor": 1587,
      "iend": 1588,
      "ĠIs": 1589,
      "ern": 1590,
      "ĠPrem": 1591,
      "Ġinform": 1592,
      "Ġbus": 1593,
      "gether": 1594,
      "Ġ2021": 1595,
      "Ġmain": 1596,
      "Ġlife": 1597,
      "stand": 1598,
      "Ġ21": 1599,
      "ĠJack": 1600,
      "Ġhappen": 1601,
      "Ġpress": 1602,
      "Ġchallen": 1603,
      "Ġorgan": 1604,
      "ĠOne": 1605,
      "ĠWhat": 1606,
      "iness": 1607,
      "ject": 1608,
      "ides": 1609,
      "ney": 1610,
      "atter": 1611,
      "ony": 1612,
      "ockey": 1613,
      "ĠAustral": 1614,
      "uture": 1615,
      "Ġthing": 1616,
      "Ġsy": 1617,
      "Ġdisc": 1618,
      "Ġhold": 1619,
      "Ġevents": 1620,
      "Ġrele": 1621,
      "Ġinning": 1622,
      "ained": 1623,
      "Ġes": 1624,
      "aid": 1625,
      "Ġref": 1626,
      "ording": 1627,
      "ically": 1628,
      "ER": 1629,
      "Ġtogether": 1630,
      "ino": 1631,
      "ize": 1632,
      "ĠJu": 1633,
      "Ġins": 1634,
      "augh": 1635,
      "'re": 1636,
      "Ġgener": 1637,
      "Ġused": 1638,
      "Ġonce": 1639,
      "ford": 1640,
      "Ġquest": 1641,
      "Ġnear": 1642,
      "Ġquick": 1643,
      "oci": 1644,
      "Ġtaking": 1645,
      "ĠPr": 1646,
      "Ġnational": 1647,
      "Ġtalk": 1648,
      "ential": 1649,
      "Ġiss": 1650,
      "osing": 1651,
      "ĠNorth": 1652,
      "30": 1653,
      "ĠBow": 1654,
      "ĠFe": 1655,
      "ĠEd": 1656,
      "ona": 1657,
      "Ġ2022": 1658,
      "pite": 1659,
      "ailable": 1660,
      "yle": 1661,
      "cast": 1662,
      "Ġscoring": 1663,
      "Ġdefensive": 1664,
      "Ġrest": 1665,
      "Ġface": 1666,
      "Ġbecome": 1667,
      "Ġinterest": 1668,
      "Ġlet": 1669,
      "ps": 1670,
      "Ġjob": 1671,
      "ĠTour": 1672,
      "Ġheld": 1673,
      "ĠCr": 1674,
      "Ġ#": 1675,
      "que": 1676,
      "Ġ[": 1677,
      "Ġ22": 1678,
      "Ġquarterback": 1679,
      "fe": 1680,
      "omin": 1681,
      "ox": 1682,
      "Ġask": 1683,
      "Ġdone": 1684,
      "ald": 1685,
      "Ġsw": 1686,
      "ages": 1687,
      "Ġinst": 1688,
      "ĠAm": 1689,
      "ĠÂ": 1690,
      "over": 1691,
      "Th": 1692,
      "ugg": 1693,
      "Ġdro": 1694,
      "Ġ199": 1695,
      "Ġfuture": 1696,
      "ocus": 1697,
      "ĠGe": 1698,
      "Ġbuild": 1699,
      "Ġtrack": 1700,
      "Ġtry": 1701,
      "Ġclear": 1702,
      "here": 1703,
      "ized": 1704,
      "ĠJan": 1705,
      "ute": 1706,
      "ĠCent": 1707,
      "vin": 1708,
      "ten": 1709,
      "Ġclass": 1710,
      "FA": 1711,
      "ĠYork": 1712,
      "Ġopportunity": 1713,
      "Ġstarting": 1714,
      "Ġrank": 1715,
      "ursday": 1716,
      "inals": 1717,
      "aps": 1718,
      "Ġrequ": 1719,
      "enior": 1720,
      "ĠEurope": 1721,
      "ai": 1722,
      "ention": 1723,
      "joy": 1724,
      "Ġdist": 1725,
      "Ġstra": 1726,
      "Ġold": 1727,
      "Ġpol": 1728,
      "Ġdecision": 1729,
      "Ġacross": 1730,
      "ĠMond": 1731,
      "Ġleast": 1732,
      "Ġahead": 1733,
      "ĠUniversity": 1734,
      "Ġob": 1735,
      "aim": 1736,
      "Ġaddition": 1737,
      "Ġappro": 1738,
      "Ġbring": 1739,
      "ĠWhile": 1740,
      "anche": 1741,
      "ising": 1742,
      "Ġresp": 1743,
      "Ġpot": 1744,
      "Ġsol": 1745,
      "Ġlear": 1746,
      "ĠNational": 1747,
      "Ġdoesn": 1748,
      "ari": 1749,
      "ĠThursday": 1750,
      "HL": 1751,
      "12": 1752,
      "Ġmoney": 1753,
      "chn": 1754,
      "ĠPremier": 1755,
      "Ġcertain": 1756,
      "ĠPark": 1757,
      "Ġavailable": 1758,
      "Ġmet": 1759,
      "ĠWed": 1760,
      "Ġbox": 1761,
      "ĠPat": 1762,
      "Ġmedia": 1763,
      "aul": 1764,
      "Ġcre": 1765,
      "Ġlate": 1766,
      "Ġstay": 1767,
      "Ġdoing": 1768,
      "Ġweeks": 1769,
      "Ġap": 1770,
      "ety": 1771,
      "Ġchampion": 1772,
      "Ġsever": 1773,
      "ael": 1774,
      "ele": 1775,
      "Ġseen": 1776,
      "pen": 1777,
      "ĠOlympic": 1778,
      "ĠMonday": 1779,
      "ept": 1780,
      "ston": 1781,
      "Ġguys": 1782,
      "Ġ2017": 1783,
      "Ġvide": 1784,
      "Ġtouchdown": 1785,
      "Ġless": 1786,
      "Ġhope": 1787,
      "Ġcomes": 1788,
      "uesday": 1789,
      "nesday": 1790,
      "ued": 1791,
      "ĠComm": 1792,
      "Ġwins": 1793,
      "Ġchang": 1794,
      "Ġyet": 1795,
      "Ġnet": 1796,
      "Ġwhy": 1797,
      "Ġtotal": 1798,
      "Ġcontinue": 1799,
      "Ġattack": 1800,
      "Ġpay": 1801,
      "Ġmoment": 1802,
      "Ġdep": 1803,
      "Ġsaw": 1804,
      "erse": 1805,
      "Ġspot": 1806,
      "ĠBay": 1807,
      "Ġ23": 1808,
      "orm": 1809,
      "oint": 1810,
      "ze": 1811,
      "uff": 1812,
      "Ġtest": 1813,
      "lo": 1814,
      "Ġfamily": 1815,
      "Ġoverall": 1816,
      "ĠWednesday": 1817,
      "ĠBen": 1818,
      "ĠEx": 1819,
      "ĠTuesday": 1820,
      "Ġspecial": 1821,
      "ĠMin": 1822,
      "15": 1823,
      "Ġmust": 1824,
      "Ġexpl": 1825,
      "Ġreason": 1826,
      "Ġdue": 1827,
      "Ġrepl": 1828,
      "Ġregular": 1829,
      "Ġcollege": 1830,
      "Ġwithin": 1831,
      "ĠFI": 1832,
      "tic": 1833,
      "ON": 1834,
      "Ġsched": 1835,
      "Ġfocus": 1836,
      "ush": 1837,
      "olog": 1838,
      "Ġseasons": 1839,
      "ĠTex": 1840,
      "ĠNot": 1841,
      "Ġenjoy": 1842,
      "Ġval": 1843,
      "Ġdraft": 1844,
      "Ġpercent": 1845,
      "ĠChar": 1846,
      "Ġlikely": 1847,
      "Ġofficial": 1848,
      "ĠCanad": 1849,
      "Ġtalent": 1850,
      "inc": 1851,
      "Ġthrow": 1852,
      "Ġchange": 1853,
      "Ġago": 1854,
      "Ġgiven": 1855,
      "ĠClub": 1856,
      "Ġfun": 1857,
      "Ġinformation": 1858,
      "Ġamong": 1859,
      "Ġgolf": 1860,
      "oys": 1861,
      "ives": 1862,
      "Ġsummer": 1863,
      "ĠBet": 1864,
      "Ġprevious": 1865,
      "aly": 1866,
      "He": 1867,
      "ither": 1868,
      "Ġhealth": 1869,
      "ateg": 1870,
      "Ġworking": 1871,
      "Ġsquad": 1872,
      "Ġstraight": 1873,
      "Ġ2016": 1874,
      "Ġmanager": 1875,
      "Ġprofessional": 1876,
      "rist": 1877,
      "Ġkind": 1878,
      "ribut": 1879,
      "Ġwasn": 1880,
      "ĠCal": 1881,
      "most": 1882,
      "Ġsoccer": 1883,
      "ĠWilliam": 1884,
      "Ġcontro": 1885,
      "ipp": 1886,
      "ounds": 1887,
      "ges": 1888,
      "ule": 1889,
      "ams": 1890,
      "ĠDan": 1891,
      "the": 1892,
      "ories": 1893,
      "els": 1894,
      "Ġoffense": 1895,
      "Ġparticip": 1896,
      "ugh": 1897,
      "Ġshoot": 1898,
      "Ġpitch": 1899,
      "Ġhon": 1900,
      "Ġaction": 1901,
      "ĠMarch": 1902,
      "Ġdirect": 1903,
      "Ġmod": 1904,
      "fort": 1905,
      "ouse": 1906,
      "attle": 1907,
      "osed": 1908,
      "Ġnine": 1909,
      "ĠGame": 1910,
      "Ġlove": 1911,
      "yn": 1912,
      "11": 1913,
      "IN": 1914,
      "ains": 1915,
      "Ġbaseball": 1916,
      "Ġinvol": 1917,
      "'ve": 1918,
      "ĠLa": 1919,
      "Ġcontract": 1920,
      "SP": 1921,
      "ĠGames": 1922,
      "Ġqualif": 1923,
      "iod": 1924,
      "Ġfriend": 1925,
      "ĠAmerican": 1926,
      "amed": 1927,
      "ĠStadium": 1928,
      "Ġmonths": 1929,
      "ville": 1930,
      "Ġste": 1931,
      "witter": 1932,
      "Ġcou": 1933,
      "ĠMad": 1934,
      "Ġoffensive": 1935,
      "ĠX": 1936,
      "Ġ100": 1937,
      "Ġcho": 1938,
      "Ġcoaches": 1939,
      "gers": 1940,
      "Ġprob": 1941,
      "âĢĶ": 1942,
      "Ġequ": 1943,
      "ults": 1944,
      "ĠAss": 1945,
      "Ġty": 1946,
      "dle": 1947,
      "ator": 1948,
      "ĠPar": 1949,
      "ĠSan": 1950,
      "Ġbusiness": 1951,
      "Ġinternational": 1952,
      "Ġreb": 1953,
      "OR": 1954,
      "Ġonline": 1955,
      "Ġhig": 1956,
      "Ġoppon": 1957,
      "Ġwinner": 1958,
      "Ġseveral": 1959,
      "ĠEl": 1960,
      "Ġimpress": 1961,
      "ĠSmith": 1962,
      "Ġlar": 1963,
      "Ġresult": 1964,
      "Ġplan": 1965,
      "pend": 1966,
      "ĠHigh": 1967,
      "Ġthought": 1968,
      "stem": 1969,
      "Ġ--": 1970,
      "Ġrole": 1971,
      "aming": 1972,
      "Ġname": 1973,
      "fic": 1974,
      "ĠAng": 1975,
      "ring": 1976,
      "cher": 1977,
      "ĠWar": 1978,
      "ĠAug": 1979,
      "Ġ...": 1980,
      "Ġdesign": 1981,
      "ces": 1982,
      "ĠGu": 1983,
      "ived": 1984,
      "ĠJames": 1985,
      "blem": 1986,
      "Ġmakes": 1987,
      "Ġprep": 1988,
      "Ġinvest": 1989,
      "lier": 1990,
      "ĠTom": 1991,
      "ennis": 1992,
      "ries": 1993,
      "Ġbegin": 1994,
      "irt": 1995,
      "Ġperiod": 1996,
      "work": 1997,
      "ĠOct": 1998,
      "ĠGeor": 1999,
      "Ġhimself": 2000,
      "uge": 2001,
      "ours": 2002,
      "ister": 2003,
      "Ġstep": 2004,
      "Ġ2023": 2005,
      "Ġcomb": 2006,
      "imm": 2007,
      "Ġfit": 2008,
      "ĠMatt": 2009,
      "ĠRy": 2010,
      "ugby": 2011,
      "ĠBra": 2012,
      "aken": 2013,
      "uct": 2014,
      "Ġtechn": 2015,
      "ĠBrown": 2016,
      "Ġpossible": 2017,
      "Ġmar": 2018,
      "thlet": 2019,
      "ĠSept": 2020,
      "Ġclaim": 2021,
      "ĠBy": 2022,
      "cri": 2023,
      "Ġannounced": 2024,
      "ĠColle": 2025,
      "ĠSw": 2026,
      "Ġserv": 2027,
      "Ġtrad": 2028,
      "aring": 2029,
      "ĠJust": 2030,
      "Ġcomplete": 2031,
      "Ġplays": 2032,
      "Ġcourt": 2033,
      "amb": 2034,
      "Ġgave": 2035,
      "elebr": 2036,
      "ency": 2037,
      "AS": 2038,
      "tty": 2039,
      "utive": 2040,
      "ism": 2041,
      "ivid": 2042,
      "Ġterm": 2043,
      "ashing": 2044,
      "ĠAlex": 2045,
      "Ġincre": 2046,
      "ched": 2047,
      "play": 2048,
      "Ġ26": 2049,
      "Ġactiv": 2050,
      "Ġrespect": 2051,
      "resent": 2052,
      "ĠJune": 2053,
      "Ġsingle": 2054,
      "Ġpar": 2055,
      "ĠSchool": 2056,
      "ĠPet": 2057,
      "Ġeveryone": 2058,
      "'m": 2059,
      "min": 2060,
      "Ġprodu": 2061,
      "Ġproblem": 2062,
      "Ġ27": 2063,
      "ĠMart": 2064,
      "Ġvideo": 2065,
      "Ġpop": 2066,
      "Ġmembers": 2067,
      "Ġfavor": 2068,
      "Ġtrying": 2069,
      "ĠSport": 2070,
      "pecially": 2071,
      "Ġtack": 2072,
      "fect": 2073,
      "though": 2074,
      "ĠMor": 2075,
      "ĠBig": 2076,
      "Ġwide": 2077,
      "Ġmarket": 2078,
      "Ġroad": 2079,
      "ĠBowl": 2080,
      "Ġbad": 2081,
      "Ġmean": 2082,
      "ym": 2083,
      "urther": 2084,
      "Ġaut": 2085,
      "Ġdouble": 2086,
      "iving": 2087,
      "of": 2088,
      "ĠPer": 2089,
      "Ġexpected": 2090,
      "Ġcommunity": 2091,
      "ĠOpen": 2092,
      "lling": 2093,
      "anchester": 2094,
      "resh": 2095,
      "BC": 2096,
      "Ġgrow": 2097,
      "pril": 2098,
      "ĠAthlet": 2099,
      "ids": 2100,
      "Ġtough": 2101,
      "Ġ28": 2102,
      "Ġeverything": 2103,
      "Ġimprove": 2104,
      "aign": 2105,
      "Ġsuper": 2106,
      "wh": 2107,
      "ron": 2108,
      "Ġstrugg": 2109,
      "Ġaff": 2110,
      "Ġphys": 2111,
      "Ġpractice": 2112,
      "Ġdraw": 2113,
      "Ġopening": 2114,
      "Ġleading": 2115,
      "na": 2116,
      "Ġvisit": 2117,
      "AN": 2118,
      "ĠDon": 2119,
      "aster": 2120,
      "Ġprobably": 2121,
      "Ġhop": 2122,
      "Ġwa": 2123,
      "ĠPhil": 2124,
      "aun": 2125,
      "ĠMike": 2126,
      "Ġpenal": 2127,
      "fl": 2128,
      "Ġready": 2129,
      "bur": 2130,
      "Ġcouple": 2131,
      "Ġstaff": 2132,
      "Ġview": 2133,
      "ĠDes": 2134,
      "int": 2135,
      "Ġpublic": 2136,
      "Ġclubs": 2137,
      "ki": 2138,
      "ĠDavid": 2139,
      "Ġfif": 2140,
      "Ġcase": 2141,
      "Ġoffer": 2142,
      "tim": 2143,
      "Ġpretty": 2144,
      "ĠManchester": 2145,
      "Ġve": 2146,
      "Ġwanted": 2147,
      "14": 2148,
      "50": 2149,
      "ĠAf": 2150,
      "Ġkey": 2151,
      "ĠQu": 2152,
      "Ġpotential": 2153,
      "Ġsystem": 2154,
      "gr": 2155,
      "Ġcalled": 2156,
      "weight": 2157,
      "ully": 2158,
      "Ġassist": 2159,
      "ĠMark": 2160,
      "Ġfall": 2161,
      "Ġdefend": 2162,
      "ĠIndian": 2163,
      "Ġisn": 2164,
      "ĠNow": 2165,
      "Ġlim": 2166,
      "ota": 2167,
      "Ġbook": 2168,
      "18": 2169,
      "Ġcampaign": 2170,
      "Ġple": 2171,
      "St": 2172,
      "Ġlocal": 2173,
      "CAA": 2174,
      "Ġ50": 2175,
      "ĠGer": 2176,
      "ached": 2177,
      "Ġattem": 2178,
      "ĠChrist": 2179,
      "ole": 2180,
      "Ġ2015": 2181,
      "Ġpred": 2182,
      "phy": 2183,
      "ett": 2184,
      "Ġdoub": 2185,
      "ĠApril": 2186,
      "lin": 2187,
      "dds": 2188,
      "Ġthroughout": 2189,
      "igning": 2190,
      "Ġhuge": 2191,
      "ĠGold": 2192,
      "Ġcompany": 2193,
      "book": 2194,
      "Ġcelebr": 2195,
      "uries": 2196,
      "ands": 2197,
      "ĠThom": 2198,
      "ĠTV": 2199,
      "ĠWin": 2200,
      "Ġfan": 2201,
      "Ġwalk": 2202,
      "Ġtw": 2203,
      "Ġfast": 2204,
      "Ġread": 2205,
      "ago": 2206,
      "ĠÂ£": 2207,
      "atest": 2208,
      "Ġprovide": 2209,
      "ky": 2210,
      "ient": 2211,
      "ĠAb": 2212,
      "ĠJuly": 2213,
      "Ġsitu": 2214,
      "Ġhowever": 2215,
      "pool": 2216,
      "ĠGl": 2217,
      "Ġalmost": 2218,
      "Ġground": 2219,
      "cell": 2220,
      "umb": 2221,
      "arm": 2222,
      "ĠSch": 2223,
      "ĠJohnson": 2224,
      "Ġchild": 2225,
      "ĠRob": 2226,
      "ata": 2227,
      "Ġespecially": 2228,
      "Ġsenior": 2229,
      "selves": 2230,
      "Ġ2014": 2231,
      "ficult": 2232,
      "Ġmult": 2233,
      "ĠMichael": 2234,
      "Ġindivid": 2235,
      "lish": 2236,
      "uit": 2237,
      "val": 2238,
      "Ġpresent": 2239,
      "Ġallowed": 2240,
      "Ġbiggest": 2241,
      "itted": 2242,
      "SPN": 2243,
      "ĠChampions": 2244,
      "Ġaverage": 2245,
      "Ġcurrently": 2246,
      "Ġoutside": 2247,
      "Ġbody": 2248,
      "ĠNews": 2249,
      "ĠKn": 2250,
      "17": 2251,
      "ĠMo": 2252,
      "ape": 2253,
      "16": 2254,
      "Ġdifficult": 2255,
      "Ġcond": 2256,
      "Ġoften": 2257,
      "ĠBro": 2258,
      "ana": 2259,
      "ĠPaul": 2260,
      "ample": 2261,
      "ĠCount": 2262,
      "ĠTexas": 2263,
      "Ġach": 2264,
      "Ġide": 2265,
      "Ġminute": 2266,
      "ida": 2267,
      "sec": 2268,
      "Ġcut": 2269,
      "uel": 2270,
      "ĠML": 2271,
      "sea": 2272,
      "Ġfail": 2273,
      "Ġunderstand": 2274,
      "ES": 2275,
      "Ġarea": 2276,
      "Ġtaken": 2277,
      "Ġmeans": 2278,
      "ĠAustralia": 2279,
      "Ġwhether": 2280,
      "iding": 2281,
      "Ġcorner": 2282,
      "Ġran": 2283,
      "Ġdem": 2284,
      "ĠCle": 2285,
      "iel": 2286,
      "AR": 2287,
      "ips": 2288,
      "ĠJones": 2289,
      "ĠJanuary": 2290,
      "Ġfac": 2291,
      "Ġsurpr": 2292,
      "aker": 2293,
      "bert": 2294,
      "iate": 2295,
      "come": 2296,
      "Ġprot": 2297,
      "ĠNCAA": 2298,
      "Ġprocess": 2299,
      "af": 2300,
      "ĠMore": 2301,
      "raft": 2302,
      "ĠVal": 2303,
      "Ġracing": 2304,
      "Ġstage": 2305,
      "AT": 2306,
      "ĠJoe": 2307,
      "den": 2308,
      "ĠSeries": 2309,
      "Ġ29": 2310,
      "Ġended": 2311,
      "Ġorganiz": 2312,
      "ival": 2313,
      "Ġgets": 2314,
      "Ġrepresent": 2315,
      "13": 2316,
      "Ġresults": 2317,
      "ĠHall": 2318,
      "ĠGo": 2319,
      "game": 2320,
      "che": 2321,
      "idence": 2322,
      "Ġneeds": 2323,
      "ĠBlack": 2324,
      "ager": 2325,
      "Ġfifth": 2326,
      "Ġstory": 2327,
      "Ġstrik": 2328,
      ".,": 2329,
      "Ġinnings": 2330,
      "Ġselect": 2331,
      "ĠChris": 2332,
      "Ġproduc": 2333,
      "Ġshots": 2334,
      "osh": 2335,
      "Ġlooked": 2336,
      "ĠWilliams": 2337,
      "Ġpun": 2338,
      "Ġactually": 2339,
      "irc": 2340,
      "ĠBel": 2341,
      "ĠIndia": 2342,
      "ead": 2343,
      "Ġorder": 2344,
      "ĠDay": 2345,
      "ique": 2346,
      "Ġaw": 2347,
      "eder": 2348,
      "ĠCoach": 2349,
      "fully": 2350,
      "Ġroom": 2351,
      "rid": 2352,
      "Ġocc": 2353,
      "unities": 2354,
      "ĠBrit": 2355,
      "ickets": 2356,
      "ging": 2357,
      "ales": 2358,
      "Ġimpact": 2359,
      "Ġconference": 2360,
      "Ġfurther": 2361,
      "ĠBull": 2362,
      "eg": 2363,
      "Ġbecame": 2364,
      "ĠCollege": 2365,
      "Ġeither": 2366,
      "Ġlatest": 2367,
      "ĠESPN": 2368,
      "Ġfell": 2369,
      "Ġquestion": 2370,
      "Ġability": 2371,
      "iverpool": 2372,
      "Ġpersonal": 2373,
      "ĠAssoci": 2374,
      "Ġpull": 2375,
      "Ġreach": 2376,
      "Ġearlier": 2377,
      "adem": 2378,
      "Ġdomin": 2379,
      "Ġteamm": 2380,
      "ĠSam": 2381,
      "ĠAugust": 2382,
      "ashington": 2383,
      "ators": 2384,
      "outs": 2385,
      "akers": 2386,
      "ĠNHL": 2387,
      "ored": 2388,
      "Ġcity": 2389,
      "ĠWeek": 2390,
      "ĠBo": 2391,
      "hest": 2392,
      "antage": 2393,
      "Ġperfect": 2394,
      "Ġeasy": 2395,
      "Ġmot": 2396,
      "ĠChel": 2397,
      "ĠEm": 2398,
      "Ġmind": 2399,
      "aving": 2400,
      "Ġneeded": 2401,
      "ission": 2402,
      "Ġinside": 2403,
      "no": 2404,
      "Ġsocial": 2405,
      "ination": 2406,
      "ĠHam": 2407,
      "ĠFC": 2408,
      "ww": 2409,
      "Ġbelieve": 2410,
      "ĠRuss": 2411,
      "Ġsigned": 2412,
      "ĠWil": 2413,
      "Ġentire": 2414,
      "ians": 2415,
      "Ġsmall": 2416,
      "Ġaccording": 2417,
      "ively": 2418,
      "Ġoper": 2419,
      "ĠCO": 2420,
      "Ġanything": 2421,
      "Ġspeed": 2422,
      "Ġknown": 2423,
      "ĠFlor": 2424,
      "Ġusing": 2425,
      "ĠMil": 2426,
      "ID": 2427,
      "Ġfant": 2428,
      "Ġaward": 2429,
      "ert": 2430,
      "ests": 2431,
      "ĠLiverpool": 2432,
      "ĠWashington": 2433,
      "Ġsoon": 2434,
      "Ġ40": 2435,
      "'ll": 2436,
      "ĠGreen": 2437,
      "arch": 2438,
      "Ġeng": 2439,
      "Ġage": 2440,
      "inn": 2441,
      "Ġ198": 2442,
      "Ġguy": 2443,
      "ama": 2444,
      "Ġmissed": 2445,
      "ĠAfric": 2446,
      "Ġcard": 2447,
      "Ġattend": 2448,
      "Ġsignific": 2449,
      "Ġdebut": 2450,
      "Ġinjuries": 2451,
      "ilar": 2452,
      "Ġparticular": 2453,
      "Ġ2012": 2454,
      "uk": 2455,
      "Ġrul": 2456,
      "Ġcas": 2457,
      "rick": 2458,
      "Ġgold": 2459,
      "lor": 2460,
      "ĠRyan": 2461,
      "ences": 2462,
      "ĠPres": 2463,
      "Ġtakes": 2464,
      "Ġstreng": 2465,
      "body": 2466,
      "Ġpur": 2467,
      "Ġlow": 2468,
      "Ġmidfield": 2469,
      "Ġhelped": 2470,
      "Ġhits": 2471,
      "Ġhappy": 2472,
      "ĠOff": 2473,
      "Ġtar": 2474,
      "ĠChe": 2475,
      "ovember": 2476,
      "ĠSeptember": 2477,
      "anch": 2478,
      "ee": 2479,
      "ober": 2480,
      "Ġest": 2481,
      "aged": 2482,
      "Ġ@": 2483,
      "Ġhockey": 2484,
      "con": 2485,
      "ĠEuropean": 2486,
      "Ġreported": 2487,
      "Ġsuff": 2488,
      "Ġquite": 2489,
      "ex": 2490,
      "Ġconcer": 2491,
      "irm": 2492,
      "ĠMy": 2493,
      "ĠOlympics": 2494,
      "ĠHere": 2495,
      "igan": 2496,
      "ĠAngel": 2497,
      "yard": 2498,
      "Ġcommit": 2499,
      "Ġcross": 2500,
      "Ġz": 2501,
      "ession": 2502,
      "ĠTy": 2503,
      "Ġothers": 2504,
      "Ġabs": 2505,
      "Ġextra": 2506,
      "Ġens": 2507,
      "Ġsem": 2508,
      "Ġrecently": 2509,
      "Ġbat": 2510,
      "Ġpositive": 2511,
      "//": 2512,
      "hers": 2513,
      "Ġlooks": 2514,
      "gy": 2515,
      "Ġgir": 2516,
      "Ġbroad": 2517,
      "ĠReg": 2518,
      "Ġdespite": 2519,
      "Ġasked": 2520,
      "Ġsn": 2521,
      "Ġwebs": 2522,
      "ĠMcC": 2523,
      "Ġfoot": 2524,
      "Ġcost": 2525,
      "ĠLou": 2526,
      "Ġwhole": 2527,
      "aut": 2528,
      "ability": 2529,
      "Ġassists": 2530,
      "Ġseconds": 2531,
      "Ġstat": 2532,
      "Ġcoaching": 2533,
      "ĠWomen": 2534,
      "Ġlosing": 2535,
      "clus": 2536,
      "ĠMon": 2537,
      "ĠNovember": 2538,
      "istr": 2539,
      "oto": 2540,
      "25": 2541,
      "Ġsent": 2542,
      "ison": 2543,
      "ider": 2544,
      "ĠFlorida": 2545,
      "Ġbene": 2546,
      "ĠYear": 2547,
      "ĠIntern": 2548,
      "ansas": 2549,
      "Ġnamed": 2550,
      "ĠCard": 2551,
      "ustom": 2552,
      "ĠEag": 2553,
      "Ġcover": 2554,
      "Ġcontribut": 2555,
      "Ġred": 2556,
      "Ġstop": 2557,
      "Ġaccess": 2558,
      "Ġfresh": 2559,
      "Ġadvantage": 2560,
      "ĠGrand": 2561,
      "Ġcertainly": 2562,
      "Ġ2013": 2563,
      "Ġcompete": 2564,
      "Ġthr": 2565,
      "Ġjump": 2566,
      "ander": 2567,
      "Ġinclude": 2568,
      "ĠDr": 2569,
      "Ġstarts": 2570,
      "Ġpromot": 2571,
      "win": 2572,
      "ĠBre": 2573,
      "Ġearned": 2574,
      "oke": 2575,
      "riz": 2576,
      "ĠUFC": 2577,
      "Ġpredict": 2578,
      "ibility": 2579,
      "://": 2580,
      "bo": 2581,
      "rought": 2582,
      "Ġfelt": 2583,
      "Ġbegan": 2584,
      "Ġpair": 2585,
      "Ġsignificant": 2586,
      "Ġgoes": 2587,
      "cel": 2588,
      "ĠChelsea": 2589,
      "Ġey": 2590,
      "ien": 2591,
      "Ġworked": 2592,
      "avy": 2593,
      "Ġroster": 2594,
      "Ġdiscuss": 2595,
      "point": 2596,
      "Ġdefin": 2597,
      "ĠWhite": 2598,
      "enty": 2599,
      "Ġstadium": 2600,
      "ĠTig": 2601,
      "Ġconsist": 2602,
      "Ġjun": 2603,
      "EN": 2604,
      "ilities": 2605,
      "Ġcaptain": 2606,
      "bed": 2607,
      "ondon": 2608,
      "ites": 2609,
      "Ġfig": 2610,
      "cember": 2611,
      "ĠOctober": 2612,
      "urning": 2613,
      "ift": 2614,
      "Ġsuccessful": 2615,
      "21": 2616,
      "ĠGerman": 2617,
      "Ġfund": 2618,
      "Ġsus": 2619,
      "ĠJackson": 2620,
      "AC": 2621,
      "eng": 2622,
      "ĠJord": 2623,
      "iff": 2624,
      "Ġlaw": 2625,
      "illed": 2626,
      "ows": 2627,
      "Ġworth": 2628,
      "ĠRod": 2629,
      "bruary": 2630,
      "ream": 2631,
      "pping": 2632,
      "Ġpressure": 2633,
      "ĠDivision": 2634,
      "Ġeffect": 2635,
      "ĠGian": 2636,
      "ĠScott": 2637,
      "Ġwrest": 2638,
      "sw": 2639,
      "ĠGolf": 2640,
      "Ġdeep": 2641,
      "ĠJe": 2642,
      "Ġair": 2643,
      "ĠCarol": 2644,
      "ocked": 2645,
      "Ġmus": 2646,
      "oph": 2647,
      "Ġra": 2648,
      "Ġpros": 2649,
      "Ġplayoffs": 2650,
      "ersey": 2651,
      "Ġodds": 2652,
      "Ġvers": 2653,
      "ĠNet": 2654,
      "Ġturned": 2655,
      "ask": 2656,
      "ĠHer": 2657,
      "icago": 2658,
      "Ġeffort": 2659,
      "Ġinvolved": 2660,
      "aging": 2661,
      "Ġenc": 2662,
      "Ġbelow": 2663,
      "Ġmatter": 2664,
      "ĠEast": 2665,
      "ĠFIFA": 2666,
      "Ġpopular": 2667,
      "ĠInst": 2668,
      "ico": 2669,
      "coming": 2670,
      "read": 2671,
      "Ġcontinued": 2672,
      "Ġappe": 2673,
      "use": 2674,
      "Ġpenalty": 2675,
      "ĠTwitter": 2676,
      "rian": 2677,
      "Ġtransfer": 2678,
      "erc": 2679,
      "Ġbased": 2680,
      "ĠDecember": 2681,
      "ĠAg": 2682,
      "ership": 2683,
      "Ġathlete": 2684,
      "ĠAcc": 2685,
      "ĠArs": 2686,
      "Ġguard": 2687,
      "era": 2688,
      "Ġmor": 2689,
      "icks": 2690,
      "Ġgiving": 2691,
      "lev": 2692,
      "ĠRB": 2693,
      "Ġnothing": 2694,
      "ental": 2695,
      "Ġdevelopment": 2696,
      "ĠFebruary": 2697,
      "Ġthemselves": 2698,
      "Ġseems": 2699,
      "Ġtell": 2700,
      "Ġfore": 2701,
      "ified": 2702,
      "Ġ31": 2703,
      "ĠLos": 2704,
      "Ġeas": 2705,
      "ĠLast": 2706,
      "ung": 2707,
      "ĠUSA": 2708,
      "RA": 2709,
      "ĠSoc": 2710,
      "Ġchallenge": 2711,
      "Ġsolid": 2712,
      "oles": 2713,
      "ĠTor": 2714,
      "23": 2715,
      "acy": 2716,
      "SU": 2717,
      "ogn": 2718,
      "ĠEagles": 2719,
      "ĠDo": 2720,
      "Ġpartners": 2721,
      "ĠCor": 2722,
      "ĠIr": 2723,
      "aren": 2724,
      "ĠThese": 2725,
      "atic": 2726,
      "ĠLondon": 2727,
      "Ġnon": 2728,
      "ĠAnt": 2729,
      "Ġbow": 2730,
      "ĠChicago": 2731,
      "Ġdivision": 2732,
      "Ġbrand": 2733,
      "Ġcenter": 2734,
      "Ġcontrol": 2735,
      "awks": 2736,
      "Ġquickly": 2737,
      "ushing": 2738,
      "Ġfollowed": 2739,
      "zil": 2740,
      "ĠGar": 2741,
      "reen": 2742,
      "iami": 2743,
      "urt": 2744,
      "Ġmember": 2745,
      "itely": 2746,
      "ĠRich": 2747,
      "me": 2748,
      "lant": 2749,
      "Ġtravel": 2750,
      "Ġquality": 2751,
      "Ġelse": 2752,
      "Ġcheck": 2753,
      "Ġsaying": 2754,
      "ĠGroup": 2755,
      "ny": 2756,
      "Ġcol": 2757,
      "ĠOver": 2758,
      "Ġton": 2759,
      "Ġhours": 2760,
      "ĠConference": 2761,
      "Ġbrought": 2762,
      "Ġlight": 2763,
      "Ġsituation": 2764,
      "Ġreceived": 2765,
      "Ġcontest": 2766,
      "22": 2767,
      "ĠCanada": 2768,
      "Ġland": 2769,
      "ology": 2770,
      "Ġcrow": 2771,
      "Ġnation": 2772,
      "wood": 2773,
      "Ġimpressive": 2774,
      "oston": 2775,
      "ĠSain": 2776,
      "ĠJordan": 2777,
      "Ġspons": 2778,
      "ĠPe": 2779,
      "Ġrook": 2780,
      "Ġcrit": 2781,
      "ply": 2782,
      "Ġbar": 2783,
      "Ġdetail": 2784,
      "gend": 2785,
      "Ġathletic": 2786,
      "lection": 2787,
      "Ġmiddle": 2788,
      "de": 2789,
      "Ġhtt": 2790,
      "Ġvia": 2791,
      "ĠMed": 2792,
      "ĠAc": 2793,
      "Ġphysical": 2794,
      "Ġinit": 2795,
      "under": 2796,
      "ĠWood": 2797,
      "reme": 2798,
      "ĠMiami": 2799,
      "ĠFrom": 2800,
      "Ġ(@": 2801,
      "WE": 2802,
      "Ġris": 2803,
      "used": 2804,
      "ĠLouis": 2805,
      "Ġaccount": 2806,
      "Ġcricket": 2807,
      "Ġcompetitive": 2808,
      "Ġspent": 2809,
      "oman": 2810,
      "Ġagre": 2811,
      "Ġinterview": 2812,
      "Ġshowed": 2813,
      "ades": 2814,
      "ĠOh": 2815,
      "Ġwebsite": 2816,
      "ST": 2817,
      "ara": 2818,
      "Ġgover": 2819,
      "ĠEn": 2820,
      "reg": 2821,
      "Ġcreat": 2822,
      "Ġconne": 2823,
      "Ġstrength": 2824,
      "leg": 2825,
      "Ġcontact": 2826,
      "ĠRoy": 2827,
      "orts": 2828,
      "ĠArsenal": 2829,
      "ĠPal": 2830,
      "Ġsupp": 2831,
      "Ġregard": 2832,
      "Ġlarge": 2833,
      "Ġpresident": 2834,
      "Ġskills": 2835,
      "osp": 2836,
      "Ġsigning": 2837,
      "Ġraces": 2838,
      "ĠBas": 2839,
      "Ġmedal": 2840,
      "Ġtennis": 2841,
      "GA": 2842,
      "Ġknew": 2843,
      "Ġconsider": 2844,
      "Ġjour": 2845,
      "Ġtrade": 2846,
      "orse": 2847,
      "Ġfix": 2848,
      "ycl": 2849,
      "apan": 2850,
      "Ġnearly": 2851,
      "ĠClass": 2852,
      "Ġdecided": 2853,
      "right": 2854,
      "Ġcouldn": 2855,
      "Ġsimilar": 2856,
      "Ã©": 2857,
      "ĠSy": 2858,
      "rd": 2859,
      "ĠCarolina": 2860,
      "Ġindust": 2861,
      "Ġfil": 2862,
      "aught": 2863,
      "ĠMur": 2864,
      "Ġfavorite": 2865,
      "Ġbecom": 2866,
      "ĠBoston": 2867,
      "ĠPresident": 2868,
      "ution": 2869,
      "Ġbenef": 2870,
      "ĠCam": 2871,
      "Ġboard": 2872,
      "Ġten": 2873,
      "Ġchances": 2874,
      "Ġund": 2875,
      "cle": 2876,
      "Ġprior": 2877,
      "ĠInternational": 2878,
      "ĠAngeles": 2879,
      "Ġdeterm": 2880,
      "Ġfinally": 2881,
      "Ġcreate": 2882,
      "agues": 2883,
      "Ġsomeone": 2884,
      "roud": 2885,
      "sc": 2886,
      "Ġexcell": 2887,
      "Ġabove": 2888,
      "iol": 2889,
      "Ġartic": 2890,
      "Ġcomment": 2891,
      "Ġbelie": 2892,
      "LL": 2893,
      "ĠRep": 2894,
      "ches": 2895,
      "fr": 2896,
      "atform": 2897,
      "ĠSl": 2898,
      "Ġwants": 2899,
      "ucky": 2900,
      "set": 2901,
      "Ġaver": 2902,
      "ĠMid": 2903,
      "par": 2904,
      "Ġcirc": 2905,
      "ĠFrance": 2906,
      "Ġdrive": 2907,
      "Ġjunior": 2908,
      "ĠChampionships": 2909,
      "Ġexcited": 2910,
      "Ġrecogn": 2911,
      "ĠAtlant": 2912,
      "Ġadm": 2913,
      "iet": 2914,
      "Ġstatement": 2915,
      "Ġrout": 2916,
      "ĠFirst": 2917,
      "ĠAssociation": 2918,
      "Ġhands": 2919,
      "Ġ/": 2920,
      "Ġwel": 2921,
      "Ġsaf": 2922,
      "ĠTra": 2923,
      "ode": 2924,
      "Ġdeliver": 2925,
      "ĠBrazil": 2926,
      "viously": 2927,
      "ĠRes": 2928,
      "ĠPol": 2929,
      "Ġhot": 2930,
      "ltim": 2931,
      "Ġdefeat": 2932,
      "Ġstrateg": 2933,
      "uke": 2934,
      "ilt": 2935,
      "ears": 2936,
      "Ġopportunities": 2937,
      "ĠCounty": 2938,
      "Ġtrain": 2939,
      "where": 2940,
      "ĠAmerica": 2941,
      "Ġschedule": 2942,
      "Ġshare": 2943,
      "ĠBoth": 2944,
      "Ġincred": 2945,
      "CC": 2946,
      "rophy": 2947,
      "Ġpack": 2948,
      "Ġ197": 2949,
      "ently": 2950,
      "ĠChief": 2951,
      "ĠSome": 2952,
      "Ġmoved": 2953,
      "Ġissues": 2954,
      "Ġleave": 2955,
      "ĠTri": 2956,
      "Ġrange": 2957,
      "Ġnice": 2958,
      "lished": 2959,
      "ĠJosh": 2960,
      "ĠPort": 2961,
      "ĠPit": 2962,
      "Ġdisapp": 2963,
      "my": 2964,
      "iple": 2965,
      "Ġlaun": 2966,
      "ĠMill": 2967,
      "Ġgone": 2968,
      "ĠJapan": 2969,
      "Ġkne": 2970,
      "Ġfriends": 2971,
      "Ġmorning": 2972,
      "ĠHou": 2973,
      "Ġremain": 2974,
      "Ġcustom": 2975,
      "Ġprogress": 2976,
      "asing": 2977,
      "Ġsixth": 2978,
      "Ġlose": 2979,
      "ĠUK": 2980,
      "Ġproject": 2981,
      "ĠReal": 2982,
      "Ġkids": 2983,
      "Ġdefinitely": 2984,
      "Ġshooting": 2985,
      "Ġ2011": 2986,
      "ret": 2987,
      "kins": 2988,
      "ĠTop": 2989,
      "MA": 2990,
      "ĠStates": 2991,
      "24": 2992,
      "ado": 2993,
      "Ġhighl": 2994,
      "cons": 2995,
      "Ġcatch": 2996,
      "Ġstarter": 2997,
      "You": 2998,
      "etro": 2999,
      "Ġjoined": 3000,
      "ĠKing": 3001,
      "ĠThomas": 3002,
      "Ġrebounds": 3003,
      "Ġlack": 3004,
      "Ġstudents": 3005,
      "ĠBill": 3006,
      "Ġbattle": 3007,
      "ĠMal": 3008,
      "Ġterms": 3009,
      "Ġchampions": 3010,
      "Ġfair": 3011,
      "ĠMichigan": 3012,
      "ĠEven": 3013,
      "Ġsug": 3014,
      "Ġbott": 3015,
      "Ġcoun": 3016,
      "Ġimmed": 3017,
      "Ġindividual": 3018,
      "Ġheart": 3019,
      "astic": 3020,
      "This": 3021,
      "hor": 3022,
      "Ġincluded": 3023,
      "IT": 3024,
      "Ġupd": 3025,
      "ero": 3026,
      "Ġanyone": 3027,
      "Ġsite": 3028,
      "ĠMLB": 3029,
      "ĠDen": 3030,
      "Ġmanaged": 3031,
      "Ġplatform": 3032,
      "VID": 3033,
      "ĠRock": 3034,
      "pm": 3035,
      "Ġranked": 3036,
      "ati": 3037,
      "Ġhom": 3038,
      "Ġtouchdowns": 3039,
      "ourt": 3040,
      "ĠPlayer": 3041,
      "Ġsimply": 3042,
      "Ġkept": 3043,
      "Ġfranch": 3044,
      "oma": 3045,
      "ises": 3046,
      "ĠKevin": 3047,
      "ĠGiants": 3048,
      "ĠSim": 3049,
      "ĠRacing": 3050,
      "keep": 3051,
      "Ġhighest": 3052,
      "ĠOf": 3053,
      "ĠJr": 3054,
      "Ġpassing": 3055,
      "iring": 3056,
      "tee": 3057,
      "ĠMadrid": 3058,
      "Ġcontent": 3059,
      "ĠPre": 3060,
      "ray": 3061,
      "Ġschedul": 3062,
      "ĠWWE": 3063,
      "ried": 3064,
      "Ġtarget": 3065,
      "Ġev": 3066,
      "Ġca": 3067,
      "Ġcomfort": 3068,
      "Ġlearn": 3069,
      "EC": 3070,
      "Ġcal": 3071,
      "Ġcrowd": 3072,
      "Ġproud": 3073,
      "ĠBase": 3074,
      "aled": 3075,
      "Ġoffers": 3076,
      "Ġrookie": 3077,
      "Ġclos": 3078,
      "ĠHouston": 3079,
      "ature": 3080,
      "Ġserious": 3081,
      "Ġstrike": 3082,
      "Ġarri": 3083,
      "aylor": 3084,
      "ĠBry": 3085,
      "Ġtowards": 3086,
      "pects": 3087,
      "li": 3088,
      "ĠOur": 3089,
      "ought": 3090,
      "Ġ2010": 3091,
      "ĠTwo": 3092,
      "iron": 3093,
      "Ġtable": 3094,
      "Ġsafety": 3095,
      "ĠJose": 3096,
      "allas": 3097,
      "ĠKansas": 3098,
      "Ġcred": 3099,
      "porters": 3100,
      "Ġtight": 3101,
      "ilver": 3102,
      "obal": 3103,
      "Ġmeeting": 3104,
      "Ġrespons": 3105,
      "Ġexec": 3106,
      "Ġvar": 3107,
      "Ġchildren": 3108,
      "nding": 3109,
      "ĠField": 3110,
      "aily": 3111,
      "ĠSal": 3112,
      "secutive": 3113,
      "Ġservice": 3114,
      "ĠRon": 3115,
      "Ġgeneral": 3116,
      "Ġissue": 3117,
      "ĠPri": 3118,
      "Ġdata": 3119,
      "Ġchanges": 3120,
      "Ġhappened": 3121,
      "ĠComp": 3122,
      "ĠTH": 3123,
      "ĠSpe": 3124,
      "Ġtrue": 3125,
      "Ġdig": 3126,
      "atched": 3127,
      "ĠPatri": 3128,
      "Ġvalue": 3129,
      "ĠVir": 3130,
      "ploy": 3131,
      "Ġindustry": 3132,
      "Ġopponent": 3133,
      "Ġansw": 3134,
      "Ġaccom": 3135,
      "Ġmil": 3136,
      "Ġcollect": 3137,
      "ĠBob": 3138,
      "Ġshows": 3139,
      "ension": 3140,
      "ĠDespite": 3141,
      "Ġexciting": 3142,
      "AP": 3143,
      "ho": 3144,
      "lement": 3145,
      "Ġwatching": 3146,
      "ibly": 3147,
      "Ġleader": 3148,
      "Ġattempt": 3149,
      "ench": 3150,
      "Ġachieve": 3151,
      "Ġpitcher": 3152,
      "Ġ49": 3153,
      "ĠAriz": 3154,
      "ĠAccording": 3155,
      "not": 3156,
      "Ġoption": 3157,
      "ĠCont": 3158,
      "Ġactivities": 3159,
      "men": 3160,
      "Ġwind": 3161,
      "ij": 3162,
      "Ġplenty": 3163,
      "ademy": 3164,
      "han": 3165,
      "ĠNick": 3166,
      "Ġnumbers": 3167,
      "Ġpain": 3168,
      "ĠOk": 3169,
      "Ġarm": 3170,
      "Ġtre": 3171,
      "Ġwar": 3172,
      "ĠCenter": 3173,
      "ĠTim": 3174,
      "Ġtwice": 3175,
      "ĠSoccer": 3176,
      "ubs": 3177,
      "Ġstreak": 3178,
      "Ġconsecutive": 3179,
      "Ġgirls": 3180,
      "ĠCow": 3181,
      "Ġexact": 3182,
      "Ġ32": 3183,
      "estern": 3184,
      "Ġlik": 3185,
      "see": 3186,
      "Ġpicked": 3187,
      "ĠEvery": 3188,
      "Ġveter": 3189,
      "Ġreve": 3190,
      "ĠBlue": 3191,
      "ĠMartin": 3192,
      "Ġapproach": 3193,
      "haps": 3194,
      "ĠUnder": 3195,
      "ĠRa": 3196,
      "ĠFranc": 3197,
      "erous": 3198,
      "Ġreceiver": 3199,
      "eal": 3200,
      "ĠBrad": 3201,
      "Ġsporting": 3202,
      "Ġrecr": 3203,
      "inger": 3204,
      "ĠBritish": 3205,
      "Ġways": 3206,
      "ĠDallas": 3207,
      "Ġremember": 3208,
      "ĠMag": 3209,
      "rench": 3210,
      "Ġmoving": 3211,
      "Ġfigh": 3212,
      "Ġcontinues": 3213,
      "ica": 3214,
      "Ġplans": 3215,
      "ĠâĢ¢": 3216,
      "eman": 3217,
      "Ġstret": 3218,
      "ires": 3219,
      "ED": 3220,
      "Ġoptions": 3221,
      "Ġpasses": 3222,
      "ĠWild": 3223,
      "ĠTaylor": 3224,
      "ĠStep": 3225,
      "Ġincludes": 3226,
      "Ġmess": 3227,
      "yond": 3228,
      "nesota": 3229,
      "Ġreached": 3230,
      "azing": 3231,
      "ĠUp": 3232,
      "ĠBaseball": 3233,
      "ĠCOVID": 3234,
      "AM": 3235,
      "ĠInter": 3236,
      "gia": 3237,
      "Ġrather": 3238,
      "ading": 3239,
      "ĠThen": 3240,
      "Ġtie": 3241,
      "Ġ35": 3242,
      "egas": 3243,
      "Ġextend": 3244,
      "Ġopponents": 3245,
      "oul": 3246,
      "ĠBu": 3247,
      "inson": 3248,
      "ceed": 3249,
      "Ġorig": 3250,
      "anced": 3251,
      "like": 3252,
      "ĠTit": 3253,
      "Ġthreat": 3254,
      "ĠMr": 3255,
      "ucks": 3256,
      "OU": 3257,
      "iter": 3258,
      "Ġfeatures": 3259,
      "ns": 3260,
      "Ġmatchup": 3261,
      "ĠMiss": 3262,
      "Ġsto": 3263,
      "ĠMa": 3264,
      "ula": 3265,
      "Ġamount": 3266,
      "ĠApp": 3267,
      "Ġmultiple": 3268,
      ".)": 3269,
      "Ġreturned": 3270,
      "ĠGet": 3271,
      "Ġproper": 3272,
      "Ġgym": 3273,
      "Ġcoll": 3274,
      "aine": 3275,
      "Ġorganization": 3276,
      "Ġyouth": 3277,
      "ĠMinnesota": 3278,
      "imb": 3279,
      "Ġexample": 3280,
      "Ġtyp": 3281,
      "Ġemail": 3282,
      "Ġstyle": 3283,
      "Ġrules": 3284,
      "dog": 3285,
      "Ġbuilding": 3286,
      "ĠVill": 3287,
      "Ġtonight": 3288,
      "Ġstudent": 3289,
      "Ġtied": 3290,
      "ĠFin": 3291,
      "Ġbeginning": 3292,
      "ili": 3293,
      "Ġident": 3294,
      "ĠArizona": 3295,
      "Ġspecific": 3296,
      "Ġgrad": 3297,
      "Ġspace": 3298,
      "Ġlineup": 3299,
      "ĠPatriots": 3300,
      "Ġmass": 3301,
      "Ġteammates": 3302,
      "Ġring": 3303,
      "ĠWarri": 3304,
      "ĠEnglish": 3305,
      "Ġdriver": 3306,
      "orth": 3307,
      "Ġgovern": 3308,
      "Ġcoverage": 3309,
      "ogra": 3310,
      "celona": 3311,
      "Ġinsp": 3312,
      "ester": 3313,
      "Ġspring": 3314,
      "Ġremains": 3315,
      "ĠSun": 3316,
      "venth": 3317,
      "Ġbench": 3318,
      "ĠTod": 3319,
      "ĠTigers": 3320,
      "Ġdate": 3321,
      "ĠDel": 3322,
      "Ġprovided": 3323,
      "iant": 3324,
      "nament": 3325,
      "yl": 3326,
      "ĠRugby": 3327,
      "ipped": 3328,
      "bor": 3329,
      "kn": 3330,
      "ĠLions": 3331,
      "ault": 3332,
      "ĠMont": 3333,
      "ĠFinal": 3334,
      "Ġweight": 3335,
      "Ġlonger": 3336,
      "ĠBur": 3337,
      "vert": 3338,
      "Ġ60": 3339,
      "Ġmention": 3340,
      "ĠHockey": 3341,
      "Ġhasn": 3342,
      "Ġtitles": 3343,
      "ĠSteve": 3344,
      "ĠCalif": 3345,
      "ĠCharl": 3346,
      "ĠBer": 3347,
      "Ġremaining": 3348,
      "ĠDavis": 3349,
      "ordin": 3350,
      "Ġfranchise": 3351,
      "ĠCamp": 3352,
      "ĠFollow": 3353,
      "olley": 3354,
      "noon": 3355,
      "Ġreceive": 3356,
      "SA": 3357,
      "Ġhigher": 3358,
      "Ġbottom": 3359,
      "Ġvot": 3360,
      "ude": 3361,
      "Ġpie": 3362,
      "raw": 3363,
      "Ġbets": 3364,
      "ĠYan": 3365,
      "ĠBron": 3366,
      "ĠHill": 3367,
      "uction": 3368,
      "Ġseed": 3369,
      "Ġconfidence": 3370,
      "Ġpicks": 3371,
      "Ġlock": 3372,
      "ĠDraft": 3373,
      "Ġhitting": 3374,
      "ulation": 3375,
      "ĠFrench": 3376,
      "idge": 3377,
      "ĠJeff": 3378,
      "ĠGood": 3379,
      "Ġforced": 3380,
      "ĠLet": 3381,
      "Ġlif": 3382,
      "Ġtried": 3383,
      "Ġemer": 3384,
      "Ġalthough": 3385,
      "Ġrugby": 3386,
      "Ġreleased": 3387,
      "adel": 3388,
      "ĠDar": 3389,
      "Ġarg": 3390,
      "Ġwond": 3391,
      "hand": 3392,
      "ĠBarcelona": 3393,
      "Ġfeet": 3394,
      "Ġ+": 3395,
      "ĠJets": 3396,
      "Ġproduct": 3397,
      "Ġhum": 3398,
      "ĠStan": 3399,
      "Ġmaybe": 3400,
      "Ġdifference": 3401,
      "Ġslow": 3402,
      "angers": 3403,
      "Ġfre": 3404,
      "Ġrelations": 3405,
      "ĠCap": 3406,
      "run": 3407,
      "isions": 3408,
      "Ġneg": 3409,
      "ani": 3410,
      "40": 3411,
      "Ġrow": 3412,
      "Ġtrip": 3413,
      "Ġwouldn": 3414,
      "Ġafternoon": 3415,
      "Ġâ": 3416,
      "Ġ36": 3417,
      "Ġscores": 3418,
      "Ġdead": 3419,
      "vens": 3420,
      "Ġvarious": 3421,
      "They": 3422,
      "Ġmix": 3423,
      "Ġlegend": 3424,
      "Ġdev": 3425,
      "AL": 3426,
      "ĠVegas": 3427,
      "uz": 3428,
      "Ġsafe": 3429,
      "rey": 3430,
      "ĠGeorgia": 3431,
      "ĠWell": 3432,
      "Ġknows": 3433,
      "Ġcaught": 3434,
      "andem": 3435,
      "Ġidea": 3436,
      "Ġputting": 3437,
      "iers": 3438,
      "ĠSpr": 3439,
      "ĠAustralian": 3440,
      "Ġsense": 3441,
      "ĠPant": 3442,
      "ĠAndrew": 3443,
      "Ġestab": 3444,
      "weet": 3445,
      "Ġreports": 3446,
      "ĠWilson": 3447,
      "Ġschools": 3448,
      "Ġprop": 3449,
      "Ġpartner": 3450,
      "onus": 3451,
      "burgh": 3452,
      "itor": 3453,
      "TS": 3454,
      "ery": 3455,
      "Ġblock": 3456,
      "ĠBal": 3457,
      "Ġunique": 3458,
      "Ġboys": 3459,
      "Ġhttps": 3460,
      "idel": 3461,
      "erem": 3462,
      "Ġpace": 3463,
      "inks": 3464,
      "ĠCur": 3465,
      "Ġinfl": 3466,
      "ĠAfrica": 3467,
      "ĠYoung": 3468,
      "erve": 3469,
      "There": 3470,
      "IC": 3471,
      "Ġinjured": 3472,
      "Ġseventh": 3473,
      "Ġwater": 3474,
      "Ġdefender": 3475,
      "Ġknee": 3476,
      "ols": 3477,
      "Ġrights": 3478,
      "Ġener": 3479,
      "ĠChampion": 3480,
      "Ġpaid": 3481,
      "ĠMost": 3482,
      "ma": 3483,
      "Ġexcellent": 3484,
      "Ġpat": 3485,
      "ĠWat": 3486,
      "ĠTown": 3487,
      "Ġattention": 3488,
      "Ġmaintain": 3489,
      "Ġdepart": 3490,
      "ĠEv": 3491,
      "lled": 3492,
      "ĠMem": 3493,
      "Ġleagues": 3494,
      "Ġwrong": 3495,
      "ĠPac": 3496,
      "Ġsour": 3497,
      "ption": 3498,
      "erseys": 3499,
      "while": 3500,
      "arant": 3501,
      "boys": 3502,
      "Ġ33": 3503,
      "Ġconsidered": 3504,
      "aments": 3505,
      "Ġtackle": 3506,
      "ĠMel": 3507,
      "Ġgives": 3508,
      "Ġsides": 3509,
      "Ġquestions": 3510,
      "Ġtour": 3511,
      "ĠEs": 3512,
      "ĠTournament": 3513,
      "ĠLive": 3514,
      "Ġappearances": 3515,
      "In": 3516,
      "Ġfinishing": 3517,
      "isco": 3518,
      "eth": 3519,
      "ĠRBI": 3520,
      "Ġpod": 3521,
      "ĠSince": 3522,
      "Ġarticle": 3523,
      "ĠJunior": 3524,
      "bre": 3525,
      "Ġcarry": 3526,
      "Ġwinners": 3527,
      "Ġcompleted": 3528,
      "adio": 3529,
      "Ġdirector": 3530,
      "ĠIm": 3531,
      "ĠSky": 3532,
      "Ġsal": 3533,
      "Ġ34": 3534,
      "iders": 3535,
      "une": 3536,
      "Ġzone": 3537,
      "Ġlink": 3538,
      "ĠPhill": 3539,
      "Ġscheduled": 3540,
      "Ġopened": 3541,
      "Ġinstead": 3542,
      "ĠOut": 3543,
      "Ġboxing": 3544,
      "ĠGolden": 3545,
      "Ġaud": 3546,
      "aud": 3547,
      "Ġfavour": 3548,
      "Ġfeeling": 3549,
      "ĠWarriors": 3550,
      "Ġamazing": 3551,
      "Ġextreme": 3552,
      "irmed": 3553,
      "ĠOl": 3554,
      "Ġaim": 3555,
      "ĠMen": 3556,
      "IS": 3557,
      "Ġknock": 3558,
      "ĠOhio": 3559,
      "28": 3560,
      "ĠBasketball": 3561,
      "ĠGeorge": 3562,
      "star": 3563,
      "ĠPack": 3564,
      "pro": 3565,
      "ĠCarl": 3566,
      "ĠQB": 3567,
      "Ġinteresting": 3568,
      "Ġposted": 3569,
      "Ġsuggest": 3570,
      "ĠHead": 3571,
      "Ġfather": 3572,
      "Ġfinanc": 3573,
      "Ġentertain": 3574,
      "RE": 3575,
      "ĠSec": 3576,
      "Ġpage": 3577,
      "Ġrate": 3578,
      "ĠDem": 3579,
      "olute": 3580,
      "ĠBrand": 3581,
      "aron": 3582,
      "Ġintro": 3583,
      "well": 3584,
      "ING": 3585,
      "Ġfailed": 3586,
      "Ġow": 3587,
      "Ġpartnership": 3588,
      "Ġfly": 3589,
      "Ġrese": 3590,
      "Ġnecess": 3591,
      "ĠFrank": 3592,
      "Ġrisk": 3593,
      "ĠDuring": 3594,
      "rec": 3595,
      "ĠFeder": 3596,
      "Ġbeyond": 3597,
      "iga": 3598,
      "ĠMot": 3599,
      "ustr": 3600,
      "ĠLew": 3601,
      "ressed": 3602,
      "adelph": 3603,
      "ĠMcG": 3604,
      "ĠEll": 3605,
      "itz": 3606,
      "Ġheavy": 3607,
      "Ġassoci": 3608,
      "keeper": 3609,
      "ushed": 3610,
      "ĠAtlanta": 3611,
      "Ġice": 3612,
      "âĢĵ": 3613,
      "Ġstriker": 3614,
      "Ġchoice": 3615,
      "adelphia": 3616,
      "27": 3617,
      "omore": 3618,
      "Ġshown": 3619,
      "Ġplaced": 3620,
      "Ġultim": 3621,
      "Ġtype": 3622,
      "andid": 3623,
      "Ġ2024": 3624,
      "Ġofficials": 3625,
      "Ġbroadcast": 3626,
      "Ġdefeated": 3627,
      "ophomore": 3628,
      "Ġacqu": 3629,
      "load": 3630,
      "Ġexcept": 3631,
      "Ġi": 3632,
      "asts": 3633,
      "oe": 3634,
      "ĠNov": 3635,
      "Ġlimited": 3636,
      "Ġensure": 3637,
      "Ġsave": 3638,
      "Ġmist": 3639,
      "ĠRound": 3640,
      "ĠEar": 3641,
      "Ġprotect": 3642,
      "gent": 3643,
      "ĠDaniel": 3644,
      "That": 3645,
      "Ġenv": 3646,
      "Ġhaven": 3647,
      "Ġwait": 3648,
      "erry": 3649,
      "OT": 3650,
      "Ġfinals": 3651,
      "ĠDirect": 3652,
      "ones": 3653,
      "anks": 3654,
      "VP": 3655,
      "mon": 3656,
      "ambling": 3657,
      "cos": 3658,
      "illing": 3659,
      "Ġeduc": 3660,
      "Ġtickets": 3661,
      "etroit": 3662,
      "uing": 3663,
      "ĠAlthough": 3664,
      "Ġselected": 3665,
      "imin": 3666,
      "Ġdropped": 3667,
      "Ġ196": 3668,
      "Ġencour": 3669,
      "add": 3670,
      "200": 3671,
      "iately": 3672,
      "ĠKent": 3673,
      "athan": 3674,
      "ĠBears": 3675,
      "ĠUC": 3676,
      "ĠBru": 3677,
      "ĠCowboys": 3678,
      "nal": 3679,
      "Ġcult": 3680,
      "Ġconnect": 3681,
      "rig": 3682,
      "ighth": 3683,
      "Ġseemed": 3684,
      "Ġcreated": 3685,
      "Ġchanged": 3686,
      "ĠVirgin": 3687,
      "Ġpolice": 3688,
      "ĠYanke": 3689,
      "iled": 3690,
      "apt": 3691,
      "Ġfine": 3692,
      "Ġtalking": 3693,
      "ĠZeal": 3694,
      "Ġ2009": 3695,
      "Ĥ¬": 3696,
      "edic": 3697,
      "uly": 3698,
      "ĠPhiladelphia": 3699,
      "standing": 3700,
      "Ġspl": 3701,
      "otten": 3702,
      "Ġseeing": 3703,
      "pts": 3704,
      "Ġvari": 3705,
      "Ġservices": 3706,
      "Ġoccas": 3707,
      "ĠStar": 3708,
      "Ġmidfielder": 3709,
      "Ġeye": 3710,
      "Ġsoft": 3711,
      "Ġbrother": 3712,
      "Ġrelease": 3713,
      "Ġthanks": 3714,
      "ĠChiefs": 3715,
      "andemic": 3716,
      "ĠRams": 3717,
      "Ġdetails": 3718,
      "Ġsack": 3719,
      "Ġstars": 3720,
      "ching": 3721,
      "PL": 3722,
      "just": 3723,
      "Ġfeature": 3724,
      "erv": 3725,
      "Ġart": 3726,
      "ini": 3727,
      "ĠLee": 3728,
      "ĠAren": 3729,
      "Ġthank": 3730,
      "ĠFA": 3731,
      "ify": 3732,
      "Ġaren": 3733,
      "Ġprim": 3734,
      "Ġearn": 3735,
      "Ġreview": 3736,
      "Ġannounce": 3737,
      "Ġpict": 3738,
      "Ġsuffered": 3739,
      "ĠAdd": 3740,
      "Ġleaving": 3741,
      "Ġdisplay": 3742,
      "ĠII": 3743,
      "ects": 3744,
      "Ġallowing": 3745,
      "Ġprem": 3746,
      "ĠDetroit": 3747,
      "ĠAlso": 3748,
      "Ġrival": 3749,
      "ĠMac": 3750,
      "Ġblack": 3751,
      "Ġrefere": 3752,
      "foot": 3753,
      "Ġappeared": 3754,
      "ĠHarris": 3755,
      "ĠZealand": 3756,
      "ĠMas": 3757,
      "Ġclean": 3758,
      "Ġpush": 3759,
      "Ġhealthy": 3760,
      "alo": 3761,
      "Ġconfirmed": 3762,
      "ĠMatch": 3763,
      "ano": 3764,
      "ĠRangers": 3765,
      "new": 3766,
      "Ġspect": 3767,
      "ĠReds": 3768,
      "Ġrelationship": 3769,
      "oug": 3770,
      "Ġmissing": 3771,
      "ha": 3772,
      "Ġhopes": 3773,
      "unic": 3774,
      "Ġgreatest": 3775,
      "Ġemploy": 3776,
      "ĠPart": 3777,
      "Ġven": 3778,
      "Ġtradition": 3779,
      "Ġconditions": 3780,
      "Ġmoments": 3781,
      "iber": 3782,
      "ĠStr": 3783,
      "Ġmyself": 3784,
      "Ġrounds": 3785,
      "umm": 3786,
      "ovic": 3787,
      "Ġexactly": 3788,
      "Ġ*": 3789,
      "more": 3790,
      "Ġrespond": 3791,
      "Ġfantasy": 3792,
      "Ġveteran": 3793,
      "lers": 3794,
      "thony": 3795,
      "ĠSant": 3796,
      "action": 3797,
      "obile": 3798,
      "fortun": 3799,
      "ienced": 3800,
      "Ġelect": 3801,
      "owa": 3802,
      "Ġincrease": 3803,
      "Ġmanagement": 3804,
      "ĠAthletic": 3805,
      "eed": 3806,
      "Ġjud": 3807,
      "Ġinvestig": 3808,
      "istan": 3809,
      "ken": 3810,
      "Ġshut": 3811,
      "Ġson": 3812,
      "Ġ45": 3813,
      "26": 3814,
      "ĠPenn": 3815,
      "ĠRussia": 3816,
      "ĠWhe": 3817,
      "Ġworks": 3818,
      "ĠSeattle": 3819,
      "Ġavo": 3820,
      "Ġintercept": 3821,
      "45": 3822,
      "veland": 3823,
      "Ġcombined": 3824,
      "ĠGermany": 3825,
      "onto": 3826,
      "Ġqualifying": 3827,
      "Ġwhose": 3828,
      "36": 3829,
      "Ġdescri": 3830,
      "ĠPitts": 3831,
      "But": 3832,
      "ĠCelt": 3833,
      "ocks": 3834,
      "Ġforce": 3835,
      "Ġcharac": 3836,
      "zer": 3837,
      "Ġnorm": 3838,
      "Ġincredible": 3839,
      "reland": 3840,
      "Ġfire": 3841,
      "EO": 3842,
      "ĠSaints": 3843,
      "Ġenergy": 3844,
      "ĠAcademy": 3845,
      "Ġbecoming": 3846,
      "ĠSout": 3847,
      "Ġspread": 3848,
      "):": 3849,
      "Ġspr": 3850,
      "Ġcompeting": 3851,
      "iling": 3852,
      "Ġimmediately": 3853,
      "ka": 3854,
      "eter": 3855,
      "ĠET": 3856,
      "Ġfloor": 3857,
      "CAR": 3858,
      "zy": 3859,
      "Ġupcoming": 3860,
      "Ġpassion": 3861,
      "Ġcandid": 3862,
      "Ġcateg": 3863,
      "gins": 3864,
      "ĠLaw": 3865,
      "arent": 3866,
      "Ġfreshman": 3867,
      "Ġtournaments": 3868,
      "Ġedge": 3869,
      "Ġdoubt": 3870,
      "Ġpandemic": 3871,
      "unt": 3872,
      "ĠAdam": 3873,
      "Ġsubs": 3874,
      "Ġ2008": 3875,
      "Ġhear": 3876,
      "If": 3877,
      "ĠJay": 3878,
      "vis": 3879,
      "olleyball": 3880,
      "Ġwrestling": 3881,
      "Ġsize": 3882,
      "Ġoppos": 3883,
      "Ġdefence": 3884,
      "Ġonto": 3885,
      "ĠDie": 3886,
      "ĠDef": 3887,
      "Ġ90": 3888,
      "ĠMary": 3889,
      "Ġperformances": 3890,
      "ennes": 3891,
      "Ġplease": 3892,
      "Ġconvers": 3893,
      "Ġevening": 3894,
      "ume": 3895,
      "Ġprice": 3896,
      "istic": 3897,
      "Ġgrab": 3898,
      "Ġbal": 3899,
      "ĠTheir": 3900,
      "Ġchampionships": 3901,
      "ĠBrook": 3902,
      "Ġshowing": 3903,
      "ĠStre": 3904,
      "Ġdrop": 3905,
      "ĠEver": 3906,
      "Ġbonus": 3907,
      "ĠPlayers": 3908,
      "ĠFox": 3909,
      "Ġpurch": 3910,
      "Ġusually": 3911,
      "za": 3912,
      "Ġdam": 3913,
      "ĠJim": 3914,
      "ĠPanthers": 3915,
      "ĠMex": 3916,
      "Ġdecl": 3917,
      "ĠForm": 3918,
      "ĠNAS": 3919,
      "ornia": 3920,
      "hew": 3921,
      "ĠFour": 3922,
      "Ġpriv": 3923,
      "Ġlower": 3924,
      "unk": 3925,
      "Ġplus": 3926,
      "Ġdisappoin": 3927,
      "ops": 3928,
      "Ġexerc": 3929,
      "ĠRec": 3930,
      "29": 3931,
      "Ġeventually": 3932,
      "ET": 3933,
      "irus": 3934,
      "Ġselection": 3935,
      "ĠArena": 3936,
      "ĠAlab": 3937,
      "ledge": 3938,
      "Ġmental": 3939,
      "Ġballs": 3940,
      "oo": 3941,
      "Ġitself": 3942,
      "Ġbatt": 3943,
      "Ġbroke": 3944,
      "ĠChristian": 3945,
      "Ġproblems": 3946,
      "Ġparticularly": 3947,
      "ĠLas": 3948,
      "Ġaware": 3949,
      "ification": 3950,
      "ĠMax": 3951,
      "âĢĿ.": 3952,
      "ĠCleveland": 3953,
      "board": 3954,
      "ĠMarc": 3955,
      "high": 3956,
      "ĠCentral": 3957,
      "Ġreturning": 3958,
      "Ġhighly": 3959,
      "Ġaccept": 3960,
      "Ġep": 3961,
      "Ġbuilt": 3962,
      "arents": 3963,
      "Ġoffseason": 3964,
      "stit": 3965,
      "ĠVict": 3966,
      "Ġsett": 3967,
      "Ġrac": 3968,
      "berg": 3969,
      "Ġprograms": 3970,
      "ĠVirginia": 3971,
      "ĠUt": 3972,
      "ees": 3973,
      "Ġcompetitions": 3974,
      "ĠSox": 3975,
      "Ġappearance": 3976,
      "Ġcountries": 3977,
      "Ġfixt": 3978,
      "Ġrequired": 3979,
      "Ġcapt": 3980,
      "oes": 3981,
      "ĠScot": 3982,
      "ĠSand": 3983,
      "Ġregister": 3984,
      "Ġprovides": 3985,
      "lf": 3986,
      "ĠWho": 3987,
      "va": 3988,
      "burg": 3989,
      "aper": 3990,
      "ĠCalifornia": 3991,
      "Star": 3992,
      "nov": 3993,
      "Ġadditional": 3994,
      "BS": 3995,
      "ĠAnthony": 3996,
      "ĠRaid": 3997,
      "Ġimproved": 3998,
      "Ġpoor": 3999,
      "ba": 4000,
      "ming": 4001,
      "Ġpreviously": 4002,
      "lah": 4003,
      "izing": 4004,
      "ĠIowa": 4005,
      "ospital": 4006,
      "ĠSpain": 4007,
      "Ġrecover": 4008,
      "stant": 4009,
      "ĠPittsburgh": 4010,
      "ural": 4011,
      "Ġglobal": 4012,
      "alys": 4013,
      "ĠToronto": 4014,
      "ĠTest": 4015,
      "ĠTHE": 4016,
      "apol": 4017,
      "Ġfitness": 4018,
      "Ġeighth": 4019,
      "imum": 4020,
      "Ġtrou": 4021,
      "duct": 4022,
      "ĠSteel": 4023,
      "ĠCardinals": 4024,
      "ĠMiller": 4025,
      "ĠHa": 4026,
      "Ġsecure": 4027,
      "ĠAlabama": 4028,
      "ĠBrian": 4029,
      "orrow": 4030,
      "Ġelite": 4031,
      "Ġconfident": 4032,
      "35": 4033,
      "ĠBall": 4034,
      "ĠHard": 4035,
      "Ġtackles": 4036,
      "anned": 4037,
      "Wh": 4038,
      "Ġfinancial": 4039,
      ".âĢĻ": 4040,
      "Ġpub": 4041,
      "pper": 4042,
      "Ġess": 4043,
      "ĠAnother": 4044,
      "Ġprevent": 4045,
      "Ġrequire": 4046,
      "ampa": 4047,
      "rac": 4048,
      "ilton": 4049,
      "Ġnames": 4050,
      "And": 4051,
      "Ġic": 4052,
      "ĠBest": 4053,
      "Ġabsolute": 4054,
      "Ġbuy": 4055,
      "ĠYankees": 4056,
      "ĠAaron": 4057,
      "ĠGreat": 4058,
      "'d": 4059,
      "Ġareas": 4060,
      "Ġvol": 4061,
      "Ġfighting": 4062,
      "Ġden": 4063,
      "Ġtreat": 4064,
      "ĠChina": 4065,
      "Ġcompletely": 4066,
      "name": 4067,
      "Ġalongside": 4068,
      "Ġhoping": 4069,
      "Ġmeas": 4070,
      "pson": 4071,
      "Ġhelping": 4072,
      "Ġ38": 4073,
      "roy": 4074,
      "Ġstruggled": 4075,
      "ĠWatch": 4076,
      "Ġdeath": 4077,
      "100": 4078,
      "Ġagg": 4079,
      "Ġreven": 4080,
      "Ġcharge": 4081,
      "ĠMic": 4082,
      "ĠKell": 4083,
      "Ġmag": 4084,
      "ĠTech": 4085,
      "Ġrushing": 4086,
      "Ġviol": 4087,
      "sell": 4088,
      "Ġdrivers": 4089,
      "AA": 4090,
      "ĠIreland": 4091,
      "Ġchann": 4092,
      "ya": 4093,
      "ĠAir": 4094,
      "castle": 4095,
      "Ġpercentage": 4096,
      "Ġdedic": 4097,
      "based": 4098,
      "Ġhouse": 4099,
      "ĠBell": 4100,
      "ĠIN": 4101,
      "Ġauthor": 4102,
      "Ġperhaps": 4103,
      "Ġstuff": 4104,
      "ĠWol": 4105,
      "ĠPost": 4106,
      "Ġinte": 4107,
      "Ġannual": 4108,
      "ĠIsland": 4109,
      "Ġprospect": 4110,
      "Ġcannot": 4111,
      "Ġ70": 4112,
      "hod": 4113,
      "ĠSing": 4114,
      "wide": 4115,
      "Ġcentre": 4116,
      "oper": 4117,
      "Ġgradu": 4118,
      "Ġextremely": 4119,
      "ĠTrump": 4120,
      "Ġagent": 4121,
      "Ġshared": 4122,
      "abor": 4123,
      "ĠVik": 4124,
      "ĠLakers": 4125,
      "astern": 4126,
      "Ġexperienced": 4127,
      "Ġtelev": 4128,
      "ĠCourt": 4129,
      "ez": 4130,
      "Ġfantastic": 4131,
      "Ġtalented": 4132,
      "Ġsurprise": 4133,
      "erved": 4134,
      "ĠFace": 4135,
      "Ġhal": 4136,
      "unning": 4137,
      "Ġlay": 4138,
      "EL": 4139,
      "Ġobviously": 4140,
      "Ġsurf": 4141,
      "500": 4142,
      "lahoma": 4143,
      "Ġenviron": 4144,
      "Ġscor": 4145,
      "ength": 4146,
      "ola": 4147,
      "Ġfigure": 4148,
      "Ġsponsors": 4149,
      "ada": 4150,
      "rup": 4151,
      "Ġheading": 4152,
      "Ġflag": 4153,
      "ĠOther": 4154,
      "Ġefforts": 4155,
      "ĠGra": 4156,
      "ĠMVP": 4157,
      "ĠMit": 4158,
      "hern": 4159,
      "ĠAP": 4160,
      "ĠPM": 4161,
      "ĠKyle": 4162,
      "Ġgovernment": 4163,
      "ena": 4164,
      "ĠRace": 4165,
      "cing": 4166,
      "omb": 4167,
      "ĠShow": 4168,
      "Ġcloser": 4169,
      "Ġphot": 4170,
      "ĠRaiders": 4171,
      "ĠMer": 4172,
      "Ġreceiving": 4173,
      "Ġnin": 4174,
      "omm": 4175,
      "Ġoffice": 4176,
      "ĠRepublic": 4177,
      "Ġrunner": 4178,
      "Ġlegal": 4179,
      "ĠLewis": 4180,
      "agram": 4181,
      "Ġstruck": 4182,
      "bour": 4183,
      "Ġ37": 4184,
      "ĠNASCAR": 4185,
      "ĠJason": 4186,
      "Ġindic": 4187,
      "Ġthrew": 4188,
      "ĠDod": 4189,
      "ipment": 4190,
      "emale": 4191,
      "uth": 4192,
      "ĠMMA": 4193,
      "Ġhorse": 4194,
      "ey": 4195,
      "ĠERA": 4196,
      "Ġowner": 4197,
      "Ġcomments": 4198,
      "Ġwrote": 4199,
      "Ġsemi": 4200,
      "ko": 4201,
      "ĠArgent": 4202,
      "duced": 4203,
      "Ġlevels": 4204,
      "Ġgrand": 4205,
      "Ġenter": 4206,
      "ĠJustin": 4207,
      "Ġrevealed": 4208,
      "LA": 4209,
      "Ġjourney": 4210,
      "Ġgambling": 4211,
      "ĠCanadian": 4212,
      "entially": 4213,
      "ĠBrady": 4214,
      "ĠST": 4215,
      "arks": 4216,
      "Ġfaced": 4217,
      "olph": 4218,
      "Ġterr": 4219,
      "ĠJersey": 4220,
      "Ġleaders": 4221,
      "Ġactive": 4222,
      "struct": 4223,
      "kr": 4224,
      "atever": 4225,
      "Ġself": 4226,
      "ĠKen": 4227,
      "Ġsurger": 4228,
      "ĠBuff": 4229,
      "ĠIll": 4230,
      "ĠWestern": 4231,
      "Ġassistant": 4232,
      "Ġdang": 4233,
      "Ġstretch": 4234,
      "Ġhosts": 4235,
      "ĠKings": 4236,
      "Ġcruc": 4237,
      "ennessee": 4238,
      "Ġswe": 4239,
      "Ġsophomore": 4240,
      "ĠHo": 4241,
      "ĠWrest": 4242,
      "Ġcomfortable": 4243,
      "ĠOklahoma": 4244,
      "ĠSenior": 4245,
      "Ġserve": 4246,
      "ĠAllen": 4247,
      "Ġgroups": 4248,
      "ĠBack": 4249,
      "Ġdistance": 4250,
      "Ġboss": 4251,
      "arr": 4252,
      "ĠLike": 4253,
      "ĠQue": 4254,
      "Ġoffered": 4255,
      "Ġdepend": 4256,
      "ĠNewcastle": 4257,
      "Ġguarant": 4258,
      "Ġsat": 4259,
      "ĠAut": 4260,
      "urance": 4261,
      "ĠItaly": 4262,
      "Ġlineback": 4263,
      "roll": 4264,
      "clusive": 4265,
      "Ġbid": 4266,
      "ĠYour": 4267,
      "ĠDiego": 4268,
      "dy": 4269,
      "Ġsend": 4270,
      "Ġhistor": 4271,
      "eds": 4272,
      "Ġtechnology": 4273,
      "la": 4274,
      "ĠLong": 4275,
      "Ġfeels": 4276,
      "ernand": 4277,
      "Ġupon": 4278,
      "Ġinflu": 4279,
      "ĠItal": 4280,
      "iger": 4281,
      "Ġmis": 4282,
      "Ġut": 4283,
      "Ġparents": 4284,
      "ĠHen": 4285,
      "Ġscr": 4286,
      "Ġboun": 4287,
      "Ġlikes": 4288,
      "Ġeasily": 4289,
      "ottenham": 4290,
      "gs": 4291,
      "Ġadding": 4292,
      "mark": 4293,
      "orado": 4294,
      "Ġanaly": 4295,
      "Ġinterested": 4296,
      "Ġpolit": 4297,
      "alysis": 4298,
      "Ġ,": 4299,
      "Ch": 4300,
      "ument": 4301,
      "Ġthinking": 4302,
      "urity": 4303,
      "Ġmodel": 4304,
      "ĠValley": 4305,
      "ĠPGA": 4306,
      "ties": 4307,
      "ĠAsh": 4308,
      "Ġcommon": 4309,
      "ua": 4310,
      "ĠWhy": 4311,
      "ĠUs": 4312,
      "ĠTennessee": 4313,
      "Ġwhite": 4314,
      "ĠOak": 4315,
      "Ġgoalkeeper": 4316,
      "Ġhy": 4317,
      "ĠRus": 4318,
      "ivals": 4319,
      "Ġport": 4320,
      "lease": 4321,
      "Ġheard": 4322,
      "bl": 4323,
      "Ġsession": 4324,
      "ĠFree": 4325,
      "Ġcondition": 4326,
      "ĠAnton": 4327,
      "ĠGreg": 4328,
      "Ġequal": 4329,
      "place": 4330,
      "ĠGir": 4331,
      "ĠKo": 4332,
      "unch": 4333,
      "ĠTampa": 4334,
      "ĠKar": 4335,
      "ĠSpurs": 4336,
      "ĠDirector": 4337,
      "Ġpark": 4338,
      "Ġbelieves": 4339,
      "wise": 4340,
      "Ġpers": 4341,
      "33": 4342,
      "ĠIrish": 4343,
      "ĠTen": 4344,
      "ese": 4345,
      "Sports": 4346,
      "Ġkeeping": 4347,
      "Ġerr": 4348,
      "ĠAward": 4349,
      "ares": 4350,
      "ĠFame": 4351,
      "Ġbeaut": 4352,
      "rap": 4353,
      "dogs": 4354,
      "Ġopener": 4355,
      "ĠRonald": 4356,
      "ĠAndre": 4357,
      "Ġbringing": 4358,
      "ĠWalk": 4359,
      "org": 4360,
      "ĠTO": 4361,
      "Ġattract": 4362,
      "ĠBroncos": 4363,
      "Ġmeant": 4364,
      "Ġfully": 4365,
      "Ġreasons": 4366,
      "Ġwonder": 4367,
      "ĠBus": 4368,
      "Ġemot": 4369,
      "à¤": 4370,
      "ycling": 4371,
      "Ġaddress": 4372,
      "Ġaccompl": 4373,
      "itness": 4374,
      "Ġchoose": 4375,
      "Ġenvironment": 4376,
      "Ġskill": 4377,
      "aves": 4378,
      "Ġgrowing": 4379,
      "ĠPred": 4380,
      "ĠCricket": 4381,
      "uf": 4382,
      "ĠTottenham": 4383,
      "istration": 4384,
      "twitter": 4385,
      "rect": 4386,
      "ĠFal": 4387,
      "ĠMajor": 4388,
      "Ġpostseason": 4389,
      "Ġfellow": 4390,
      "essions": 4391,
      "Ġlap": 4392,
      "Ġbeating": 4393,
      "Ġdepth": 4394,
      "ĠTur": 4395,
      "Ġbigger": 4396,
      "Ġcharacter": 4397,
      "utch": 4398,
      "ĠPeter": 4399,
      "ighted": 4400,
      "yo": 4401,
      "ĠDec": 4402,
      "cil": 4403,
      "Ġsimple": 4404,
      "ĠCommit": 4405,
      "ĠMurray": 4406,
      "RO": 4407,
      "conom": 4408,
      "Ġlosses": 4409,
      "Ġallows": 4410,
      "ĠFrancisco": 4411,
      "Ġtom": 4412,
      "Ġpassed": 4413,
      "erby": 4414,
      "Ġfamous": 4415,
      "ĠEr": 4416,
      "ĠAre": 4417,
      "ĠBetting": 4418,
      "Ġstick": 4419,
      "ĠInstagram": 4420,
      "ishes": 4421,
      "Ġclaimed": 4422,
      "ĠTony": 4423,
      "ĠRober": 4424,
      "Ġpossession": 4425,
      "ĠRam": 4426,
      "Ġmoves": 4427,
      "Ġpredictions": 4428,
      "Ġninth": 4429,
      "ĠFormer": 4430,
      "ĠFound": 4431,
      "lay": 4432,
      "ĠRog": 4433,
      "Ġticket": 4434,
      "Ġholding": 4435,
      "Ġpulled": 4436,
      "Ġsle": 4437,
      "ases": 4438,
      "strict": 4439,
      "ĠToday": 4440,
      "ĠJul": 4441,
      "itors": 4442,
      "Ġmat": 4443,
      "ĠBox": 4444,
      "Ġtrust": 4445,
      "ened": 4446,
      "ĠSk": 4447,
      "Ġleadership": 4448,
      "Ġdefending": 4449,
      "When": 4450,
      "final": 4451,
      "à¸": 4452,
      "ĠDis": 4453,
      "ĠRichard": 4454,
      "Ġdesigned": 4455,
      "ĠDenver": 4456,
      "anny": 4457,
      "!!": 4458,
      "Ġbag": 4459,
      "Ġproviding": 4460,
      "Ġjoining": 4461,
      "ĠNetwork": 4462,
      "ĠThree": 4463,
      "Ġclick": 4464,
      "Ġwag": 4465,
      "ĠAnderson": 4466,
      "Ġcommitted": 4467,
      "Ġshirt": 4468,
      "ĠRussian": 4469,
      "Ġones": 4470,
      "Ġregion": 4471,
      "ĠPackers": 4472,
      "ĠDub": 4473,
      "Ġsetting": 4474,
      "arily": 4475,
      "ĠNation": 4476,
      "hib": 4477,
      "ctor": 4478,
      "Ġcars": 4479,
      "ĠWel": 4480,
      "lines": 4481,
      "Ġleads": 4482,
      "Ġresearch": 4483,
      "ĠMat": 4484,
      "irates": 4485,
      "Ġdeb": 4486,
      "Ġsurgery": 4487,
      "Ġdream": 4488,
      "Ġopin": 4489,
      "Ġcup": 4490,
      "ĠHol": 4491,
      "Ġrecru": 4492,
      "Ġparty": 4493,
      "cats": 4494,
      "real": 4495,
      "alled": 4496,
      "ĠVer": 4497,
      "ĠRoad": 4498,
      "Ġcrucial": 4499,
      "Ġdest": 4500,
      "TV": 4501,
      "house": 4502,
      "ĠRobert": 4503,
      "ĠAustin": 4504,
      "Ġmotiv": 4505,
      "Ġsplit": 4506,
      "Ġcool": 4507,
      "ĠHur": 4508,
      "Ġproved": 4509,
      "Ġstands": 4510,
      "Ġstories": 4511,
      "Ġyourself": 4512,
      "hab": 4513,
      "term": 4514,
      "Ġtruly": 4515,
      "EW": 4516,
      "bro": 4517,
      "ĠParis": 4518,
      "fortunately": 4519,
      "Ġgreen": 4520,
      "ĠRiver": 4521,
      "Ġpositions": 4522,
      "ĠColorado": 4523,
      "agu": 4524,
      "Ġvictories": 4525,
      "ĠNike": 4526,
      "Ġaffect": 4527,
      "Ġlives": 4528,
      "ĠFacebook": 4529,
      "iven": 4530,
      "Ġhappens": 4531,
      "ĠBlues": 4532,
      "Ġwish": 4533,
      "ĠVan": 4534,
      "ĠDep": 4535,
      "Ġpath": 4536,
      "Ġrepe": 4537,
      "Ġjersey": 4538,
      "ĠMess": 4539,
      "Ġadjust": 4540,
      "Ġboost": 4541,
      "Ġfilm": 4542,
      "Ġsort": 4543,
      "Ġsilver": 4544,
      "Ġtrophy": 4545,
      "ĠCinc": 4546,
      "ynam": 4547,
      "ancing": 4548,
      "Ġstreaming": 4549,
      "ĠTre": 4550,
      "ĠLu": 4551,
      "ĠPatrick": 4552,
      "king": 4553,
      "iences": 4554,
      "Ġcards": 4555,
      "Ġlength": 4556,
      "finals": 4557,
      "Ġvac": 4558,
      "Ġworst": 4559,
      "ining": 4560,
      "Ġspend": 4561,
      "Ġfocused": 4562,
      "Ġcommitment": 4563,
      "Ġlearning": 4564,
      "Ġminor": 4565,
      "atives": 4566,
      "Ġ48": 4567,
      "Ġrecorded": 4568,
      "Ġcash": 4569,
      "Ġachie": 4570,
      "ario": 4571,
      "Ġprove": 4572,
      "Ġmassive": 4573,
      "esterday": 4574,
      "bell": 4575,
      "Ġanswer": 4576,
      "Ġsubscri": 4577,
      "Ġcredit": 4578,
      "Ġwife": 4579,
      "ĠFormula": 4580,
      "ĠCEO": 4581,
      "Ġtem": 4582,
      "Ġentered": 4583,
      "Ġsometimes": 4584,
      "Ġequipment": 4585,
      "Ġproduction": 4586,
      "Ġcompl": 4587,
      "ni": 4588,
      "ads": 4589,
      "ĠSeason": 4590,
      "Ġclearly": 4591,
      "Ġpolic": 4592,
      "Ġsets": 4593,
      "Ġmax": 4594,
      "ening": 4595,
      "Ġtomorrow": 4596,
      "asc": 4597,
      "Ġbatting": 4598,
      "Ġends": 4599,
      "ania": 4600,
      "ĠFinals": 4601,
      "Ġvisitors": 4602,
      "Ġengine": 4603,
      "Ġsemif": 4604,
      "uals": 4605,
      "innati": 4606,
      "backs": 4607,
      "ðŁ": 4608,
      "ellow": 4609,
      "okes": 4610,
      "struction": 4611,
      "Ġdriving": 4612,
      "EFA": 4613,
      "ĠSab": 4614,
      "ores": 4615,
      "Ġwelcome": 4616,
      "Ġwords": 4617,
      "Ġsubm": 4618,
      "Ġgrowth": 4619,
      "ĠKentucky": 4620,
      "Ġwild": 4621,
      "Ġstrategy": 4622,
      "Ġdaily": 4623,
      "Ġplate": 4624,
      "OC": 4625,
      "Ġpurs": 4626,
      "Ġ80": 4627,
      "ĠSteelers": 4628,
      "ĠAFC": 4629,
      "ĠNight": 4630,
      "ĠHaw": 4631,
      "ulations": 4632,
      "Ġhur": 4633,
      "Ġsupporters": 4634,
      "Ġproducts": 4635,
      "Ġlog": 4636,
      "bow": 4637,
      "athon": 4638,
      "Ġteammate": 4639,
      "ev": 4640,
      "Ġactivity": 4641,
      "Ġkid": 4642,
      "Ġeverybody": 4643,
      "Ġsepar": 4644,
      "Ġhelps": 4645,
      "Ġsust": 4646,
      "ĠCommittee": 4647,
      "ĠJam": 4648,
      "Ġreturns": 4649,
      "Ġrecomm": 4650,
      "ĠHamilton": 4651,
      "Ġcoordin": 4652,
      "ashion": 4653,
      "ĠMean": 4654,
      "Ġenjoyed": 4655,
      "ias": 4656,
      "Ġdire": 4657,
      "irth": 4658,
      "ĠKenn": 4659,
      "Ġhour": 4660,
      "Ġnatur": 4661,
      "Ġplaces": 4662,
      "Ġtown": 4663,
      "rop": 4664,
      "ĠJac": 4665,
      "pre": 4666,
      "Ġclash": 4667,
      "Ġ39": 4668,
      "Ġcapital": 4669,
      "sequ": 4670,
      "ĠDevil": 4671,
      "ĠWales": 4672,
      "Ġ2007": 4673,
      "Ġ2006": 4674,
      "iced": 4675,
      "ĠAny": 4676,
      "ĠMus": 4677,
      "iley": 4678,
      "ĠColl": 4679,
      "enses": 4680,
      "Ġdecisions": 4681,
      "Ġcounter": 4682,
      "ĠGener": 4683,
      "ĠMcD": 4684,
      "ĠCole": 4685,
      "Ġcause": 4686,
      "Ġwear": 4687,
      "Ġfeatured": 4688,
      "Ġbrings": 4689,
      "Ġspeak": 4690,
      "Ġadvance": 4691,
      "Ġlearned": 4692,
      "ĠCincinnati": 4693,
      "Ġrecommend": 4694,
      "Ġfacing": 4695,
      "Ġapplic": 4696,
      "ĠMount": 4697,
      "sey": 4698,
      "uable": 4699,
      "Ġfemale": 4700,
      "Ġmater": 4701,
      "ĠOffic": 4702,
      "mond": 4703,
      "ground": 4704,
      "yer": 4705,
      "ss": 4706,
      "ĠSu": 4707,
      "beat": 4708,
      "ĠFore": 4709,
      "ĠOld": 4710,
      "Ġgaming": 4711,
      "ampton": 4712,
      "Ġfrustr": 4713,
      "Ġtips": 4714,
      "ette": 4715,
      "lyn": 4716,
      "Ġenh": 4717,
      "ateur": 4718,
      "Ġcompared": 4719,
      "Ġsearch": 4720,
      "itten": 4721,
      "Ġslight": 4722,
      "Ġthrowing": 4723,
      "Ġdram": 4724,
      "oses": 4725,
      "ĠSar": 4726,
      "Ġdeg": 4727,
      "ĠMany": 4728,
      "ĠBeng": 4729,
      "ĠRay": 4730,
      "Ġreco": 4731,
      "hus": 4732,
      "obe": 4733,
      "ĠUEFA": 4734,
      "Ġroll": 4735,
      "Ġspir": 4736,
      "ĠRavens": 4737,
      "Ġrunners": 4738,
      "Ġclosed": 4739,
      "Ġicon": 4740,
      "ĠDun": 4741,
      "Ġ42": 4742,
      "Ġsold": 4743,
      "ĠPak": 4744,
      "Ġexist": 4745,
      "hold": 4746,
      "team": 4747,
      "ĠBuffalo": 4748,
      "cy": 4749,
      "imate": 4750,
      "hit": 4751,
      "Ġang": 4752,
      "ĠRead": 4753,
      "Ġparticipate": 4754,
      "ĠCoun": 4755,
      "igned": 4756,
      "Ġhurt": 4757,
      "eni": 4758,
      "ĠVictor": 4759,
      "itude": 4760,
      "ĠFre": 4761,
      "ĠUkr": 4762,
      "ĠRobinson": 4763,
      "Ġbillion": 4764,
      "anked": 4765,
      "eah": 4766,
      "Ġknowledge": 4767,
      "Ġchallenges": 4768,
      "Ġsidel": 4769,
      "Ġtag": 4770,
      "ĠAT": 4771,
      "Ġinf": 4772,
      "ashed": 4773,
      "ĠBefore": 4774,
      "Ġproduced": 4775,
      "anish": 4776,
      "Ġpool": 4777,
      "ĠTD": 4778,
      "Ġchair": 4779,
      "Ġnote": 4780,
      "ĠMexico": 4781,
      "ĠTok": 4782,
      "Ġnative": 4783,
      "Ġraised": 4784,
      "room": 4785,
      "Ġpiece": 4786,
      "ĠLuc": 4787,
      "ĠOw": 4788,
      "Ġowners": 4789,
      "ĠEric": 4790,
      "Ġlines": 4791,
      "ira": 4792,
      "Ġmedical": 4793,
      "ĠCoast": 4794,
      "ĠStephen": 4795,
      "ĠPress": 4796,
      "ĠLake": 4797,
      "Ġincident": 4798,
      "ĠKelly": 4799,
      "Ġserved": 4800,
      "ĠClassic": 4801,
      "Ġfights": 4802,
      "Ġwilling": 4803,
      "Ġswit": 4804,
      "ĠTw": 4805,
      "ĠItalian": 4806,
      "ĠLook": 4807,
      "Ġshowc": 4808,
      "mb": 4809,
      "Ġdu": 4810,
      "ĠVikings": 4811,
      "Le": 4812,
      "idents": 4813,
      "aded": 4814,
      "ĠBrandon": 4815,
      "Ġtoward": 4816,
      "oud": 4817,
      "Ġavoid": 4818,
      "ĠMah": 4819,
      "Ġbenefit": 4820,
      "Ġstatus": 4821,
      "Ġeffective": 4822,
      "Ġranks": 4823,
      "IV": 4824,
      "bit": 4825,
      "ĠChallen": 4826,
      "Ġshoulder": 4827,
      "poin": 4828,
      "Ġexpert": 4829,
      "Ġmentioned": 4830,
      "Ġreferee": 4831,
      "anies": 4832,
      "Ġmessage": 4833,
      "Ġeconom": 4834,
      "Ġloan": 4835,
      "imming": 4836,
      "Ġfood": 4837,
      "Ġfirm": 4838,
      "Ġappears": 4839,
      "Ġupset": 4840,
      "ĠNBC": 4841,
      "Ġpitching": 4842,
      "Ġhole": 4843,
      "ĠHy": 4844,
      "ender": 4845,
      "Ġrot": 4846,
      "Ġoutstanding": 4847,
      "Ġconsidering": 4848,
      "ĠAfrican": 4849,
      "eren": 4850,
      "Ġapprec": 4851,
      "ĠRussell": 4852,
      "ĠAntonio": 4853,
      "ĠSix": 4854,
      "ĠRio": 4855,
      "AD": 4856,
      "38": 4857,
      "ĠWR": 4858,
      "Ġstated": 4859,
      "AY": 4860,
      "aka": 4861,
      "Ġrebound": 4862,
      "ĠRoss": 4863,
      "Ġdiv": 4864,
      "ĠAN": 4865,
      "iction": 4866,
      "Ġearning": 4867,
      "Ġill": 4868,
      "Ġban": 4869,
      "Ġmeaning": 4870,
      "CH": 4871,
      "Ġrev": 4872,
      "ĠAndy": 4873,
      "Ġmomentum": 4874,
      "ĠScotland": 4875,
      "Ġsusp": 4876,
      "Ġrankings": 4877,
      "lands": 4878,
      "Ġconsistent": 4879,
      "Ġregarding": 4880,
      "99": 4881,
      "Ġdigital": 4882,
      "istics": 4883,
      "Ġvirt": 4884,
      "thern": 4885,
      "Ġovertime": 4886,
      "ĠHun": 4887,
      "ĠWis": 4888,
      "ĠWall": 4889,
      "Ġrecords": 4890,
      "ĠThose": 4891,
      "going": 4892,
      "ĠInv": 4893,
      "Ġaggress": 4894,
      "atar": 4895,
      "Ġrivals": 4896,
      "Ġweather": 4897,
      "Ġvo": 4898,
      "Ġhonor": 4899,
      "ĠHay": 4900,
      "cause": 4901,
      "Ġretire": 4902,
      "ĠColts": 4903,
      "ĠPrix": 4904,
      "Ġrare": 4905,
      "ita": 4906,
      "ĠOs": 4907,
      "Ġagreed": 4908,
      "34": 4909,
      "Ġfighter": 4910,
      "ca": 4911,
      "Ġprize": 4912,
      "bury": 4913,
      "Ġimm": 4914,
      "apolis": 4915,
      "Ġcasino": 4916,
      "Ġtelevision": 4917,
      "Ġguess": 4918,
      "ĠManager": 4919,
      "Ġsection": 4920,
      "Ġattempts": 4921,
      "Ġvariety": 4922,
      "tr": 4923,
      "Ġyounger": 4924,
      "Ġagreement": 4925,
      "onav": 4926,
      "Ġnetwork": 4927,
      "ja": 4928,
      "ĠMets": 4929,
      "ĠMeanwhile": 4930,
      "rett": 4931,
      "60": 4932,
      "ova": 4933,
      "Ġpresented": 4934,
      "ĠFer": 4935,
      "ĠDown": 4936,
      "Ġfacilities": 4937,
      "Ġpo": 4938,
      "Ġtend": 4939,
      "Ġgain": 4940,
      "ĠWay": 4941,
      "agement": 4942,
      "Ġconc": 4943,
      "ĠDame": 4944,
      "75": 4945,
      "ĠKore": 4946,
      "Ġagency": 4947,
      "ube": 4948,
      "Ġthrows": 4949,
      "Ġgra": 4950,
      "ĠTurn": 4951,
      "ĠTime": 4952,
      "....": 4953,
      "undred": 4954,
      "ĠOnce": 4955,
      "ĠRos": 4956,
      "ĠMun": 4957,
      "Ġrecovery": 4958,
      "Ġalone": 4959,
      "IP": 4960,
      "Ġlinebacker": 4961,
      "ĠPlease": 4962,
      "Ġhospital": 4963,
      "onse": 4964,
      "ĠSouthern": 4965,
      "Ġpreseason": 4966,
      "Ġ500": 4967,
      "Ġstopped": 4968,
      "box": 4969,
      "Ġdirection": 4970,
      "Ġcommunic": 4971,
      "Ġswing": 4972,
      "Ġsell": 4973,
      "Ġbrill": 4974,
      "Ġoffering": 4975,
      "Ġyesterday": 4976,
      "ĠDur": 4977,
      "ĠPS": 4978,
      "example": 4979,
      "Ġpresence": 4980,
      "Ġnecessary": 4981,
      "opa": 4982,
      "timore": 4983,
      "ĠCheck": 4984,
      "hi": 4985,
      "Ġmajority": 4986,
      "As": 4987,
      "Ġbreaking": 4988,
      "ĠCas": 4989,
      "ĠDevils": 4990,
      "ĠSol": 4991,
      "Ġvolleyball": 4992,
      "Ġ2004": 4993,
      "Ġspoke": 4994,
      "ĠAthletics": 4995,
      "Ġultimately": 4996,
      "Ġstandings": 4997,
      "Ġstates": 4998,
      "ala": 4999,
      "ĠFam": 5000,
      "ĠCav": 5001,
      "Ġeyes": 5002,
      "ĠFeb": 5003,
      "rel": 5004,
      "Ġanalysis": 5005,
      "Ġprefer": 5006,
      "Ġattacking": 5007,
      "Ġwhatever": 5008,
      "Americ": 5009,
      "iful": 5010,
      "Ġdoubles": 5011,
      "half": 5012,
      "Ġrestrict": 5013,
      "iano": 5014,
      "Ġborn": 5015,
      "ĠEach": 5016,
      "ĠAnn": 5017,
      "Ġcritic": 5018,
      "die": 5019,
      "ura": 5020,
      "Ġawarded": 5021,
      "Ġclin": 5022,
      "ĠTyler": 5023,
      "Ġwww": 5024,
      "Ġframe": 5025,
      "Ġwinter": 5026,
      "ĠSpanish": 5027,
      "wor": 5028,
      "US": 5029,
      "Ġadmin": 5030,
      "nell": 5031,
      "Ġculture": 5032,
      "hood": 5033,
      "ĠSen": 5034,
      "Ġ:": 5035,
      "Ġweren": 5036,
      "Ġprepared": 5037,
      "Ġrule": 5038,
      "Ġ41": 5039,
      "oved": 5040,
      "onavirus": 5041,
      "Ġpurp": 5042,
      "ga": 5043,
      "ĠDave": 5044,
      "Ġdemon": 5045,
      "Ġmusic": 5046,
      "Ġluck": 5047,
      "ĠJake": 5048,
      "Ġmovement": 5049,
      "Ġstandard": 5050,
      "cover": 5051,
      "ĠWalker": 5052,
      "epend": 5053,
      "Ġmethod": 5054,
      "ĠStill": 5055,
      "ti": 5056,
      "inho": 5057,
      "Ġcra": 5058,
      "ĠProf": 5059,
      "ĠSpeed": 5060,
      "Ġfacility": 5061,
      "Ġshape": 5062,
      "ĠEvent": 5063,
      "Ġwoman": 5064,
      "ĠAub": 5065,
      "atory": 5066,
      "ĠSee": 5067,
      "ĠTokyo": 5068,
      "rell": 5069,
      "Ġwatched": 5070,
      "Ġbacks": 5071,
      "Ġera": 5072,
      "ĠCall": 5073,
      "ĠRose": 5074,
      "opy": 5075,
      "ĠRonaldo": 5076,
      "ĠLar": 5077,
      "Ġeducation": 5078,
      "kin": 5079,
      "ĠSEC": 5080,
      "ĠFalcons": 5081,
      "Ġversion": 5082,
      "Ġbull": 5083,
      "ĠDolph": 5084,
      "ĠMatthew": 5085,
      "gu": 5086,
      "Ġantic": 5087,
      "ĠVilla": 5088,
      "ĠMessi": 5089,
      "ĠBrowns": 5090,
      "Ġcases": 5091,
      "oen": 5092,
      "ĠSil": 5093,
      "Ġoriginal": 5094,
      "ĠBaltimore": 5095,
      "ION": 5096,
      "Ġwaiting": 5097,
      "ĠEuro": 5098,
      "Ġcompanies": 5099,
      "ĠBeach": 5100,
      "Ġexplained": 5101,
      ".'": 5102,
      "Ġcorrect": 5103,
      "ĠTexans": 5104,
      "ĠBa": 5105,
      "ĠBor": 5106,
      "athlet": 5107,
      "Ġdoc": 5108,
      "Ġfort": 5109,
      "Ġblow": 5110,
      "Ġfill": 5111,
      "Ġcam": 5112,
      "aries": 5113,
      "Ġincreased": 5114,
      "ĠStars": 5115,
      "Ġsurround": 5116,
      "ĠThompson": 5117,
      "Ġpromotion": 5118,
      "Ġunable": 5119,
      "Ġdiscip": 5120,
      "put": 5121,
      "Ġblue": 5122,
      "Ġ44": 5123,
      "LE": 5124,
      "nor": 5125,
      "ĠTrophy": 5126,
      "ĠDi": 5127,
      "Ġcapable": 5128,
      "itable": 5129,
      "Ġpin": 5130,
      "ĠEastern": 5131,
      "Ġinvestment": 5132,
      "Ġenthus": 5133,
      "Ġsubject": 5134,
      "Ġhonest": 5135,
      "jects": 5136,
      "My": 5137,
      "Ġrain": 5138,
      "Ġabsolutely": 5139,
      "Ġarrived": 5140,
      "Ġanticip": 5141,
      "ĠIndiana": 5142,
      "Ġsex": 5143,
      "Ġsitting": 5144,
      "ĠCubs": 5145,
      "ware": 5146,
      "Ġprote": 5147,
      "Ġfired": 5148,
      "ĠAC": 5149,
      "Ġconduct": 5150,
      "Ġspots": 5151,
      "ĠSP": 5152,
      "Ġunlike": 5153,
      "ĠPortug": 5154,
      "ĠFar": 5155,
      "Ġchief": 5156,
      "ĠâĢĻ": 5157,
      "ĠBulldogs": 5158,
      "Ġexecutive": 5159,
      "icient": 5160,
      "Ġedition": 5161,
      "Ġaveraging": 5162,
      "Ġment": 5163,
      "Ġlaunch": 5164,
      "Ġmobile": 5165,
      "Ġcomeback": 5166,
      "ĠUN": 5167,
      "37": 5168,
      "zo": 5169,
      "Ġlin": 5170,
      "Ġmedals": 5171,
      "ĠHouse": 5172,
      "ĠFort": 5173,
      "leans": 5174,
      "Ġfinding": 5175,
      "ĠMasters": 5176,
      "iliar": 5177,
      "Ġdemand": 5178,
      "Ġmaterial": 5179,
      "ĠBurn": 5180,
      "iles": 5181,
      "Ġhosted": 5182,
      "Ġhuman": 5183,
      "ĠHoll": 5184,
      "Ġhero": 5185,
      "Ġsuspend": 5186,
      "unte": 5187,
      "Ġexpand": 5188,
      "Ġroute": 5189,
      "ĠOF": 5190,
      "ĠCast": 5191,
      "Ġ2005": 5192,
      "ĠWoods": 5193,
      "ĠDodgers": 5194,
      "Ġbron": 5195,
      "Ġcrown": 5196,
      "Ġlargest": 5197,
      "aur": 5198,
      "Ġstudy": 5199,
      "ĠMilan": 5200,
      "Ġwarm": 5201,
      "ĠWal": 5202,
      "Ġbur": 5203,
      "ĠPower": 5204,
      "Ġalle": 5205,
      "Ġcerem": 5206,
      "Ġresponse": 5207,
      "Ġrespectively": 5208,
      "ĠHart": 5209,
      "Ġinnov": 5210,
      "aughter": 5211,
      ");": 5212,
      "Ġboy": 5213,
      "www": 5214,
      "ĠLog": 5215,
      "away": 5216,
      "ĠNotre": 5217,
      "80": 5218,
      "Ġstream": 5219,
      "ĠSeah": 5220,
      "55": 5221,
      "Ġfaces": 5222,
      "ux": 5223,
      "Ġtim": 5224,
      "ĠGM": 5225,
      "ĠOrleans": 5226,
      "ĠSpec": 5227,
      "vey": 5228,
      "Ġride": 5229,
      "ĠPakistan": 5230,
      "Ġprepare": 5231,
      "Ġindividuals": 5232,
      "kle": 5233,
      "Ġitem": 5234,
      "Ġpossibly": 5235,
      "ĠOnly": 5236,
      "Ġbird": 5237,
      "Ġsecurity": 5238,
      "Ġcarries": 5239,
      "Ġsmart": 5240,
      "Ġdeveloped": 5241,
      "cial": 5242,
      "ĠPay": 5243,
      "Ġholds": 5244,
      "Ġaveraged": 5245,
      "Ġfashion": 5246,
      "Ġaccur": 5247,
      "Ġphone": 5248,
      "Ġrevenue": 5249,
      "Ġdemonstr": 5250,
      "ĠGuard": 5251,
      "ĠEverton": 5252,
      "31": 5253,
      "Ġretired": 5254,
      "chell": 5255,
      "Ġsingles": 5256,
      "clusion": 5257,
      "aked": 5258,
      "Ġbenefits": 5259,
      "ups": 5260,
      "ĠMedia": 5261,
      "Ġsportsbook": 5262,
      "Ġnormal": 5263,
      "Ġstanding": 5264,
      "rie": 5265,
      "ĠTennis": 5266,
      "ĠFull": 5267,
      "ĠLuke": 5268,
      "Ġsites": 5269,
      "Ġscorer": 5270,
      "Ġlic": 5271,
      "Ġbalance": 5272,
      "Ġcrew": 5273,
      "ĠGod": 5274,
      "iser": 5275,
      "Ġcreating": 5276,
      "Ġestablished": 5277,
      "ĠNext": 5278,
      "ĠTitans": 5279,
      "ĠSeahawks": 5280,
      "Ġsurv": 5281,
      "Ġsalary": 5282,
      "Ġbud": 5283,
      "Ġarrest": 5284,
      "ĠMoore": 5285,
      "Ġwindow": 5286,
      "atively": 5287,
      "Ġtrouble": 5288,
      "Ġfought": 5289,
      "Ġworse": 5290,
      "Ġtalked": 5291,
      "Ġbronze": 5292,
      "ims": 5293,
      "bourne": 5294,
      "Ġprimary": 5295,
      "Ġwearing": 5296,
      "Ġqualify": 5297,
      "Ġpicture": 5298,
      "ta": 5299,
      "valu": 5300,
      "Ġcategory": 5301,
      "ucture": 5302,
      "Ġpan": 5303,
      "Ġmother": 5304,
      "ĠBoy": 5305,
      "Ġnumerous": 5306,
      "Ġtax": 5307,
      "ĠGard": 5308,
      "iamond": 5309,
      "ĠArgentina": 5310,
      "umph": 5311,
      "otte": 5312,
      "Ġhighlights": 5313,
      "Ġvenue": 5314,
      "ĠNiger": 5315,
      "OL": 5316,
      "anging": 5317,
      "ograph": 5318,
      "urf": 5319,
      "ĠFly": 5320,
      "Ġprec": 5321,
      "TA": 5322,
      "Ġdied": 5323,
      "long": 5324,
      "Ġlogo": 5325,
      "ocr": 5326,
      "Ġunf": 5327,
      "ĠRoyal": 5328,
      "Ġtraditional": 5329,
      "32": 5330,
      "Ġexercise": 5331,
      "Ġver": 5332,
      "Ġstruggling": 5333,
      "hy": 5334,
      "Ġathletics": 5335,
      "**": 5336,
      "iable": 5337,
      "Ġheaded": 5338,
      "Ġoptim": 5339,
      "ipping": 5340,
      "oned": 5341,
      "ously": 5342,
      "ĠBulls": 5343,
      "ĠFight": 5344,
      "ĠCommission": 5345,
      "ĠYes": 5346,
      "itation": 5347,
      "ĠJud": 5348,
      "Ġexpectations": 5349,
      "Ġhopefully": 5350,
      "Ġoccur": 5351,
      "44": 5352,
      "Ġx": 5353,
      "Ġriders": 5354,
      "ĠOb": 5355,
      "Ġcalls": 5356,
      "Ġjournal": 5357,
      "Ġrefer": 5358,
      "Ġranking": 5359,
      "ingly": 5360,
      "ĠHend": 5361,
      "Ġpodium": 5362,
      "Ġsource": 5363,
      "Ġfigures": 5364,
      "regon": 5365,
      "Ġwing": 5366,
      "Ġwall": 5367,
      "utions": 5368,
      "Ġremark": 5369,
      "ĠSean": 5370,
      "ĠâĤ¬": 5371,
      "Ġstats": 5372,
      "Ġ75": 5373,
      "ĠBecause": 5374,
      "sp": 5375,
      "anda": 5376,
      "iqu": 5377,
      "ulated": 5378,
      "Ġnoted": 5379,
      "ĠPa": 5380,
      "Ġbout": 5381,
      "ĠFord": 5382,
      "Ġ46": 5383,
      "giate": 5384,
      "estyle": 5385,
      "Ġdecide": 5386,
      "IM": 5387,
      "Ġwalked": 5388,
      "90": 5389,
      "wich": 5390,
      "ĠBoard": 5391,
      "Ġcalling": 5392,
      "Ġcustomers": 5393,
      "ĠMass": 5394,
      "Ġadvanced": 5395,
      "mas": 5396,
      "acher": 5397,
      "Ġcontrovers": 5398,
      "ĠSpring": 5399,
      "Ġentertainment": 5400,
      "ĠFan": 5401,
      "ĠLeon": 5402,
      "Ġtechnical": 5403,
      "Ġfeder": 5404,
      "Ġvote": 5405,
      "ftime": 5406,
      "Ġreality": 5407,
      "ĠBelg": 5408,
      "ĠFoundation": 5409,
      "ĠDolphins": 5410,
      "ding": 5411,
      "Ġliving": 5412,
      "ĠSwed": 5413,
      "Ġconstant": 5414,
      "ĠSyd": 5415,
      "Ġcoordinator": 5416,
      "ban": 5417,
      "Ġ55": 5418,
      "Ġgreater": 5419,
      "Ġbrief": 5420,
      "erves": 5421,
      "Ġimag": 5422,
      "Ġdetermined": 5423,
      "--": 5424,
      "overs": 5425,
      "Ġdism": 5426,
      "Ġbirth": 5427,
      "Ġcoronavirus": 5428,
      "70": 5429,
      "ĠAst": 5430,
      "Ġunbeat": 5431,
      "Ġelig": 5432,
      "Ġbegins": 5433,
      "Ġtalks": 5434,
      "Ġextended": 5435,
      "ĠFollowing": 5436,
      "Ġhundred": 5437,
      "Ġlaps": 5438,
      "irts": 5439,
      "class": 5440,
      "Ġsessions": 5441,
      "Ġobs": 5442,
      "Ġscen": 5443,
      "ĠUtah": 5444,
      "Ġreportedly": 5445,
      "Ġarr": 5446,
      "ĠCons": 5447,
      "Ġaudience": 5448,
      "Ġpuck": 5449,
      "aling": 5450,
      "owski": 5451,
      "Ġprofession": 5452,
      "Ġforget": 5453,
      "Ġprepar": 5454,
      "ĠBills": 5455,
      "Ġsound": 5456,
      "ĠFred": 5457,
      "OS": 5458,
      "ĠGun": 5459,
      "rupt": 5460,
      "ĠCong": 5461,
      "gram": 5462,
      "ĠArm": 5463,
      "UR": 5464,
      "ĠMarsh": 5465,
      "azz": 5466,
      "aro": 5467,
      "Ġadmitted": 5468,
      "ĠLight": 5469,
      "Ã¡": 5470,
      "Ġet": 5471,
      "acement": 5472,
      "Ġeasier": 5473,
      "aug": 5474,
      "Ġbasis": 5475,
      "Ġbrilliant": 5476,
      "Ġ2000": 5477,
      "oker": 5478,
      "Ġdecade": 5479,
      "fit": 5480,
      "Ġagree": 5481,
      "ĠRodgers": 5482,
      "Ġamb": 5483,
      "ĠBryant": 5484,
      "bb": 5485,
      "lon": 5486,
      "ĠSummer": 5487,
      "hens": 5488,
      "ĠJacob": 5489,
      "Ġtact": 5490,
      "ĠRand": 5491,
      "Ġfighters": 5492,
      "olution": 5493,
      "ĠGab": 5494,
      "Ġdirectly": 5495,
      "Ġmodern": 5496,
      "Ġtraded": 5497,
      "Ġstages": 5498,
      "Ġrum": 5499,
      "Ġhandle": 5500,
      "Ġfactor": 5501,
      "Ġsteps": 5502,
      "Ġdominant": 5503,
      "best": 5504,
      "look": 5505,
      "roke": 5506,
      "ait": 5507,
      "Ġbike": 5508,
      "Ġpounds": 5509,
      "Ġthous": 5510,
      "Ġmiles": 5511,
      "ĠSecond": 5512,
      "05": 5513,
      "gets": 5514,
      "No": 5515,
      "Ġbroken": 5516,
      "Ġdi": 5517,
      "duce": 5518,
      "OW": 5519,
      "artment": 5520,
      "Ġblood": 5521,
      "Ġtransition": 5522,
      "Ġdom": 5523,
      "oenix": 5524,
      "IG": 5525,
      "ĠLo": 5526,
      "ĠGal": 5527,
      "ishing": 5528,
      "Ġdelivered": 5529,
      "ĠAL": 5530,
      "Ġopposition": 5531,
      "ĠDuke": 5532,
      "!âĢĿ": 5533,
      "ĠStud": 5534,
      "Ġ43": 5535,
      "olars": 5536,
      "Ġsaves": 5537,
      "mercial": 5538,
      "Ġfavourite": 5539,
      "ĠLeeds": 5540,
      "Ġdangerous": 5541,
      "ĠBayern": 5542,
      "ĠMitchell": 5543,
      "Ġgam": 5544,
      "Ġorganis": 5545,
      "ĠOregon": 5546,
      "ĠKim": 5547,
      "ĠPick": 5548,
      "Ġbank": 5549,
      "Ġrequest": 5550,
      "minute": 5551,
      "porter": 5552,
      "Ġweb": 5553,
      "Ġpleased": 5554,
      "Ġhalftime": 5555,
      "Ġtweet": 5556,
      "ĠFerr": 5557,
      "DI": 5558,
      "Ġword": 5559,
      "Ġremind": 5560,
      "sy": 5561,
      "ĠHaving": 5562,
      "Ġtall": 5563,
      "Ġofficially": 5564,
      "winning": 5565,
      "ĠBengals": 5566,
      "acity": 5567,
      "Ġautom": 5568,
      "Ġnatural": 5569,
      "inner": 5570,
      "Ġpowerful": 5571,
      "Ġusers": 5572,
      "ĠUnion": 5573,
      "ĠEnd": 5574,
      "ifying": 5575,
      "awa": 5576,
      "ĠPhoenix": 5577,
      "Ġmount": 5578,
      "Ġentry": 5579,
      "ĠQatar": 5580,
      "Ġcommittee": 5581,
      "Ġ2003": 5582,
      "ĠMcK": 5583,
      "Ġur": 5584,
      "Ġsurprised": 5585,
      "istrict": 5586,
      "Ġlaunched": 5587,
      "lies": 5588,
      "Ġmarketing": 5589,
      "ĠLind": 5590,
      "consin": 5591,
      "Ġkicks": 5592,
      "Ġhat": 5593,
      "Ġformat": 5594,
      "Ġperm": 5595,
      "Ġawards": 5596,
      "ĠCross": 5597,
      "Ġweak": 5598,
      "Ġprospects": 5599,
      "gen": 5600,
      "nel": 5601,
      "ĠWhether": 5602,
      "ĠCeltics": 5603,
      "88": 5604,
      "ufact": 5605,
      "mann": 5606,
      "Ġsens": 5607,
      "Ġankle": 5608,
      "ĠPan": 5609,
      "ĠWinter": 5610,
      "ĠCouncil": 5611,
      "ĠHeat": 5612,
      "Ġuns": 5613,
      "ĠSydney": 5614,
      "ĠIv": 5615,
      "ĠMLS": 5616,
      "Ġdominated": 5617,
      "force": 5618,
      "Ġsuc": 5619,
      "sters": 5620,
      "ĠInc": 5621,
      "ables": 5622,
      "Ġfeed": 5623,
      "Ġplanning": 5624,
      "ĠStanley": 5625,
      "49": 5626,
      "ingham": 5627,
      "Ġtries": 5628,
      "Ġmach": 5629,
      "ĠPur": 5630,
      "ilies": 5631,
      "Ġtesting": 5632,
      "ĠBeck": 5633,
      "ĠRoberts": 5634,
      "ĠLeices": 5635,
      "Ġopinion": 5636,
      "ration": 5637,
      "Ġturning": 5638,
      "âĢ²": 5639,
      "Ġentering": 5640,
      "So": 5641,
      "Ġsales": 5642,
      "Ġshock": 5643,
      "ĠRick": 5644,
      "Ġclock": 5645,
      "ĠThanks": 5646,
      "ĠAct": 5647,
      "ĠWhere": 5648,
      "ĠAlb": 5649,
      "ĠChargers": 5650,
      "Ġepis": 5651,
      "Ġbeautiful": 5652,
      "ĠCH": 5653,
      "ĠMod": 5654,
      "ĠBuc": 5655,
      "Ġqualified": 5656,
      "Ġupdates": 5657,
      "Ġwickets": 5658,
      "Ġapply": 5659,
      "Ġraise": 5660,
      "Ġprivate": 5661,
      "TM": 5662,
      "âĢĿ,": 5663,
      "Ġparticipants": 5664,
      "ĠDoug": 5665,
      "ĠJimm": 5666,
      "Ġloved": 5667,
      "ĠArt": 5668,
      "ĠRun": 5669,
      "inally": 5670,
      "Ġwhom": 5671,
      "ĠGeneral": 5672,
      "Sh": 5673,
      "Ġremained": 5674,
      "itement": 5675,
      "Ġexch": 5676,
      "Ġincreasing": 5677,
      "ĠAsian": 5678,
      "Ġjerseys": 5679,
      "ĠThough": 5680,
      "Ġinitial": 5681,
      "Ġwal": 5682,
      "acked": 5683,
      "ĠKnights": 5684,
      "ĠLyn": 5685,
      "ĠColumb": 5686,
      "Ġexclusive": 5687,
      "Ġble": 5688,
      "Ġfamiliar": 5689,
      "ĠGary": 5690,
      "ality": 5691,
      "Ġ76": 5692,
      "Ġtrial": 5693,
      "Ġovers": 5694,
      "Ġsch": 5695,
      "Ġpra": 5696,
      "Ġdoll": 5697,
      "Ġpushed": 5698,
      "Ġchallenging": 5699,
      "Ġcompeted": 5700,
      "ipe": 5701,
      "ĠHel": 5702,
      "Ġemb": 5703,
      "Ġtask": 5704,
      "Ġrelated": 5705,
      "Ġpublished": 5706,
      "ĠSa": 5707,
      "Ġrise": 5708,
      "Ġreflect": 5709,
      "Ġrough": 5710,
      "ooth": 5711,
      "Ġvaluable": 5712,
      "ĠCra": 5713,
      "umble": 5714,
      "Ġcaused": 5715,
      "Ġelimin": 5716,
      "Ġsale": 5717,
      "kel": 5718,
      "car": 5719,
      "ources": 5720,
      "ĠJonathan": 5721,
      "Ġconced": 5722,
      "ĠThrough": 5723,
      "iro": 5724,
      "ĠYouth": 5725,
      "ĠClem": 5726,
      "Ġhighlight": 5727,
      "Ġdrafted": 5728,
      "ĠWisconsin": 5729,
      "Ġholes": 5730,
      "Ġmemor": 5731,
      "Ġreplace": 5732,
      "Ġoutfield": 5733,
      "ĠNorthern": 5734,
      "Ġannouncement": 5735,
      "Ġstepped": 5736,
      "Ġscene": 5737,
      "bing": 5738,
      "Ġconcerns": 5739,
      "Ġresponsible": 5740,
      "Ġtrend": 5741,
      "dom": 5742,
      "Ġunbeaten": 5743,
      "39": 5744,
      "Ġvan": 5745,
      "ĠDerby": 5746,
      "ĠHealth": 5747,
      "ĠAM": 5748,
      "Ġele": 5749,
      "ĠHome": 5750,
      "ĠIndianapolis": 5751,
      "rik": 5752,
      "ĠMorris": 5753,
      "Ġiniti": 5754,
      "46": 5755,
      "Ġlimit": 5756,
      "uses": 5757,
      "uild": 5758,
      "Ġpossibility": 5759,
      "Ġlaws": 5760,
      "/.": 5761,
      "ĠGon": 5762,
      "makers": 5763,
      "ranked": 5764,
      "Ġsuspended": 5765,
      "Ġinvestigation": 5766,
      "Ġconclud": 5767,
      "Ġsecured": 5768,
      "Ġfeaturing": 5769,
      "last": 5770,
      "ĠAv": 5771,
      "Ġheat": 5772,
      "Ġscreen": 5773,
      "Ġ47": 5774,
      "Ġ400": 5775,
      "ĠGord": 5776,
      "Ġaltern": 5777,
      "Ġoutd": 5778,
      "47": 5779,
      "ounts": 5780,
      "Ġphoto": 5781,
      "Ġcelebrate": 5782,
      "ĠHarry": 5783,
      "Ġdoor": 5784,
      "ĠCentre": 5785,
      "Ġpic": 5786,
      "ptions": 5787,
      "ĠClick": 5788,
      "otal": 5789,
      "week": 5790,
      "Ġolder": 5791,
      "ĠCommunity": 5792,
      "Ġemph": 5793,
      "Ġdefenders": 5794,
      "Ġmulti": 5795,
      "ĠTimes": 5796,
      "ĠGT": 5797,
      "Ġexcitement": 5798,
      "ĠCharles": 5799,
      "friend": 5800,
      "Ġpurchase": 5801,
      "Ġmanage": 5802,
      "anes": 5803,
      "ĠHenry": 5804,
      "olarship": 5805,
      "Ġachieved": 5806,
      "cia": 5807,
      "ius": 5808,
      "Ġwinger": 5809,
      "Ġslot": 5810,
      "Ġgap": 5811,
      "ĠLady": 5812,
      "Ġsacks": 5813,
      "ĠFans": 5814,
      "ĠRom": 5815,
      "ĠServ": 5816,
      "Ġfamilies": 5817,
      "Ġsupporting": 5818,
      "rip": 5819,
      "ĠAbout": 5820,
      "Ġdamage": 5821,
      "Ġpitches": 5822,
      "ĠJagu": 5823,
      "ĠWrestling": 5824,
      "ĠCro": 5825,
      "kee": 5826,
      "lando": 5827,
      "Ġspending": 5828,
      "ĠMorgan": 5829,
      "ĠLA": 5830,
      "ĠSub": 5831,
      "ĠAgain": 5832,
      "ils": 5833,
      "Ġregional": 5834,
      "Ġgirl": 5835,
      "ĠChallenge": 5836,
      "ĠON": 5837,
      "ization": 5838,
      "ĠLeicester": 5839,
      "hic": 5840,
      "iden": 5841,
      "ĠMelbourne": 5842,
      "ĠNic": 5843,
      "Ġsubstit": 5844,
      "48": 5845,
      "Ġcontend": 5846,
      "ste": 5847,
      "IL": 5848,
      "Ġcatches": 5849,
      "arp": 5850,
      "Ġfastest": 5851,
      "Ġspirit": 5852,
      "Ġlisted": 5853,
      "ĠTer": 5854,
      "using": 5855,
      "ĠTeams": 5856,
      "zz": 5857,
      "ĠLSU": 5858,
      "Ġbeaten": 5859,
      "ĠSn": 5860,
      "ĠAlexander": 5861,
      "Ġord": 5862,
      "ĠCarlos": 5863,
      "Ġdedicated": 5864,
      "Ġcompetitors": 5865,
      "dden": 5866,
      "Ġreleg": 5867,
      "Ġoccasion": 5868,
      "Ġutil": 5869,
      "For": 5870,
      "ĠLy": 5871,
      "ĠInstead": 5872,
      "Ġcombination": 5873,
      "maker": 5874,
      "Ġalleged": 5875,
      "ĠGil": 5876,
      "angu": 5877,
      "know": 5878,
      "?âĢĿ": 5879,
      "ĠBank": 5880,
      "ĠGib": 5881,
      "Ġpoll": 5882,
      "Ġdynam": 5883,
      "Ġknocked": 5884,
      "Ġreward": 5885,
      "Ġstarters": 5886,
      "Ġbats": 5887,
      "ĠKh": 5888,
      "anted": 5889,
      "ĠStart": 5890,
      "ĠSteven": 5891,
      "ĠFant": 5892,
      "Bron": 5893,
      "Ġ195": 5894,
      "Ġbecomes": 5895,
      "Ġstronger": 5896,
      "Ġmeetings": 5897,
      "Ġunderstanding": 5898,
      "Ġham": 5899,
      "aith": 5900,
      "ĠMcL": 5901,
      "Ġpitched": 5902,
      "estic": 5903,
      "Ġconver": 5904,
      "oster": 5905,
      "efe": 5906,
      "icit": 5907,
      "ĠSilver": 5908,
      "Ġmargin": 5909,
      "ĠBoxing": 5910,
      "hire": 5911,
      "edy": 5912,
      "Ġrating": 5913,
      "ĠWildcats": 5914,
      "Ġsupposed": 5915,
      "PR": 5916,
      "Ġnone": 5917,
      "Ġmuscle": 5918,
      "nast": 5919,
      "isted": 5920,
      "irk": 5921,
      "ĠHoward": 5922,
      "Ġevalu": 5923,
      "ĠStreet": 5924,
      "order": 5925,
      "ĠOakland": 5926,
      "Ġintegr": 5927,
      "Ġoutcome": 5928,
      "ĠDevelop": 5929,
      "Ġreading": 5930,
      "Ġfactors": 5931,
      "ĠEnter": 5932,
      "Ġdegree": 5933,
      "ĠAli": 5934,
      "ĠPolice": 5935,
      "Ġsudden": 5936,
      "umn": 5937,
      "ech": 5938,
      "Ġcarried": 5939,
      "ĠSem": 5940,
      "Ġmostly": 5941,
      "Ġestablish": 5942,
      "ĠRem": 5943,
      "Ġesc": 5944,
      "Ġvolunte": 5945,
      "ĠDistrict": 5946,
      "ĠLam": 5947,
      "ĠGriff": 5948,
      "ĠEvans": 5949,
      "met": 5950,
      "Ġclaims": 5951,
      "ĠSqu": 5952,
      "Ġblocks": 5953,
      "remend": 5954,
      "ĠCharlotte": 5955,
      "ulate": 5956,
      "ĠKy": 5957,
      "Ġquarterbacks": 5958,
      "ĠPo": 5959,
      "Ġworry": 5960,
      "Ġadvice": 5961,
      "Ġesports": 5962,
      "ourse": 5963,
      "Ġunit": 5964,
      "Ġdiscover": 5965,
      "Ġcore": 5966,
      "Ġpotentially": 5967,
      "bel": 5968,
      "ĠBol": 5969,
      "known": 5970,
      "What": 5971,
      ",âĢĻ": 5972,
      "mes": 5973,
      "isf": 5974,
      "ĠRoman": 5975,
      "Ġtriple": 5976,
      "Ġdecent": 5977,
      "Ġhosting": 5978,
      "Ġencoun": 5979,
      "ardo": 5980,
      "ĠRodrig": 5981,
      "Ġ2002": 5982,
      "ĠWatson": 5983,
      "Ġsucceed": 5984,
      "ivity": 5985,
      "Ġpolicy": 5986,
      "Ġgrew": 5987,
      "ĠOrlando": 5988,
      "Ġsurprising": 5989,
      "Ġpm": 5990,
      "obody": 5991,
      "ĠBrazilian": 5992,
      "ĠNash": 5993,
      "Ġbreat": 5994,
      "ĠSign": 5995,
      "Ġcovered": 5996,
      "Ġfinishes": 5997,
      "Ġdisappointing": 5998,
      "ĠLow": 5999,
      "Ġcritical": 6000,
      "inois": 6001,
      "Ġ65": 6002,
      "Ġexperiences": 6003,
      "ĠBern": 6004,
      "Ġapparent": 6005,
      "Ġfixture": 6006,
      "uts": 6007,
      "pass": 6008,
      "Ġnotice": 6009,
      "Ġnegot": 6010,
      "ĠDaily": 6011,
      "Ġstriking": 6012,
      "Ġending": 6013,
      "Ġgrass": 6014,
      "Ġsuspension": 6015,
      "acle": 6016,
      "ĠDanny": 6017,
      "Ġadvert": 6018,
      "Ġreplaced": 6019,
      "mund": 6020,
      "ĠAmericans": 6021,
      "Ġdescribed": 6022,
      "ĠPier": 6023,
      "elson": 6024,
      "iana": 6025,
      "Ġreceivers": 6026,
      "Ġrecruiting": 6027,
      "itch": 6028,
      "Ġ52": 6029,
      "Ġbelieved": 6030,
      "rict": 6031,
      "ipper": 6032,
      "ĠThunder": 6033,
      "rence": 6034,
      "ĠPalace": 6035,
      "New": 6036,
      "Ġmill": 6037,
      "ĠHas": 6038,
      "Ġconfirm": 6039,
      "ef": 6040,
      "aver": 6041,
      "ĠTake": 6042,
      "ĠRank": 6043,
      "Ġpenalties": 6044,
      "\".": 6045,
      "09": 6046,
      "ĠSpecial": 6047,
      "uty": 6048,
      "osen": 6049,
      "inese": 6050,
      "Ġchannel": 6051,
      "IA": 6052,
      "itary": 6053,
      "ĠCBS": 6054,
      "Ġparts": 6055,
      "izes": 6056,
      "ĠBritain": 6057,
      "Ġdecades": 6058,
      "heless": 6059,
      "ĠAuburn": 6060,
      "ĠJes": 6061,
      "Ġthoughts": 6062,
      "Ġlegs": 6063,
      "eron": 6064,
      "ulf": 6065,
      "Ġtrick": 6066,
      "ĠHunter": 6067,
      "ĠKel": 6068,
      "aukee": 6069,
      "Ġsituations": 6070,
      "Ġresponded": 6071,
      "Ġslightly": 6072,
      "ador": 6073,
      "Ġimpressed": 6074,
      "Ġceremony": 6075,
      "Ġflex": 6076,
      "Ġrush": 6077,
      "ĠAdams": 6078,
      "ĠCountry": 6079,
      "Ġgained": 6080,
      "ĠTiger": 6081,
      "olic": 6082,
      "ĠKane": 6083,
      "ĠIndians": 6084,
      "ĠExp": 6085,
      "Ġvision": 6086,
      "Ġconcern": 6087,
      "ĠFederation": 6088,
      "Ġgen": 6089,
      "ĠClark": 6090,
      "ĠTrans": 6091,
      "ĠSC": 6092,
      "ĠMaybe": 6093,
      "Ġlocker": 6094,
      "efeated": 6095,
      "ilst": 6096,
      "ĠFernand": 6097,
      "ĠImp": 6098,
      "pective": 6099,
      "ĠTraining": 6100,
      "Ġrecruit": 6101,
      "Ġsweep": 6102,
      "esl": 6103,
      "Ġmanufact": 6104,
      "Ġ54": 6105,
      "Ġconsum": 6106,
      "ĠGover": 6107,
      "Ġimportance": 6108,
      "agn": 6109,
      "waukee": 6110,
      "Ġdeveloping": 6111,
      "SL": 6112,
      "hill": 6113,
      "Ġprogramme": 6114,
      "Ġregistered": 6115,
      "ĠBad": 6116,
      "Ġinterceptions": 6117,
      "ĠIllinois": 6118,
      "ios": 6119,
      "stone": 6120,
      "ĠBrew": 6121,
      "ĠLand": 6122,
      "ĠUr": 6123,
      "Ġsigns": 6124,
      "ĠFall": 6125,
      "Ġessential": 6126,
      "Ġconversation": 6127,
      "Ġgear": 6128,
      "Ġarena": 6129,
      "ĠCooper": 6130,
      "Ġconsistently": 6131,
      "Ġthus": 6132,
      "ĠSur": 6133,
      "Ġaggressive": 6134,
      "ĠDj": 6135,
      "Ġuniversity": 6136,
      "ĠZach": 6137,
      "Ġsponsorship": 6138,
      "Ġreput": 6139,
      "Ġcentral": 6140,
      "Ġobvious": 6141,
      "Ġ56": 6142,
      "atcher": 6143,
      "Ġtreatment": 6144,
      "ĠGonz": 6145,
      "ĠHor": 6146,
      "Ġmixed": 6147,
      "Ġmistake": 6148,
      "onna": 6149,
      "Ġimprovement": 6150,
      "Ġvehic": 6151,
      "rier": 6152,
      "uez": 6153,
      "Ġafford": 6154,
      "Ġcosts": 6155,
      "igious": 6156,
      "oves": 6157,
      "Ġcommunities": 6158,
      "ĠSher": 6159,
      "ĠPel": 6160,
      "ĠOdds": 6161,
      "Ġkicked": 6162,
      "Ġabsence": 6163,
      "Ġimage": 6164,
      "Ġtremend": 6165,
      "Ġmer": 6166,
      "ventus": 6167,
      "ointment": 6168,
      "Ġideal": 6169,
      "Ġapart": 6170,
      "Ġvideos": 6171,
      "Ġhistoric": 6172,
      "ĠUkraine": 6173,
      "She": 6174,
      "pri": 6175,
      "ĠRel": 6176,
      "Ġteach": 6177,
      "Ġpractices": 6178,
      "Ġdeadline": 6179,
      "ĠFO": 6180,
      "ĠNations": 6181,
      "ĠBook": 6182,
      "ĠHon": 6183,
      "onda": 6184,
      "Ġfee": 6185,
      "ĠCost": 6186,
      "Ġacknow": 6187,
      "Ġasking": 6188,
      "Ġfoul": 6189,
      "arrow": 6190,
      "ancy": 6191,
      "Ġturns": 6192,
      "Ġ51": 6193,
      "Ġobject": 6194,
      "Ġwitness": 6195,
      "olo": 6196,
      "oub": 6197,
      "Ġblog": 6198,
      "rant": 6199,
      "Our": 6200,
      "ĠCarter": 6201,
      "pected": 6202,
      "Ġversus": 6203,
      "acket": 6204,
      "racts": 6205,
      "Ġrock": 6206,
      "Ġnature": 6207,
      "ĠDam": 6208,
      "Ġusual": 6209,
      "Ġchanging": 6210,
      "ĠGordon": 6211,
      "onn": 6212,
      "Ġwritten": 6213,
      "Ġobtain": 6214,
      "ĠDonald": 6215,
      "ĠGall": 6216,
      "ĠJimmy": 6217,
      "Ġdeals": 6218,
      "Ġcandidate": 6219,
      "Ġcry": 6220,
      "Ġstood": 6221,
      ",'": 6222,
      "UN": 6223,
      "oyd": 6224,
      "CS": 6225,
      "ĠMoham": 6226,
      "atal": 6227,
      "Ġcommercial": 6228,
      "arsity": 6229,
      "Ġturnovers": 6230,
      "Ġongoing": 6231,
      "Ġyard": 6232,
      "Ġworkout": 6233,
      "ĠMotors": 6234,
      "band": 6235,
      "ighton": 6236,
      "Ġsad": 6237,
      "avi": 6238,
      "agon": 6239,
      "ĠStew": 6240,
      "Ġbright": 6241,
      "ouble": 6242,
      "ĠHorn": 6243,
      "aby": 6244,
      "Ġdistrict": 6245,
      "08": 6246,
      "Ġlucky": 6247,
      "Ġdaughter": 6248,
      "Ġinternet": 6249,
      "ĠMilwaukee": 6250,
      "ĠLat": 6251,
      "Ġperformed": 6252,
      "Ġmistakes": 6253,
      "Ġtested": 6254,
      "Ġcollabor": 6255,
      "estival": 6256,
      "ĠShaw": 6257,
      "isher": 6258,
      "cedes": 6259,
      "ĠBang": 6260,
      "Ġswimming": 6261,
      "Ġ53": 6262,
      "Ġacadem": 6263,
      "Ġcircum": 6264,
      "Ġresponsibility": 6265,
      "ĠCampbell": 6266,
      "Ġheads": 6267,
      "ĠTriple": 6268,
      "ependent": 6269,
      "bet": 6270,
      "eded": 6271,
      "Ġmaster": 6272,
      "ĠðŁ": 6273,
      "Ġwager": 6274,
      "Ġshoes": 6275,
      "Ġputs": 6276,
      "Ġbett": 6277,
      "Ġparticipation": 6278,
      "urch": 6279,
      "Ġpostp": 6280,
      "II": 6281,
      "Ġimproving": 6282,
      "ĠChristmas": 6283,
      "ĠRet": 6284,
      "ĠLeBron": 6285,
      "ĠOnline": 6286,
      "Ġdrove": 6287,
      "zen": 6288,
      "NBA": 6289,
      "PA": 6290,
      "Ġexhib": 6291,
      "Ġlocation": 6292,
      "Ġassess": 6293,
      "Ġcharges": 6294,
      "ĠCov": 6295,
      "Ġsees": 6296,
      "ĠBraves": 6297,
      "Ġcollection": 6298,
      "ERS": 6299,
      "Ġcycling": 6300,
      "ĠWright": 6301,
      "ĠFive": 6302,
      "Ġplanned": 6303,
      "Ġlots": 6304,
      "Ġbelt": 6305,
      "ĠHope": 6306,
      "Ġtelling": 6307,
      "ĠQual": 6308,
      "what": 6309,
      "ĠPor": 6310,
      "ĠRE": 6311,
      "ĠDepartment": 6312,
      "card": 6313,
      "Ġclosing": 6314,
      "Ġfalling": 6315,
      "Ġreaching": 6316,
      "ĠAddition": 6317,
      "ĠMir": 6318,
      "Ġchamp": 6319,
      "Ġaccomplish": 6320,
      "pting": 6321,
      "Ġconcuss": 6322,
      "ĠBund": 6323,
      "Ġstake": 6324,
      "ĠDomin": 6325,
      "ĠJerseys": 6326,
      "Ġ66": 6327,
      "Ġlocated": 6328,
      "Ġintroduced": 6329,
      "ĠRoyals": 6330,
      "handed": 6331,
      "aga": 6332,
      "Ġ64": 6333,
      "ĠSaint": 6334,
      "ĠHawks": 6335,
      "Ġradio": 6336,
      "Ġknowing": 6337,
      "aska": 6338,
      "Ġtypes": 6339,
      "ĠBruins": 6340,
      "Ġhol": 6341,
      "arez": 6342,
      "ĠUnfortunately": 6343,
      "ĠNelson": 6344,
      "iev": 6345,
      "Ġhappening": 6346,
      "ĠUpd": 6347,
      "Ġlands": 6348,
      "Ġwalks": 6349,
      "ĠDid": 6350,
      "ĠJaguars": 6351,
      "ĠAston": 6352,
      "Ġkeeps": 6353,
      "Ġcircuit": 6354,
      "American": 6355,
      "Ġhor": 6356,
      "ĠChase": 6357,
      "bar": 6358,
      "match": 6359,
      "ĠPass": 6360,
      "iform": 6361,
      "Ġconstruction": 6362,
      "Ġduo": 6363,
      "light": 6364,
      "ĠAsia": 6365,
      "Ġtriumph": 6366,
      "Ġclimb": 6367,
      "ĠBBC": 6368,
      "Ġrat": 6369,
      "Ġ72": 6370,
      "Ġdetermine": 6371,
      "ker": 6372,
      "Ġrider": 6373,
      "Ġspell": 6374,
      "OM": 6375,
      "hawks": 6376,
      "Ġtoug": 6377,
      "ĠRap": 6378,
      "ĠIce": 6379,
      "illa": 6380,
      "Ġdistribut": 6381,
      "Ġtrainer": 6382,
      "Ġcoached": 6383,
      "ĠPeople": 6384,
      "Ġproven": 6385,
      "ĠYouT": 6386,
      "ĠIan": 6387,
      "Ġhanded": 6388,
      "ĠHug": 6389,
      "ĠDrew": 6390,
      "Ġpicking": 6391,
      "ĠForest": 6392,
      "ients": 6393,
      "Ġthrown": 6394,
      "ĠMarcus": 6395,
      "mouth": 6396,
      "Ġbases": 6397,
      "Ġfriendly": 6398,
      "ookie": 6399,
      "kes": 6400,
      "ican": 6401,
      "elo": 6402,
      "iah": 6403,
      "Ġourselves": 6404,
      "Ġvisiting": 6405,
      "ĠJuventus": 6406,
      "ĠGraham": 6407,
      "how": 6408,
      "ĠNY": 6409,
      "offs": 6410,
      "Ġdelighted": 6411,
      "ĠLoc": 6412,
      "Ġrotation": 6413,
      "ĠHear": 6414,
      "Ġdocument": 6415,
      "RL": 6416,
      "ran": 6417,
      "Ġrally": 6418,
      "ĠStand": 6419,
      "iment": 6420,
      "Ġphotos": 6421,
      "istry": 6422,
      "Ġgeneration": 6423,
      "stances": 6424,
      "Ġgun": 6425,
      "ĠEdwards": 6426,
      "Ġpitchers": 6427,
      "ĠArab": 6428,
      "Ġcampus": 6429,
      "Ġfunction": 6430,
      "illy": 6431,
      "Ġextension": 6432,
      "Ġbrands": 6433,
      "Ġmarks": 6434,
      "Ġwithd": 6435,
      "ĠClemson": 6436,
      "oping": 6437,
      "ĠKorea": 6438,
      "ossible": 6439,
      "Ġcapacity": 6440,
      "Ġlinked": 6441,
      "ĠGh": 6442,
      "Ġincredibly": 6443,
      "Ġpolitical": 6444,
      "heim": 6445,
      "oon": 6446,
      "Ġbill": 6447,
      "ĠMu": 6448,
      "Ġdrug": 6449,
      "01": 6450,
      "omes": 6451,
      "ĠPirates": 6452,
      "bon": 6453,
      "Ġimplement": 6454,
      "Ġactual": 6455,
      "Ġstayed": 6456,
      "All": 6457,
      "esome": 6458,
      "orial": 6459,
      "ĠPed": 6460,
      "Ġundefeated": 6461,
      "Ġspin": 6462,
      "Ġnor": 6463,
      "ĠFantasy": 6464,
      "inos": 6465,
      "Ġpushing": 6466,
      "ĠProfess": 6467,
      "ĠJays": 6468,
      "Ġexpress": 6469,
      "Ġdisappointed": 6470,
      "Ġreporters": 6471,
      "Ġsche": 6472,
      "Ġproduce": 6473,
      "Ġproceed": 6474,
      "Ġcontributed": 6475,
      "ĠMaryland": 6476,
      "mar": 6477,
      "ici": 6478,
      "ille": 6479,
      "On": 6480,
      "Ġpaper": 6481,
      "Ġrid": 6482,
      "PS": 6483,
      "vant": 6484,
      "ÃŃ": 6485,
      "ĠIns": 6486,
      "Ġunlikely": 6487,
      "iety": 6488,
      "Ġfaster": 6489,
      "Ġprojects": 6490,
      "rom": 6491,
      "ĠTag": 6492,
      "ĠACC": 6493,
      "Ġexpressed": 6494,
      "Ġletter": 6495,
      "ington": 6496,
      "ĠNFC": 6497,
      "Ġanywhere": 6498,
      "Ġamateur": 6499,
      "Ġdomestic": 6500,
      "ĠInt": 6501,
      "ĠNad": 6502,
      "ĠTrack": 6503,
      "ĠElli": 6504,
      "Ġkeen": 6505,
      "ĠMos": 6506,
      "Ġsurface": 6507,
      "iance": 6508,
      "ĠBenn": 6509,
      "aha": 6510,
      "ĠDig": 6511,
      "Ġbackground": 6512,
      "Ġdisp": 6513,
      "west": 6514,
      "ĠCy": 6515,
      "chan": 6516,
      "je": 6517,
      "worth": 6518,
      "endar": 6519,
      "Ġremarkable": 6520,
      "Ġflight": 6521,
      "Ġwriting": 6522,
      "Ġconcerned": 6523,
      "ĠWayne": 6524,
      "ĠDal": 6525,
      "ĠJen": 6526,
      "Ġmarkets": 6527,
      "Ġcolor": 6528,
      "ĠBryan": 6529,
      "ĠPere": 6530,
      "Ġwalking": 6531,
      "ĠBobby": 6532,
      "iest": 6533,
      "ĠUSC": 6534,
      "Ġrepresented": 6535,
      "Ġevidence": 6536,
      "Ġintend": 6537,
      "Ġlatter": 6538,
      "ĠHot": 6539,
      "ĠHud": 6540,
      "Ġscholarship": 6541,
      "ĠNik": 6542,
      "ource": 6543,
      "Ġhotel": 6544,
      "Ġcrazy": 6545,
      "Ġmarked": 6546,
      "state": 6547,
      "dd": 6548,
      "oted": 6549,
      "reek": 6550,
      "Ġguide": 6551,
      "ĠCook": 6552,
      "ĠMercedes": 6553,
      "ĠJoseph": 6554,
      "pound": 6555,
      "ĠArk": 6556,
      "dale": 6557,
      "Ġcompar": 6558,
      "Ġfixtures": 6559,
      "Ġiconic": 6560,
      "Ġserving": 6561,
      "news": 6562,
      "Ġthousands": 6563,
      "uted": 6564,
      "ĠAtt": 6565,
      "Ġbowl": 6566,
      "part": 6567,
      "isl": 6568,
      "ĠDutch": 6569,
      "ĠChinese": 6570,
      "Ġhonors": 6571,
      "Ġenthusi": 6572,
      "ĠKr": 6573,
      "Ġkill": 6574,
      "FT": 6575,
      "Ġsecondary": 6576,
      "stop": 6577,
      "othing": 6578,
      "yal": 6579,
      "ĠHal": 6580,
      "Ġotherwise": 6581,
      "Ġseat": 6582,
      "night": 6583,
      "Ġbroadc": 6584,
      "oms": 6585,
      "ĠMartine": 6586,
      "Ġattended": 6587,
      "42": 6588,
      "ouri": 6589,
      "ĠRen": 6590,
      "Ġtypically": 6591,
      "Ġsources": 6592,
      "Ġdepartment": 6593,
      "ses": 6594,
      "ĠHus": 6595,
      "ideo": 6596,
      "Ġexperts": 6597,
      "ĠStewart": 6598,
      "ĠFab": 6599,
      "Ġneigh": 6600,
      "ĠKnicks": 6601,
      "Ġnarrow": 6602,
      "olk": 6603,
      "Ġcomplex": 6604,
      "Ġuniform": 6605,
      "ĠCompet": 6606,
      "Ġpurpose": 6607,
      "At": 6608,
      "ĠTan": 6609,
      "ĠWolves": 6610,
      "formance": 6611,
      "Ġcommission": 6612,
      "Ġ2001": 6613,
      "ĠTommy": 6614,
      "Ġhttp": 6615,
      "Ġ300": 6616,
      "Ġtargets": 6617,
      "Every": 6618,
      "ouver": 6619,
      "rible": 6620,
      "Ġgotten": 6621,
      "Ġworldwide": 6622,
      "ĠLeg": 6623,
      "Ġinitially": 6624,
      "Ġepisode": 6625,
      "cles": 6626,
      "Ġ57": 6627,
      "ĠNationals": 6628,
      "ĠButler": 6629,
      "ria": 6630,
      "Ġchosen": 6631,
      "ĠCameron": 6632,
      "ements": 6633,
      "Ġrob": 6634,
      "Ġdenied": 6635,
      "Ġwagering": 6636,
      "ĠPad": 6637,
      "person": 6638,
      "osit": 6639,
      "Ġsong": 6640,
      "Ġho": 6641,
      "Ġdrew": 6642,
      "ĠSir": 6643,
      "Ġheav": 6644,
      "ĠCB": 6645,
      "ĠMontreal": 6646,
      "Ġfaith": 6647,
      "Ġboot": 6648,
      "Ġstruggle": 6649,
      "Ġfrequ": 6650,
      "Ġemphas": 6651,
      "Ġcheap": 6652,
      "ĠYouTube": 6653,
      "Ġtro": 6654,
      "Ġretirement": 6655,
      "gar": 6656,
      "ancouver": 6657,
      "lim": 6658,
      "Ġsupported": 6659,
      "Ġoperations": 6660,
      "Ġstore": 6661,
      "ski": 6662,
      "Ġencounter": 6663,
      "ÃĤ": 6664,
      "ĠKa": 6665,
      "ĠGoal": 6666,
      "Ġpackage": 6667,
      "Ġfewer": 6668,
      "duction": 6669,
      "Ġdelay": 6670,
      "Ġsatisf": 6671,
      "ĠAstros": 6672,
      "Ġ($": 6673,
      "Ġvital": 6674,
      "ĠAlbert": 6675,
      "mad": 6676,
      "Ġwheel": 6677,
      "ĠFerrari": 6678,
      "ĠMet": 6679,
      "Re": 6680,
      "ĠYet": 6681,
      "Ġgar": 6682,
      "Ġrespective": 6683,
      "Ġtoss": 6684,
      "ĠLittle": 6685,
      "rael": 6686,
      "ĠView": 6687,
      "Ġdesire": 6688,
      "Ġ58": 6689,
      "ctions": 6690,
      "iverse": 6691,
      "ĠSpeaking": 6692,
      "ivery": 6693,
      "ĠDemocr": 6694,
      "Ġperspective": 6695,
      "Ġtremendous": 6696,
      "âĢĻ.": 6697,
      "Ġsole": 6698,
      "Ġrelief": 6699,
      "mosp": 6700,
      "kick": 6701,
      "Ġ68": 6702,
      "Ġassociated": 6703,
      "ĠOri": 6704,
      "Ġ67": 6705,
      "ĠDev": 6706,
      "Ġreplacement": 6707,
      "Ġune": 6708,
      "net": 6709,
      "ĠNa": 6710,
      "Ġpreparation": 6711,
      "Ġinfluence": 6712,
      "ĠWy": 6713,
      "07": 6714,
      "osure": 6715,
      "Ġkills": 6716,
      "ĠBridge": 6717,
      "ĠWard": 6718,
      "Ġfunds": 6719,
      "Ġsustain": 6720,
      "Ġdismiss": 6721,
      "ĠTE": 6722,
      "ĠKat": 6723,
      "ĠVancouver": 6724,
      "Ġparticipating": 6725,
      "ĠPhillies": 6726,
      "ĠThank": 6727,
      ")||": 6728,
      "ĠRight": 6729,
      "ĠOil": 6730,
      "Ġsleep": 6731,
      "Ġnegoti": 6732,
      "Ġbatter": 6733,
      "ĠReport": 6734,
      "ms": 6735,
      "ĠLine": 6736,
      "ĠJoin": 6737,
      "Ġdre": 6738,
      "ĠMcM": 6739,
      "Ġroutine": 6740,
      "oni": 6741,
      "Ġleaves": 6742,
      "ĠDak": 6743,
      "Ġgenerally": 6744,
      "Ġcandidates": 6745,
      "To": 6746,
      "ĠLove": 6747,
      "Ġgoalie": 6748,
      "Ġstaying": 6749,
      "iners": 6750,
      "iels": 6751,
      "Ġsignificantly": 6752,
      "Ġoriginally": 6753,
      "Ġinvolve": 6754,
      "Ġfear": 6755,
      "ĠIPL": 6756,
      "ĠKeep": 6757,
      "Ġbounce": 6758,
      "Ġswitch": 6759,
      "06": 6760,
      "ĠGrant": 6761,
      "shire": 6762,
      "Ġstrikeouts": 6763,
      "Ġexplos": 6764,
      "Ġsemifinals": 6765,
      "CU": 6766,
      "las": 6767,
      "ĠAh": 6768,
      "Ġswim": 6769,
      "ĠExec": 6770,
      "Ġoccasions": 6771,
      "Ġrap": 6772,
      "Ġbrain": 6773,
      "ĠScottish": 6774,
      "nastics": 6775,
      "Ġpromote": 6776,
      "lied": 6777,
      "iece": 6778,
      "Ġorganizations": 6779,
      "iny": 6780,
      "Ġresources": 6781,
      "ĠParker": 6782,
      "ĠCraig": 6783,
      "59": 6784,
      "ĠAwards": 6785,
      "ĠKO": 6786,
      "Ġviewers": 6787,
      "Ġfilled": 6788,
      "Ġregularly": 6789,
      "Ġconnection": 6790,
      "ĠTurner": 6791,
      "ensity": 6792,
      "ĠIndy": 6793,
      "anchez": 6794,
      "Ġmatters": 6795,
      "akh": 6796,
      "ĠVis": 6797,
      "ĠBY": 6798,
      "Ġatmosp": 6799,
      "hol": 6800,
      "Ġreact": 6801,
      "Ġaccident": 6802,
      "Ġmaximum": 6803,
      "Ġerror": 6804,
      "ĠWimb": 6805,
      "Ġstress": 6806,
      "Ġclassic": 6807,
      "oa": 6808,
      "ĠCare": 6809,
      "ĠManning": 6810,
      "atically": 6811,
      "Ġheavyweight": 6812,
      "ĠCry": 6813,
      "Ġcharged": 6814,
      "ĠDiamond": 6815,
      "orses": 6816,
      "Ġconnected": 6817,
      "Ġetc": 6818,
      "Ġclasses": 6819,
      "Ġcornerback": 6820,
      "Ġtip": 6821,
      "Ġriding": 6822,
      "Ġharder": 6823,
      "ĠDevelopment": 6824,
      "lam": 6825,
      "ĠNEW": 6826,
      "Ġshouldn": 6827,
      "Ġcentury": 6828,
      "Ġsurrounding": 6829,
      "Con": 6830,
      "ĠSaud": 6831,
      "anna": 6832,
      "ĠDu": 6833,
      "ĠPortland": 6834,
      "Ġcrash": 6835,
      "ĠAk": 6836,
      "incip": 6837,
      "cts": 6838,
      "dles": 6839,
      "ĠTitle": 6840,
      "court": 6841,
      "Ġlab": 6842,
      "Ġseeking": 6843,
      "Ġpieces": 6844,
      "Ġeligible": 6845,
      "porate": 6846,
      "owned": 6847,
      "ledon": 6848,
      "EST": 6849,
      "orious": 6850,
      "Ġdesper": 6851,
      "ĠPhoto": 6852,
      "ĠGarcia": 6853,
      "sych": 6854,
      "esliga": 6855,
      "Mar": 6856,
      "oom": 6857,
      "__": 6858,
      "Ġlanded": 6859,
      "lock": 6860,
      "ĠSanchez": 6861,
      "ĠProgram": 6862,
      "ĠRecord": 6863,
      "owing": 6864,
      "Ġsecret": 6865,
      "ĠSwit": 6866,
      "okovic": 6867,
      "athletes": 6868,
      "ĠTal": 6869,
      "Ġrelatively": 6870,
      "Ġenhance": 6871,
      "ĠPortugal": 6872,
      "Ġpride": 6873,
      "UT": 6874,
      "Ġlad": 6875,
      "Ġcancer": 6876,
      "Ġdeficit": 6877,
      "Ġweekly": 6878,
      "Ġlegendary": 6879,
      "ĠMour": 6880,
      "ĠBud": 6881,
      "acks": 6882,
      "ccane": 6883,
      "Ġimmediate": 6884,
      "Ġruled": 6885,
      "Ġreputation": 6886,
      "born": 6887,
      "ĠMurphy": 6888,
      "ĠKam": 6889,
      "Ġknockout": 6890,
      "Ġsuit": 6891,
      "Ar": 6892,
      "Ġdress": 6893,
      "Ġ59": 6894,
      "Ġissued": 6895,
      "Ġsponsor": 6896,
      "ĠSlam": 6897,
      "otes": 6898,
      "ĠIsrael": 6899,
      "ĠJapanese": 6900,
      "Ġcontender": 6901,
      "Ġspark": 6902,
      "Ġactions": 6903,
      "Ġemployees": 6904,
      "Ġchannels": 6905,
      "Ġspokes": 6906,
      "Ġdownload": 6907,
      "Ġstatistics": 6908,
      "ĠSpeedway": 6909,
      "ĠMiddle": 6910,
      "Ġupdate": 6911,
      "ĠRoger": 6912,
      "ĠBoys": 6913,
      "ĠMissouri": 6914,
      "Ġitems": 6915,
      "ĠFle": 6916,
      "ĠJour": 6917,
      "herlands": 6918,
      "Ġgrade": 6919,
      "Ġwonderful": 6920,
      "ĠSilva": 6921,
      "Ġnegative": 6922,
      "Ġvacc": 6923,
      "ailed": 6924,
      "Ġspeaking": 6925,
      "Ġintense": 6926,
      "Ġattendance": 6927,
      "Ġouts": 6928,
      "57": 6929,
      "Ġbod": 6930,
      "oche": 6931,
      "Ġdrink": 6932,
      "Ġquiet": 6933,
      "Ġatmosphere": 6934,
      "Ġemerged": 6935,
      "rated": 6936,
      "Ġyellow": 6937,
      "ĠHand": 6938,
      "Ġhitter": 6939,
      "ĠCrist": 6940,
      "56": 6941,
      "ĠJamie": 6942,
      "ĠDjokovic": 6943,
      "Ġtouc": 6944,
      "ĠWhich": 6945,
      "Ġmanagers": 6946,
      "ĠRodriguez": 6947,
      "Ġtests": 6948,
      "Ġcast": 6949,
      "ĠBucks": 6950,
      "umber": 6951,
      "Ġexam": 6952,
      "Ġsmaller": 6953,
      "ĠMartinez": 6954,
      "ĠSel": 6955,
      "Ġbusy": 6956,
      "ĠBruce": 6957,
      "ĠOK": 6958,
      "Ġdog": 6959,
      "ĠâĢĿ": 6960,
      "anger": 6961,
      "Ġsaved": 6962,
      "ĠLion": 6963,
      "aint": 6964,
      "Ġlongest": 6965,
      "low": 6966,
      "Ġdad": 6967,
      "Ġteen": 6968,
      "ĠSpart": 6969,
      "ĠMarshall": 6970,
      "ĠChair": 6971,
      "Ġacce": 6972,
      "annel": 6973,
      "ĠCollins": 6974,
      "ĠArch": 6975,
      "ĠWind": 6976,
      "ĠWimbledon": 6977,
      "Ġneck": 6978,
      "Ġawesome": 6979,
      "ĠRoll": 6980,
      "ĠRadio": 6981,
      "Ġprotection": 6982,
      "Ġreaction": 6983,
      "anged": 6984,
      "Ġcourses": 6985,
      "ippers": 6986,
      "Ġign": 6987,
      "ĠNigeria": 6988,
      "43": 6989,
      "cont": 6990,
      "quarter": 6991,
      "ĠPlus": 6992,
      "ĠBuccane": 6993,
      "ĠWeb": 6994,
      "Ġseparate": 6995,
      "41": 6996,
      "ĠAz": 6997,
      "Sport": 6998,
      "Ġhook": 6999,
      "ĠSimon": 7000,
      "ĠCurry": 7001,
      "iy": 7002,
      "Ġinaug": 7003,
      "Ġanalyst": 7004,
      "isc": 7005,
      "ader": 7006,
      "Ġkilled": 7007,
      "Ġbaseman": 7008,
      "Ġrecognized": 7009,
      "Ġcheer": 7010,
      "Ġsun": 7011,
      "Ġ69": 7012,
      "ĠPrice": 7013,
      "ĠSweden": 7014,
      "ĠArkansas": 7015,
      "RI": 7016,
      "Ġsouth": 7017,
      "icing": 7018,
      "ĠJerem": 7019,
      "Ġnomin": 7020,
      "Ġweap": 7021,
      "Ġalleg": 7022,
      "Ġinstall": 7023,
      "Ġmotor": 7024,
      "ĠIII": 7025,
      "Ġkeeper": 7026,
      "encing": 7027,
      "ĠElite": 7028,
      "iola": 7029,
      "Ġdynamic": 7030,
      "Ġunless": 7031,
      "Ġupdated": 7032,
      "Ġbare": 7033,
      "ĠOnt": 7034,
      "nect": 7035,
      "Ġfunding": 7036,
      "ĠMunich": 7037,
      "Ġcalendar": 7038,
      "ĠGym": 7039,
      "works": 7040,
      "opyright": 7041,
      "Ġupper": 7042,
      "Ġprime": 7043,
      "Bet": 7044,
      "Ġir": 7045,
      "Ġcontr": 7046,
      "Ġblocked": 7047,
      "Ġappropri": 7048,
      "Ġviews": 7049,
      "Ġshirts": 7050,
      "ĠKl": 7051,
      "Ġarch": 7052,
      "Ġthinks": 7053,
      "ĠOfficial": 7054,
      "can": 7055,
      "Ġsil": 7056,
      "Ġcontracts": 7057,
      "Ġclosely": 7058,
      "esy": 7059,
      "ĠLim": 7060,
      "Ġmillions": 7061,
      "ĠFul": 7062,
      "Ġenjoying": 7063,
      "ĠSaudi": 7064,
      "Ġfle": 7065,
      "ĠTar": 7066,
      "ĠCS": 7067,
      "Ġadds": 7068,
      "Ġpremier": 7069,
      "Ġcities": 7070,
      "Ġemotional": 7071,
      "Ġupgr": 7072,
      "Ġgonna": 7073,
      "ĠBilly": 7074,
      "ĠBusiness": 7075,
      "string": 7076,
      "Ġtransform": 7077,
      "ĠMagic": 7078,
      "itting": 7079,
      "ĠMcI": 7080,
      "ĠSet": 7081,
      "Ġcode": 7082,
      "ĠRaf": 7083,
      "cott": 7084,
      "Ġhearing": 7085,
      "ĠLiga": 7086,
      "ĠBradley": 7087,
      "ĠBundesliga": 7088,
      "Ġvice": 7089,
      "Ġsending": 7090,
      "ĠTro": 7091,
      "Ġcircumstances": 7092,
      "Ã¢": 7093,
      "ĠWr": 7094,
      "Ġjoint": 7095,
      "Ġbooks": 7096,
      "ĠCovid": 7097,
      "Ġbunch": 7098,
      "imated": 7099,
      "ĠTechn": 7100,
      "Ġrequires": 7101,
      "Ġversat": 7102,
      "Ġcold": 7103,
      "airs": 7104,
      "ao": 7105,
      "Ġultimate": 7106,
      "gency": 7107,
      "azine": 7108,
      "Ġlangu": 7109,
      "ĠLuk": 7110,
      "Ġprest": 7111,
      "Ġimpossible": 7112,
      "ĠAtlantic": 7113,
      "ĠHarrison": 7114,
      "ĠExecutive": 7115,
      "GP": 7116,
      "ĠJar": 7117,
      "ĠKick": 7118,
      "âĤ¬": 7119,
      "Ġsubsequ": 7120,
      "don": 7121,
      "Ġgre": 7122,
      "ateful": 7123,
      "Ġcontinuing": 7124,
      "Ġmission": 7125,
      "Ġminimum": 7126,
      "apping": 7127,
      "Ġreplica": 7128,
      "ĠTravis": 7129,
      "ĠMemorial": 7130,
      "ulting": 7131,
      "Ġfortun": 7132,
      "gio": 7133,
      "ĠWH": 7134,
      "Ġrelie": 7135,
      "Ġbowling": 7136,
      "acular": 7137,
      "ĠRic": 7138,
      "Ġchose": 7139,
      "Ġsuffering": 7140,
      "ĠNetherlands": 7141,
      "arth": 7142,
      "eting": 7143,
      "Ġstunning": 7144,
      "olds": 7145,
      "ĠBaker": 7146,
      "ĠShane": 7147,
      "Ġstandards": 7148,
      "Ġpropos": 7149,
      "itiz": 7150,
      "certain": 7151,
      "ĠMinister": 7152,
      "Ġplatforms": 7153,
      "ĠFlyers": 7154,
      "Ġter": 7155,
      "verse": 7156,
      "Ġanti": 7157,
      "Ġmale": 7158,
      "ĠSharks": 7159,
      "Ġtotally": 7160,
      "Ġ1998": 7161,
      "Ġder": 7162,
      "Ġregardless": 7163,
      "ĠHurric": 7164,
      "ĠPot": 7165,
      "ffic": 7166,
      "Ġ1999": 7167,
      "ĠAngels": 7168,
      "Ġchairman": 7169,
      "llo": 7170,
      "Ġ63": 7171,
      "Ġinspired": 7172,
      "ĠDefensive": 7173,
      "Ġwicket": 7174,
      "Ġ62": 7175,
      "02": 7176,
      "77": 7177,
      "aco": 7178,
      "owers": 7179,
      "pur": 7180,
      "ĠMake": 7181,
      "ĠFair": 7182,
      "ĠDere": 7183,
      "Ġvoice": 7184,
      "imal": 7185,
      "ĠNathan": 7186,
      "Ġpaying": 7187,
      "Ġdollars": 7188,
      "stal": 7189,
      "ĠRah": 7190,
      "ĠCharlie": 7191,
      "XT": 7192,
      "Ġopposing": 7193,
      "Ġarms": 7194,
      "chi": 7195,
      "ĠFire": 7196,
      "Br": 7197,
      "ILL": 7198,
      "ĠRub": 7199,
      "ansion": 7200,
      "Ġuses": 7201,
      "gus": 7202,
      "ĠJacksonville": 7203,
      "ĠFind": 7204,
      "Ġtext": 7205,
      "Ġpreview": 7206,
      "ĠDean": 7207,
      "Ġimagine": 7208,
      "Ġconvin": 7209,
      "hr": 7210,
      "ĠKey": 7211,
      "Ġappeal": 7212,
      "uter": 7213,
      "Ġbound": 7214,
      "ĠPut": 7215,
      "Ġretail": 7216,
      "Ġnorth": 7217,
      "ĠBrooks": 7218,
      "ĠBuccaneers": 7219,
      "GM": 7220,
      "ĠMain": 7221,
      "ĠSubs": 7222,
      "Ġmeasure": 7223,
      "agan": 7224,
      "Ġlarger": 7225,
      "pes": 7226,
      "ĠCath": 7227,
      "Ġawareness": 7228,
      "Ġrehab": 7229,
      "Ġagents": 7230,
      "Ġspectators": 7231,
      "vention": 7232,
      "Ġtells": 7233,
      "Ġseriously": 7234,
      "ĠCeltic": 7235,
      "yles": 7236,
      "iner": 7237,
      "Ġpreparing": 7238,
      "Ġcharity": 7239,
      "Ġopposite": 7240,
      "Ġguaranteed": 7241,
      "58": 7242,
      "ĠQuarter": 7243,
      "Ġovercome": 7244,
      "Ġpromising": 7245,
      "Ġvirtual": 7246,
      "Ġeth": 7247,
      "rol": 7248,
      "Ġprediction": 7249,
      "Ġproperty": 7250,
      "enger": 7251,
      "phis": 7252,
      "Ġflat": 7253,
      "ĠLaure": 7254,
      "Ġsuperb": 7255,
      "BO": 7256,
      "zech": 7257,
      "ĠMadison": 7258,
      "Ã¼": 7259,
      "Ġbackup": 7260,
      "ycle": 7261,
      "ĠSE": 7262,
      "Ġlinks": 7263,
      "ĠMason": 7264,
      "66": 7265,
      "xim": 7266,
      "rees": 7267,
      "Ġeffectively": 7268,
      "eniors": 7269,
      "ĠMack": 7270,
      "ĠDort": 7271,
      "izz": 7272,
      "ĠRef": 7273,
      "Ġlegacy": 7274,
      "Ġsan": 7275,
      "lla": 7276,
      "Ġpodcast": 7277,
      "ĠAmong": 7278,
      "ĠStanford": 7279,
      "Ġacquired": 7280,
      "Ġwra": 7281,
      "Ġreduce": 7282,
      "break": 7283,
      "Ġtail": 7284,
      "Ġstructure": 7285,
      "whel": 7286,
      "outing": 7287,
      "Ġsuperstar": 7288,
      "Ġaccepted": 7289,
      "HP": 7290,
      "Ġrein": 7291,
      "istol": 7292,
      "ĠVin": 7293,
      "Ġsolution": 7294,
      "ĠGirls": 7295,
      "ĠSomet": 7296,
      "Ġhomer": 7297,
      "Ġinterception": 7298,
      "enz": 7299,
      "iration": 7300,
      "Ġheader": 7301,
      "ĠBlake": 7302,
      "Ġlargely": 7303,
      "Ġcelebration": 7304,
      "etime": 7305,
      "Ġfollows": 7306,
      "athlon": 7307,
      "ĠDubai": 7308,
      "Ph": 7309,
      "Ġkit": 7310,
      "Ġideas": 7311,
      "ĠMourinho": 7312,
      "burn": 7313,
      "Ġuser": 7314,
      "ĠCommon": 7315,
      "lopp": 7316,
      "ĠLuis": 7317,
      "uster": 7318,
      "Ġowned": 7319,
      "Ġgolfers": 7320,
      "ĠCurrent": 7321,
      "bi": 7322,
      "gate": 7323,
      "ĠSon": 7324,
      "ĠRookie": 7325,
      "Ġfat": 7326,
      "Ġtrained": 7327,
      "hered": 7328,
      "idas": 7329,
      "Ġroles": 7330,
      "Ġexchange": 7331,
      "do": 7332,
      "oren": 7333,
      "alymp": 7334,
      "ĠAthletes": 7335,
      "lined": 7336,
      "ĠTerry": 7337,
      "ĠEddie": 7338,
      "Ġwhilst": 7339,
      "ĠUltim": 7340,
      "Ġremoved": 7341,
      "Ġdiscussion": 7342,
      "oming": 7343,
      "04": 7344,
      "Ġrecre": 7345,
      "Ġtrading": 7346,
      "ĠBrooklyn": 7347,
      "Ġsnow": 7348,
      "ĠLouisville": 7349,
      "ajors": 7350,
      "Ġlisten": 7351,
      "Ġrepresenting": 7352,
      "ĠSingh": 7353,
      "Ġsuggested": 7354,
      "Ġpole": 7355,
      "Ġarrival": 7356,
      "Ġdebate": 7357,
      "iveness": 7358,
      "otted": 7359,
      "Ġneither": 7360,
      "braska": 7361,
      "Ġmovie": 7362,
      "Ġjumped": 7363,
      "rosse": 7364,
      "League": 7365,
      "âĢĺ": 7366,
      "uer": 7367,
      "Ġbatters": 7368,
      "Ġshowcase": 7369,
      "ĠSimm": 7370,
      "Ġexisting": 7371,
      "ĠBelgium": 7372,
      "ĠLegend": 7373,
      "Ġpersonnel": 7374,
      "Ġflying": 7375,
      "ĠVol": 7376,
      "Ġcontests": 7377,
      "Ġ1990": 7378,
      "ĠOverall": 7379,
      "ĠAdditionally": 7380,
      "uj": 7381,
      "ato": 7382,
      "ĠGlobal": 7383,
      "Ġpock": 7384,
      "Ġinstruct": 7385,
      "ĠTodd": 7386,
      "nar": 7387,
      "ulous": 7388,
      "Ġsystems": 7389,
      "Ġtools": 7390,
      "ĠJa": 7391,
      "rah": 7392,
      "Ġtherefore": 7393,
      "irmingham": 7394,
      "Ġbullpen": 7395,
      "ĠNL": 7396,
      "Ġbelong": 7397,
      "Ġprofile": 7398,
      "Ġmemory": 7399,
      "Ġguarantee": 7400,
      "FF": 7401,
      "Ġstreet": 7402,
      "ĠLawrence": 7403,
      "ĠFel": 7404,
      "ĠBrun": 7405,
      "Ġanybody": 7406,
      "hess": 7407,
      "Ġjudge": 7408,
      "ĠDortmund": 7409,
      "ĠLes": 7410,
      "Ġinvited": 7411,
      "utr": 7412,
      "Ġheight": 7413,
      "Ġsettled": 7414,
      "Be": 7415,
      "ĠODI": 7416,
      "ĠSporting": 7417,
      "ĠRegional": 7418,
      "enth": 7419,
      "Ġgraduate": 7420,
      "ĠGO": 7421,
      "Ġtrave": 7422,
      "power": 7423,
      "ĠBart": 7424,
      "ological": 7425,
      "ippi": 7426,
      "pan": 7427,
      "NA": 7428,
      "Ġcontribute": 7429,
      "Ġbettors": 7430,
      "Ġstation": 7431,
      "abilities": 7432,
      "Ġphysically": 7433,
      "ĠRockets": 7434,
      "ĠMotor": 7435,
      "Ġexceptional": 7436,
      "ĠJer": 7437,
      "Ġshortly": 7438,
      "ĠCase": 7439,
      "igue": 7440,
      "Ġinstant": 7441,
      "ĠParalymp": 7442,
      "ĠPerhaps": 7443,
      "Ġoutdoor": 7444,
      "IR": 7445,
      "ĠKlopp": 7446,
      "Ġ71": 7447,
      "Ġyes": 7448,
      "ĠStaff": 7449,
      "ĠSouthampton": 7450,
      "Ġsomewhat": 7451,
      "Ġcreative": 7452,
      "Ġcatcher": 7453,
      "Ġeager": 7454,
      "Ġattitude": 7455,
      "Ġheavily": 7456,
      "level": 7457,
      "Ġamid": 7458,
      "bal": 7459,
      "vy": 7460,
      "Ġdur": 7461,
      "leton": 7462,
      "Ġparties": 7463,
      "Ġbreaks": 7464,
      "ĠMemphis": 7465,
      "TH": 7466,
      "with": 7467,
      "Ġhorses": 7468,
      "ĠHughes": 7469,
      "lets": 7470,
      "Ġstock": 7471,
      "Ġcourts": 7472,
      "Ġpromin": 7473,
      "Ġappreciate": 7474,
      "ĠFitz": 7475,
      "Ġinstit": 7476,
      "Ġlift": 7477,
      "ĠTrev": 7478,
      "Ġ77": 7479,
      "Ġacknowled": 7480,
      "cho": 7481,
      "ĠRut": 7482,
      "Ġapplication": 7483,
      "ĠCzech": 7484,
      "Ġabuse": 7485,
      "Ġspecifically": 7486,
      "Ġrequirements": 7487,
      "haw": 7488,
      "around": 7489,
      "Ġfavorites": 7490,
      "ĠMississ": 7491,
      "Ġstuck": 7492,
      "ighter": 7493,
      "letter": 7494,
      "Ġembr": 7495,
      "Ġdealing": 7496,
      "ĠElliott": 7497,
      "Ġbasically": 7498,
      "Ġfields": 7499,
      "ĠProv": 7500,
      "ĠEuropa": 7501,
      "goal": 7502,
      "ĠFOR": 7503,
      "Ġrestrictions": 7504,
      "nold": 7505,
      "inct": 7506,
      "Ġband": 7507,
      "Ġdropping": 7508,
      "Ġsteals": 7509,
      "Ġarticles": 7510,
      "Ġseats": 7511,
      "ĠDE": 7512,
      "Ġsharing": 7513,
      "Pro": 7514,
      "Ġcancell": 7515,
      "active": 7516,
      "ĠDa": 7517,
      "Ġconv": 7518,
      "ĠAle": 7519,
      "ĠWolf": 7520,
      "fast": 7521,
      "Ġsac": 7522,
      "rehens": 7523,
      "Ġbra": 7524,
      "Ġhired": 7525,
      "ĠMust": 7526,
      "ĠBM": 7527,
      "ĠDaw": 7528,
      "Ġwrite": 7529,
      "Ġmachine": 7530,
      "ĠCarr": 7531,
      "Ne": 7532,
      "Ġrely": 7533,
      "ĠGill": 7534,
      "ĠClay": 7535,
      "imination": 7536,
      "ĠWas": 7537,
      "Ġscre": 7538,
      "Ġtalents": 7539,
      "Ġresulted": 7540,
      "ĠProfessional": 7541,
      "54": 7542,
      "ĠChannel": 7543,
      "Ġsurely": 7544,
      "ĠRu": 7545,
      "ĠKhan": 7546,
      "Ġgather": 7547,
      "52": 7548,
      "opp": 7549,
      "ĠTem": 7550,
      "Ġcovering": 7551,
      "Ġcustomer": 7552,
      "Ġtemper": 7553,
      "ĠHenderson": 7554,
      "km": 7555,
      "ĠBiden": 7556,
      "Ġplacing": 7557,
      "tra": 7558,
      "Ġexit": 7559,
      "ails": 7560,
      "anka": 7561,
      "Ġfederal": 7562,
      "Ġefficient": 7563,
      "Ġinformed": 7564,
      "ĠAssociated": 7565,
      "Ġstrategies": 7566,
      "Ġvenues": 7567,
      "KE": 7568,
      "hard": 7569,
      "Ġrealize": 7570,
      "Ġaspect": 7571,
      "ĠCaval": 7572,
      "Ġrelegation": 7573,
      "Al": 7574,
      "Car": 7575,
      "aped": 7576,
      "Ġ61": 7577,
      "Ġlegit": 7578,
      "ENT": 7579,
      "Ġmilitary": 7580,
      "Ġturf": 7581,
      "Ġstruggles": 7582,
      "ĠLucas": 7583,
      "Ġbudget": 7584,
      "ora": 7585,
      "ĠLad": 7586,
      "Ġ(-": 7587,
      "ĠUCLA": 7588,
      "03": 7589,
      "hem": 7590,
      "ĠDerek": 7591,
      "mod": 7592,
      "itals": 7593,
      "Ġliter": 7594,
      "Ġassault": 7595,
      "Ġsuccessfully": 7596,
      "Ġcollegiate": 7597,
      "Ġinaugural": 7598,
      "ye": 7599,
      "oured": 7600,
      "Ġchase": 7601,
      "Ġcollected": 7602,
      "Ġsomebody": 7603,
      "plus": 7604,
      "Ġboards": 7605,
      "ĠClippers": 7606,
      "AG": 7607,
      "With": 7608,
      "ĠBrent": 7609,
      "Ġcris": 7610,
      "ĠCasino": 7611,
      "than": 7612,
      "Ġdelivery": 7613,
      "Ġtun": 7614,
      "Ġfoundation": 7615,
      "ĠXI": 7616,
      "ĠVictoria": 7617,
      "ĠNev": 7618,
      "ĠJuan": 7619,
      "ĠPerformance": 7620,
      "hent": 7621,
      "Ġpriority": 7622,
      "acrosse": 7623,
      "Ġsharp": 7624,
      "Ġnotable": 7625,
      "ĠNebraska": 7626,
      "Ġrecognition": 7627,
      "uably": 7628,
      "Ġcoin": 7629,
      "Ġrising": 7630,
      "Ġofficer": 7631,
      "Ġindoor": 7632,
      "Ġreceptions": 7633,
      "ĠRays": 7634,
      "Ġrub": 7635,
      "Ġmarathon": 7636,
      "Ġarguably": 7637,
      "Ġrepeated": 7638,
      "ĠGen": 7639,
      "Ġspan": 7640,
      "Ġdrawn": 7641,
      "ĠSerie": 7642,
      "ORE": 7643,
      "ronic": 7644,
      "ĠPR": 7645,
      "ĠFil": 7646,
      "Ġassociation": 7647,
      "ĠAj": 7648,
      "Ġappreci": 7649,
      "Ġconverted": 7650,
      "ĠGriffin": 7651,
      "ĠBour": 7652,
      "ĠCoaches": 7653,
      "Ġspectacular": 7654,
      "pet": 7655,
      "owed": 7656,
      "uma": 7657,
      "Ġvalues": 7658,
      "NT": 7659,
      "Ġslam": 7660,
      "Ġpossess": 7661,
      "shot": 7662,
      "AND": 7663,
      "ĠPSG": 7664,
      "iaz": 7665,
      "ented": 7666,
      "ERE": 7667,
      "ĠBaylor": 7668,
      "ĠApple": 7669,
      "Ġsemifinal": 7670,
      "ela": 7671,
      "Ġaffected": 7672,
      "Ġsum": 7673,
      "abled": 7674,
      "Ġworkouts": 7675,
      "Ġ1996": 7676,
      "Ġdiscussed": 7677,
      "ĠIsa": 7678,
      "ĠRBIs": 7679,
      "avier": 7680,
      "Ġinvolving": 7681,
      "Ġsoftball": 7682,
      "Ġmeasures": 7683,
      "ĠVideo": 7684,
      "Ġreserve": 7685,
      "51": 7686,
      "Ġelev": 7687,
      "ĠBirmingham": 7688,
      "Ġalive": 7689,
      "Ġsnap": 7690,
      "ĠSav": 7691,
      "ĠFurther": 7692,
      "ifted": 7693,
      "Ġtruth": 7694,
      "ĠBrett": 7695,
      "ĠNever": 7696,
      "ĠOm": 7697,
      "Ġuncertain": 7698,
      "ked": 7699,
      "Ġshift": 7700,
      "Ġfuel": 7701,
      "aters": 7702,
      "BL": 7703,
      "ĠHold": 7704,
      "ĠHave": 7705,
      "ĠOle": 7706,
      "ĠAND": 7707,
      "ĠFergus": 7708,
      "Ġprestigious": 7709,
      "CE": 7710,
      "ags": 7711,
      "iques": 7712,
      "Ġscheme": 7713,
      "bes": 7714,
      "free": 7715,
      "ĠKay": 7716,
      "Ġperfectly": 7717,
      "acts": 7718,
      "Ġrelay": 7719,
      "ĠHist": 7720,
      "Ġ73": 7721,
      "Ġcleared": 7722,
      "Ġattempted": 7723,
      "Ġmemories": 7724,
      "Ġelection": 7725,
      "Ġentirely": 7726,
      "Ġpopularity": 7727,
      "OUR": 7728,
      "Ġencourage": 7729,
      "ali": 7730,
      "shirt": 7731,
      "Ġtechnique": 7732,
      "lli": 7733,
      "ĠIM": 7734,
      "Ġrelax": 7735,
      "Ġforwards": 7736,
      "lastname": 7737,
      "fford": 7738,
      "ĠPeng": 7739,
      "Ġcareers": 7740,
      "ĠCre": 7741,
      "ĠPoint": 7742,
      "Ġherself": 7743,
      "Ġfailure": 7744,
      "ĠSanders": 7745,
      "ĠPrediction": 7746,
      "Ġarrested": 7747,
      "lad": 7748,
      "Ġbelief": 7749,
      "Ġthrilling": 7750,
      "ĠFederer": 7751,
      "Ġcommand": 7752,
      "Ġcelebrated": 7753,
      "Ġfairly": 7754,
      "Ġmembership": 7755,
      "Ġconcussion": 7756,
      "Ġvarsity": 7757,
      "Ġposting": 7758,
      "ĠRow": 7759,
      "Ġrad": 7760,
      "Ġhang": 7761,
      "Ġaside": 7762,
      "Ġperman": 7763,
      "ĠWhit": 7764,
      "ĠFOX": 7765,
      "Ġer": 7766,
      "achel": 7767,
      "Ġrus": 7768,
      "ĠSac": 7769,
      "Ġprotoc": 7770,
      "gun": 7771,
      "ĠSH": 7772,
      "ione": 7773,
      "Ġgrateful": 7774,
      "Ġelbow": 7775,
      "Ġinterviews": 7776,
      "ped": 7777,
      "ĠPalmer": 7778,
      "ĠMountain": 7779,
      "Ġeconomic": 7780,
      "??": 7781,
      "ĠList": 7782,
      "ĠLiber": 7783,
      "ĠNewton": 7784,
      "Ġindependent": 7785,
      "95": 7786,
      "Ġlaugh": 7787,
      "ĠEC": 7788,
      "rien": 7789,
      "Ġadop": 7790,
      "ĠQueens": 7791,
      "ĠShould": 7792,
      "Ġposts": 7793,
      "ĠPrince": 7794,
      "ĠGuardiola": 7795,
      "hander": 7796,
      "Ġsister": 7797,
      "ĠMississippi": 7798,
      "Ġreduced": 7799,
      "Ġattacks": 7800,
      "iership": 7801,
      "Ġmere": 7802,
      "Ġdeparture": 7803,
      "acking": 7804,
      "Ġnewsp": 7805,
      "zerland": 7806,
      "itational": 7807,
      "Ġaspects": 7808,
      "ĠJerry": 7809,
      "Ġvotes": 7810,
      "ĠPacific": 7811,
      "million": 7812,
      "ĠDurant": 7813,
      "Ġbought": 7814,
      "Ġrushed": 7815,
      "ĠReid": 7816,
      "Ġincor": 7817,
      "ĠNadal": 7818,
      "Ġtee": 7819,
      "ĠOd": 7820,
      "Ġtrio": 7821,
      "Ġexception": 7822,
      "base": 7823,
      "Ġtally": 7824,
      "asure": 7825,
      "Ġjobs": 7826,
      "Ġrivalry": 7827,
      "Ġmemorable": 7828,
      "ĠIOC": 7829,
      "ĠRapt": 7830,
      "ĠForce": 7831,
      "ĠEarlier": 7832,
      "Ġsprin": 7833,
      "bie": 7834,
      "Ġge": 7835,
      "bridge": 7836,
      "ĠJess": 7837,
      "breaking": 7838,
      "ĠSanta": 7839,
      "ernandez": 7840,
      "ĠAS": 7841,
      "ĠDick": 7842,
      "Ġauthorities": 7843,
      "enced": 7844,
      "eta": 7845,
      "Ġdeserved": 7846,
      "league": 7847,
      "ĠPoin": 7848,
      "Ġmechan": 7849,
      "ĠMarl": 7850,
      "Ġ85": 7851,
      "ĠTickets": 7852,
      "ĠSri": 7853,
      "Ġimpl": 7854,
      "Ġprofessionals": 7855,
      "uins": 7856,
      "Ġsprint": 7857,
      "due": 7858,
      "ĠGa": 7859,
      "Ġbi": 7860,
      "ĠDra": 7861,
      "Ġcriticism": 7862,
      "ĠCroat": 7863,
      "Ġcycl": 7864,
      "Ġnobody": 7865,
      "ĠHills": 7866,
      "ointed": 7867,
      "quez": 7868,
      "ĠKoh": 7869,
      "aley": 7870,
      "Ġachievement": 7871,
      "ĠStorm": 7872,
      "comes": 7873,
      "Ġgrabbed": 7874,
      "Ġbirthday": 7875,
      "gn": 7876,
      "imp": 7877,
      "ĠBat": 7878,
      "ĠWade": 7879,
      "iciency": 7880,
      "ĠNets": 7881,
      "ĠLane": 7882,
      "ĠJeremy": 7883,
      "onald": 7884,
      "ĠId": 7885,
      "ĠLIV": 7886,
      "Ġappropriate": 7887,
      "Un": 7888,
      "ĠGaming": 7889,
      "Ġmile": 7890,
      "utes": 7891,
      "ĠBC": 7892,
      "regor": 7893,
      "53": 7894,
      "leading": 7895,
      "Ġfirstname": 7896,
      "Ġloose": 7897,
      "Ġresume": 7898,
      "Ġphase": 7899,
      "resents": 7900,
      "Ġabilities": 7901,
      "ffield": 7902,
      "Ġ78": 7903,
      "related": 7904,
      "ĠGovern": 7905,
      "TE": 7906,
      "gie": 7907,
      "Ġlanding": 7908,
      "wear": 7909,
      "water": 7910,
      "Ġforth": 7911,
      "ĠNich": 7912,
      "Ġrematch": 7913,
      "Ġintent": 7914,
      "ĠQueen": 7915,
      "bast": 7916,
      "ending": 7917,
      "ĠExper": 7918,
      "ĠPhillips": 7919,
      "Ġwriter": 7920,
      "Ġgraph": 7921,
      "hentic": 7922,
      "ĠFerguson": 7923,
      "istance": 7924,
      "Ġconsult": 7925,
      "Ġexpecting": 7926,
      "Ġvoted": 7927,
      "âĢľ": 7928,
      "Ġcategories": 7929,
      "ĠKenny": 7930,
      "Ġhundreds": 7931,
      "lan": 7932,
      "ĠCore": 7933,
      "ĠRaj": 7934,
      "ĠRovers": 7935,
      "adesh": 7936,
      "avig": 7937,
      "Ġfinale": 7938,
      "ĠDoes": 7939,
      "chen": 7940,
      "gary": 7941,
      "ĠCA": 7942,
      "Ġconcept": 7943,
      "Ġstandout": 7944,
      "Ġsquare": 7945,
      "brook": 7946,
      "Ġrestaur": 7947,
      "Ġforg": 7948,
      "ĠBab": 7949,
      "ĠHernandez": 7950,
      "Ġextensive": 7951,
      "ĠDrag": 7952,
      "Ġpictures": 7953,
      "Ġadapt": 7954,
      "Ġreliable": 7955,
      "Ġ74": 7956,
      "ĠPlaying": 7957,
      "ĠLeonard": 7958,
      "Ġgrid": 7959,
      "wa": 7960,
      "ivil": 7961,
      "ĠLeaf": 7962,
      "Ġcert": 7963,
      "teen": 7964,
      "Ġjoins": 7965,
      "Ġsolo": 7966,
      "ĠCody": 7967,
      "ĠAy": 7968,
      "Ġserves": 7969,
      "Ġseemingly": 7970,
      "Ġrecovered": 7971,
      "erth": 7972,
      "ĠAlv": 7973,
      "ĠLarry": 7974,
      "Ġreigning": 7975,
      "ogan": 7976,
      "azon": 7977,
      "Ġconstantly": 7978,
      "Ġpostponed": 7979,
      "utrition": 7980,
      "Ġdates": 7981,
      "ĠMoto": 7982,
      "ĠBuck": 7983,
      "ĠWater": 7984,
      "oked": 7985,
      "Ġhadn": 7986,
      "Ġdiscipline": 7987,
      "ĠJournal": 7988,
      "ĠCa": 7989,
      "ĠUA": 7990,
      "ĠPerez": 7991,
      "Ġfou": 7992,
      "ĠCoug": 7993,
      "Ġjoy": 7994,
      "ĠImages": 7995,
      "inity": 7996,
      "Ġpsych": 7997,
      "ĠPod": 7998,
      "Ġconcent": 7999,
      "ĠBroad": 8000,
      "Ġacademic": 8001,
      "ĠSU": 8002,
      "ĠHonda": 8003,
      "oga": 8004,
      "ogle": 8005,
      "Ġrepresents": 8006,
      "Ġinfield": 8007,
      "ĠCape": 8008,
      "Ġprofit": 8009,
      "ĠJoshua": 8010,
      "ĠMaur": 8011,
      "ĠCirc": 8012,
      "rove": 8013,
      "ĠStock": 8014,
      "ĠBrighton": 8015,
      "ĠJohnny": 8016,
      "Ġsoftware": 8017,
      "anim": 8018,
      "cluding": 8019,
      "Ġrelevant": 8020,
      "Ġpayment": 8021,
      "Ġbusinesses": 8022,
      "ĠÂ·": 8023,
      "Ġsne": 8024,
      "ĠRh": 8025,
      "Ġregistration": 8026,
      "ĠBarry": 8027,
      "Ġstrikes": 8028,
      "ijing": 8029,
      "Ġwithdraw": 8030,
      "ĠToy": 8031,
      "ĠCavaliers": 8032,
      "SW": 8033,
      "sports": 8034,
      "Ġscoreless": 8035,
      "wr": 8036,
      "Ġlux": 8037,
      "ĠWes": 8038,
      "ĠEqu": 8039,
      "ĠSheffield": 8040,
      "Ġsexual": 8041,
      "ĠRaptors": 8042,
      "96": 8043,
      "Ġmir": 8044,
      "emen": 8045,
      "ĠOrig": 8046,
      "ĠSwitzerland": 8047,
      "300": 8048,
      "ĠThor": 8049,
      "alen": 8050,
      "Ġasp": 8051,
      "ĠGP": 8052,
      "Ġgrown": 8053,
      "Ġhandic": 8054,
      "ĠAdrian": 8055,
      "ĠÂ©": 8056,
      "then": 8057,
      "Ġcontenders": 8058,
      "ximately": 8059,
      "Ġdefeating": 8060,
      "ĠCaptain": 8061,
      "Ġhung": 8062,
      "Ġhomers": 8063,
      "ĠMaver": 8064,
      "Ġforces": 8065,
      "Ġloves": 8066,
      "ĠMarathon": 8067,
      "Ġcompens": 8068,
      "Ġmanaging": 8069,
      "Ġdance": 8070,
      "Ġdark": 8071,
      "ĠMans": 8072,
      "ctors": 8073,
      "umper": 8074,
      "Ġ150": 8075,
      "wan": 8076,
      "Ġphen": 8077,
      "Ġreporter": 8078,
      "Ġconclusion": 8079,
      "mpire": 8080,
      "oken": 8081,
      "ĠGhana": 8082,
      "oz": 8083,
      "wealth": 8084,
      "Ġtrail": 8085,
      "Ġtast": 8086,
      "Ġcaut": 8087,
      "ĠDayton": 8088,
      "ĠRedskins": 8089,
      "Ġlone": 8090,
      "eline": 8091,
      "idelines": 8092,
      "ĠPublic": 8093,
      "ĠLear": 8094,
      "ĠConnor": 8095,
      "jected": 8096,
      "Ġrenew": 8097,
      "ĠPrime": 8098,
      "Ġallegations": 8099,
      "ĠGi": 8100,
      "ĠOtt": 8101,
      "redit": 8102,
      "Ġ1980": 8103,
      "Ġsettle": 8104,
      "Ġouting": 8105,
      "inder": 8106,
      "Ġbasket": 8107,
      "ikes": 8108,
      "Ġpersonally": 8109,
      "een": 8110,
      "uine": 8111,
      "ĠDream": 8112,
      "Ġtracks": 8113,
      "astr": 8114,
      "istant": 8115,
      "opez": 8116,
      "ĠCompany": 8117,
      "ige": 8118,
      "Ġofficers": 8119,
      "Ġrebuild": 8120,
      "Ġliked": 8121,
      "ĠOilers": 8122,
      "Ġcomple": 8123,
      "Ġassum": 8124,
      "Ġclaiming": 8125,
      "Ġpunt": 8126,
      "ĠIT": 8127,
      "Ġconsistency": 8128,
      "Ġcamera": 8129,
      "Ġstops": 8130,
      "Ġdepending": 8131,
      "gment": 8132,
      "western": 8133,
      "ĠAbd": 8134,
      "Ġattending": 8135,
      "ĠBennett": 8136,
      "ĠCho": 8137,
      "Ġzero": 8138,
      "Ġworkers": 8139,
      "Ġphil": 8140,
      "rehensive": 8141,
      "Ġselling": 8142,
      "olas": 8143,
      "ĠChad": 8144,
      "Ġempt": 8145,
      "ĠEmirates": 8146,
      "Ġbodies": 8147,
      "ĠFund": 8148,
      "igns": 8149,
      "ibilities": 8150,
      "Ġapproved": 8151,
      "Ġconceded": 8152,
      "ĠNashville": 8153,
      "USA": 8154,
      "fers": 8155,
      "Ġ(+": 8156,
      "Ġgloves": 8157,
      "mate": 8158,
      "ĠVen": 8159,
      "ĠBeijing": 8160,
      "ĠTwins": 8161,
      "Ġsumm": 8162,
      "Ġnecessarily": 8163,
      "Ġpromise": 8164,
      "Ġreporting": 8165,
      "ICK": 8166,
      "HS": 8167,
      "Ġseniors": 8168,
      "orry": 8169,
      "ĠRad": 8170,
      "Ġforeign": 8171,
      "Ġcolumn": 8172,
      "DS": 8173,
      "ĠTrafford": 8174,
      "yan": 8175,
      "ĠEveryone": 8176,
      "esides": 8177,
      "Ġages": 8178,
      "Ġ82": 8179,
      "Ġtraffic": 8180,
      "Ġglad": 8181,
      "ĠFinally": 8182,
      "Ġbanned": 8183,
      "tender": 8184,
      "Ġdefenseman": 8185,
      "ĠHarv": 8186,
      "ĠCalgary": 8187,
      "ouch": 8188,
      "ĠLife": 8189,
      "Ġnewly": 8190,
      "Ġexpansion": 8191,
      "Ġconcluded": 8192,
      "ĠOrioles": 8193,
      "zes": 8194,
      "aders": 8195,
      "ĠAlan": 8196,
      "Ġexpensive": 8197,
      "Ġpunch": 8198,
      "Ġtap": 8199,
      "Ġgift": 8200,
      "ĠCourse": 8201,
      "ĠAD": 8202,
      "ĠKal": 8203,
      "Ġprincip": 8204,
      "Ġski": 8205,
      "ĠSuns": 8206,
      "Ġparticipated": 8207,
      "seeded": 8208,
      "earch": 8209,
      "Ġprices": 8210,
      "Ġguests": 8211,
      "Ġkicking": 8212,
      "Ġdetermination": 8213,
      "monton": 8214,
      "ĠMichel": 8215,
      "Ġdedication": 8216,
      "ĠWelsh": 8217,
      "ito": 8218,
      "âĢĻ,": 8219,
      "ĠWings": 8220,
      "Ġraced": 8221,
      "Ġregulation": 8222,
      "Ġsupply": 8223,
      "ĠInj": 8224,
      "Ġmanner": 8225,
      "ĠPeters": 8226,
      "five": 8227,
      "Ġhus": 8228,
      "Ġmouth": 8229,
      "ĠGiven": 8230,
      "appe": 8231,
      "keyes": 8232,
      "Ġdrives": 8233,
      "ĠColumbus": 8234,
      "ÃĤÃĤ": 8235,
      "Ġrapid": 8236,
      "Ġsits": 8237,
      "Ġimages": 8238,
      "Ġerrors": 8239,
      "RC": 8240,
      "ika": 8241,
      "ĠKeith": 8242,
      "Ġcaptured": 8243,
      "ĠJenn": 8244,
      "Ġprotest": 8245,
      "Ġpanel": 8246,
      "ĠBrewers": 8247,
      "ĠMumb": 8248,
      "Ġshall": 8249,
      "Ġunion": 8250,
      "strong": 8251,
      "GB": 8252,
      "ĠCob": 8253,
      "ĠReed": 8254,
      "ĠBrock": 8255,
      "Ġdiagn": 8256,
      "Te": 8257,
      "eb": 8258,
      "orney": 8259,
      "aple": 8260,
      "Ġincome": 8261,
      "Ġintensity": 8262,
      "ashes": 8263,
      "ĠAld": 8264,
      "ĠAud": 8265,
      "ĠBark": 8266,
      "Ġresidents": 8267,
      "Ġdeserve": 8268,
      "icine": 8269,
      "ĠKobe": 8270,
      "Ġoverse": 8271,
      "weather": 8272,
      "Ġanyway": 8273,
      "Ġidentity": 8274,
      "Ġpremium": 8275,
      "Ġdramatic": 8276,
      "orge": 8277,
      "ĠSter": 8278,
      "ĠClar": 8279,
      "Ġapolog": 8280,
      "Ġmotion": 8281,
      "Ġaccurate": 8282,
      "Ġace": 8283,
      "atures": 8284,
      "Ġtransport": 8285,
      "Ġaccomplished": 8286,
      "ĠMT": 8287,
      "ĠMach": 8288,
      "ĠYeah": 8289,
      "avor": 8290,
      "ĠOrange": 8291,
      "Ġvehicle": 8292,
      "wick": 8293,
      "Ġeditor": 8294,
      "Ġmuscles": 8295,
      "ĠMcGregor": 8296,
      "ĠInvitational": 8297,
      "Ġanticipated": 8298,
      "ht": 8299,
      "una": 8300,
      "ĠIts": 8301,
      "ante": 8302,
      "ĠShan": 8303,
      "pointers": 8304,
      "ĠOntario": 8305,
      "Ġ''": 8306,
      "Ġcourtesy": 8307,
      "racuse": 8308,
      "ĠDill": 8309,
      "uments": 8310,
      "ĠColin": 8311,
      "ĠBrend": 8312,
      "Ġviolence": 8313,
      "Ġrepeat": 8314,
      "ĠLopez": 8315,
      "Ġindeed": 8316,
      "iversary": 8317,
      "Ġsacr": 8318,
      "ĠShort": 8319,
      "Ġterrit": 8320,
      "Ġapparently": 8321,
      "ĠBah": 8322,
      "Ġcontinu": 8323,
      "ucker": 8324,
      "ĠCruz": 8325,
      "Ġdeposit": 8326,
      "Ġcutting": 8327,
      "ĠPenguins": 8328,
      "ĠSever": 8329,
      "ĠCatholic": 8330,
      "ĠCommonwealth": 8331,
      "sa": 8332,
      "Ġ1994": 8333,
      "Ġmodels": 8334,
      "Ġthrilled": 8335,
      "ĠCosta": 8336,
      "Ġstadiums": 8337,
      "Ġsubstitute": 8338,
      "making": 8339,
      "Ġbul": 8340,
      "Ġbarely": 8341,
      "ĠSA": 8342,
      "idd": 8343,
      "ĠRegion": 8344,
      "ography": 8345,
      "illeg": 8346,
      "iants": 8347,
      "Ġdefensively": 8348,
      "Ġensuring": 8349,
      "ĠPrior": 8350,
      "Ġlineman": 8351,
      "ifts": 8352,
      "ĠBristol": 8353,
      "Ġpromoted": 8354,
      "Ġlightweight": 8355,
      "uy": 8356,
      "tery": 8357,
      "Ġregulations": 8358,
      "Ġglory": 8359,
      "ĠSouthe": 8360,
      "law": 8361,
      "ĠFro": 8362,
      "formation": 8363,
      "ĠFresh": 8364,
      "ĠExt": 8365,
      "Ġovert": 8366,
      "ĠArmy": 8367,
      "ĠCrystal": 8368,
      "ĠCab": 8369,
      "Ġfiled": 8370,
      "war": 8371,
      "bley": 8372,
      "Ġaccused": 8373,
      "Ġmand": 8374,
      "Ġmajors": 8375,
      "ĠTs": 8376,
      "Ġcontention": 8377,
      "ograp": 8378,
      "inated": 8379,
      "ownt": 8380,
      "Ġ(.": 8381,
      "icted": 8382,
      "Ġintrig": 8383,
      "tz": 8384,
      "ĠKingdom": 8385,
      "ĠMcLaren": 8386,
      "VER": 8387,
      "Ġstint": 8388,
      "Ġunderway": 8389,
      "Ġcounty": 8390,
      "ĠJudge": 8391,
      "ĠAtlet": 8392,
      "Ġsmooth": 8393,
      "ĠStef": 8394,
      "ĠPete": 8395,
      "Ġcalm": 8396,
      "ĠEsports": 8397,
      "ĠCristiano": 8398,
      "67": 8399,
      "bane": 8400,
      "mans": 8401,
      "Ġlived": 8402,
      "odes": 8403,
      "Ġadministration": 8404,
      "Play": 8405,
      "Ġopens": 8406,
      "ĠJoel": 8407,
      "ometown": 8408,
      "lessly": 8409,
      "ĠLynch": 8410,
      "Ġeliminated": 8411,
      "ĠNevada": 8412,
      "rat": 8413,
      "illo": 8414,
      "istle": 8415,
      "Ġpeak": 8416,
      "ĠOffice": 8417,
      "Ġpattern": 8418,
      "Ġgenuine": 8419,
      "ĠEduc": 8420,
      "Ġshares": 8421,
      "ĠConnect": 8422,
      "Ġengage": 8423,
      "Ġhusband": 8424,
      "Ġpen": 8425,
      "ĠTed": 8426,
      "ĠHop": 8427,
      "Ġyoungest": 8428,
      "ĠObviously": 8429,
      "Ġlanguage": 8430,
      "onso": 8431,
      "asters": 8432,
      "roid": 8433,
      "Ġrich": 8434,
      "ĠLuck": 8435,
      "ĠEdmonton": 8436,
      "ĠCraw": 8437,
      "road": 8438,
      "Ġacademy": 8439,
      "Ġmatchups": 8440,
      "auer": 8441,
      "ĠHusk": 8442,
      "Ġrear": 8443,
      "Ġendurance": 8444,
      "Ġbasic": 8445,
      "Ġclients": 8446,
      "lington": 8447,
      "Ġachievements": 8448,
      "kg": 8449,
      "Ġaf": 8450,
      "ĠCON": 8451,
      "ĠRaw": 8452,
      "olfer": 8453,
      "Ġdevice": 8454,
      "ĠTrevor": 8455,
      "ĠPC": 8456,
      "Ġlegisl": 8457,
      "Ġelements": 8458,
      "ih": 8459,
      "ifting": 8460,
      "Ġoutfit": 8461,
      "Ġownership": 8462,
      "Ġexplain": 8463,
      "Ġwidely": 8464,
      "ĠOliver": 8465,
      "Ġterrible": 8466,
      "SE": 8467,
      "Ġstroke": 8468,
      "ĠVice": 8469,
      "Ġcomplic": 8470,
      "Ġmound": 8471,
      "Ġclim": 8472,
      "ĠYam": 8473,
      "ĠMahomes": 8474,
      "65": 8475,
      "ĠHig": 8476,
      "Ġmode": 8477,
      "400": 8478,
      "bin": 8479,
      "Ġhandful": 8480,
      "ĠProm": 8481,
      "Ġdraws": 8482,
      "89": 8483,
      "mo": 8484,
      "ĠBon": 8485,
      "ĠPP": 8486,
      "rance": 8487,
      "irty": 8488,
      "Ġproced": 8489,
      "ellar": 8490,
      "scoring": 8491,
      "Ġvast": 8492,
      "ailing": 8493,
      "ĠNeil": 8494,
      "ĠSyracuse": 8495,
      "ĠContin": 8496,
      "SN": 8497,
      "cks": 8498,
      "ĠRud": 8499,
      "ĠFury": 8500,
      "ivan": 8501,
      "ĠFamily": 8502,
      "ĠInf": 8503,
      "Ġseek": 8504,
      "ĠSportsbook": 8505,
      "Ġpointed": 8506,
      "Ġproperly": 8507,
      "Ġ=": 8508,
      "agger": 8509,
      "ĠWolver": 8510,
      "ĠQuinn": 8511,
      "rate": 8512,
      "Ġgiant": 8513,
      "Ġfootballer": 8514,
      "ĠWithout": 8515,
      "Ġcatching": 8516,
      "Ġmotivation": 8517,
      "Bl": 8518,
      "ĠPear": 8519,
      "Ġbacked": 8520,
      "Ġperforming": 8521,
      "prof": 8522,
      "Ġpoker": 8523,
      "Ġcalc": 8524,
      "Ġoccurred": 8525,
      "riel": 8526,
      "ĠRash": 8527,
      "Ġpassionate": 8528,
      "Ġgamers": 8529,
      "two": 8530,
      "ĠTalk": 8531,
      "ĠNC": 8532,
      "ĠVolleyball": 8533,
      "Ġfees": 8534,
      "ĠRey": 8535,
      "Ġcarrying": 8536,
      "Ġvent": 8537,
      "Ġcompleting": 8538,
      "85": 8539,
      "ror": 8540,
      "Ġhar": 8541,
      "ression": 8542,
      "Ġties": 8543,
      "ĠCL": 8544,
      "ĠPerson": 8545,
      "itect": 8546,
      "Ġempty": 8547,
      "ĠAp": 8548,
      "Ġrolling": 8549,
      "ĠDarren": 8550,
      "Ġups": 8551,
      "Ġapproximately": 8552,
      "Ġhall": 8553,
      "ĠSergio": 8554,
      "Ġentertaining": 8555,
      "Ġcance": 8556,
      "Ġsymb": 8557,
      "Ġtreated": 8558,
      "iti": 8559,
      "ĠNOT": 8560,
      "ĠPoints": 8561,
      "ĠICC": 8562,
      "Ġskipper": 8563,
      "ĠOrgan": 8564,
      "%.": 8565,
      "aser": 8566,
      "ghan": 8567,
      "Ġpulling": 8568,
      "ĠAshley": 8569,
      "Ġdreams": 8570,
      "ĠDennis": 8571,
      "ducing": 8572,
      "ĠAmazon": 8573,
      "Ġexplosive": 8574,
      "Ġlocked": 8575,
      "Ġbeach": 8576,
      "oln": 8577,
      "Ġshop": 8578,
      "ĠUl": 8579,
      "Ġoverwhel": 8580,
      "Ġdrama": 8581,
      "Â®": 8582,
      "ĠCC": 8583,
      "ĠRiley": 8584,
      "ĠLi": 8585,
      "ĠChild": 8586,
      "cow": 8587,
      "ĠWag": 8588,
      "Ġunve": 8589,
      "Ġdrills": 8590,
      "Ġsportsbooks": 8591,
      "equ": 8592,
      "hour": 8593,
      "Ġmatched": 8594,
      "Ġalum": 8595,
      "Ġ1997": 8596,
      "69": 8597,
      "Ġanymore": 8598,
      "Ġtribut": 8599,
      "Ġinnovative": 8600,
      "Tr": 8601,
      "ext": 8602,
      "Ġworried": 8603,
      "Ġcelebrating": 8604,
      "Ġsnaps": 8605,
      "Ġgoverning": 8606,
      "ĠKennedy": 8607,
      "encer": 8608,
      "ustin": 8609,
      "Ġlocations": 8610,
      "Ġorganized": 8611,
      "Ġhonored": 8612,
      "ĠSPOR": 8613,
      "ensions": 8614,
      "Ġsevere": 8615,
      "Ġrecall": 8616,
      "Ġunanim": 8617,
      "ovan": 8618,
      "Ã¶": 8619,
      "front": 8620,
      "placed": 8621,
      "ĠLooking": 8622,
      "pointer": 8623,
      "aire": 8624,
      "second": 8625,
      "ĠLouisiana": 8626,
      "Ġgrip": 8627,
      "ĠLanka": 8628,
      "ĠKong": 8629,
      "eps": 8630,
      "Ġhitters": 8631,
      "Ġturnover": 8632,
      "Ġamongst": 8633,
      "ĠPerry": 8634,
      "800": 8635,
      "ean": 8636,
      "Ġnerv": 8637,
      "ĠBT": 8638,
      "Ġcommunication": 8639,
      "ĠHurricanes": 8640,
      "Ġtired": 8641,
      "Ġcomprehensive": 8642,
      "ĠMariners": 8643,
      "ĠSerb": 8644,
      "boro": 8645,
      "ĠFulham": 8646,
      "ĠCopyright": 8647,
      "Ġcat": 8648,
      "Ġforever": 8649,
      "Ġproposed": 8650,
      "ĠBangl": 8651,
      "ĠMarlins": 8652,
      "abs": 8653,
      "Ġwagers": 8654,
      "Ġsubscription": 8655,
      "Ġmur": 8656,
      "ĠTyson": 8657,
      "ception": 8658,
      "Ġharm": 8659,
      "ĠMaster": 8660,
      "Ġloyal": 8661,
      "mpo": 8662,
      "Ġfundra": 8663,
      "ĠSimmons": 8664,
      "ĠToyota": 8665,
      "Ġvirus": 8666,
      "Ġ1995": 8667,
      "ĠPhilip": 8668,
      "ĠKend": 8669,
      "ilty": 8670,
      "face": 8671,
      "nie": 8672,
      "ĠHad": 8673,
      "anton": 8674,
      "ussia": 8675,
      "Ġ1992": 8676,
      "Ġdrawing": 8677,
      "Ġdisplayed": 8678,
      "ĠHolly": 8679,
      "Ġunex": 8680,
      "Ġinches": 8681,
      "appy": 8682,
      "ĠGarden": 8683,
      "believ": 8684,
      "lig": 8685,
      "ĠHung": 8686,
      "apnews": 8687,
      "Ġmeanwhile": 8688,
      "Ġdeclared": 8689,
      "Ġnations": 8690,
      "ĠBos": 8691,
      "Ġsociety": 8692,
      "Ġchoices": 8693,
      "Ġtechniques": 8694,
      "Ġwebsites": 8695,
      "ĠLightning": 8696,
      "lee": 8697,
      "ĠNate": 8698,
      "Ġinstance": 8699,
      "ĠMumbai": 8700,
      "edom": 8701,
      "Ġnights": 8702,
      "Ġstor": 8703,
      "ĠVar": 8704,
      "Ġevol": 8705,
      "borough": 8706,
      "KO": 8707,
      "Ġforcing": 8708,
      "owell": 8709,
      "Ġhoped": 8710,
      "tics": 8711,
      "Ġwrestlers": 8712,
      "ĠTrent": 8713,
      "ĠSr": 8714,
      "Ġcongr": 8715,
      "ĠBlaz": 8716,
      "Ġrefused": 8717,
      "Ġsteal": 8718,
      "Ġcontroversial": 8719,
      "68": 8720,
      "ensed": 8721,
      "rizz": 8722,
      "Ġbrothers": 8723,
      "Ġnormally": 8724,
      "ĠLogan": 8725,
      "Ġcrisis": 8726,
      "inning": 8727,
      "Ġwake": 8728,
      "Ġberth": 8729,
      "Ġstorm": 8730,
      "ĠCanucks": 8731,
      "ĠSwiss": 8732,
      "Ġease": 8733,
      "Ġhair": 8734,
      "ĠKnight": 8735,
      "Ġpunches": 8736,
      "Ġcrossed": 8737,
      "ĠWNBA": 8738,
      "osition": 8739,
      "Ġ79": 8740,
      "phies": 8741,
      "Ġdevast": 8742,
      "ease": 8743,
      "ĠTam": 8744,
      "ĠTotal": 8745,
      "ĠCond": 8746,
      "Ġdrag": 8747,
      "ĠSwan": 8748,
      "Ġconditioning": 8749,
      "Ġinitiative": 8750,
      "Ġmanufactur": 8751,
      "Ġblame": 8752,
      "Ġqualification": 8753,
      "Ġmethods": 8754,
      "ĠCongress": 8755,
      "Ġtweeted": 8756,
      "DA": 8757,
      "estone": 8758,
      "Ġcontributions": 8759,
      "arthy": 8760,
      "Ġwore": 8761,
      "ĠSure": 8762,
      "ĠAR": 8763,
      "ĠRome": 8764,
      "ĠFestival": 8765,
      "Ġcorners": 8766,
      "arrass": 8767,
      "gey": 8768,
      "ĠHod": 8769,
      "ĠComb": 8770,
      "Ġoperating": 8771,
      "Ġexpertise": 8772,
      "ĠCougars": 8773,
      "Ġtape": 8774,
      "ĠEst": 8775,
      "Ġwanting": 8776,
      "ĠAtletico": 8777,
      "ĠRice": 8778,
      "ĠDate": 8779,
      "ĠSha": 8780,
      "cor": 8781,
      "usion": 8782,
      "Ġdeserves": 8783,
      "ĠManagement": 8784,
      "Ġimportantly": 8785,
      "Ġlessons": 8786,
      "ridge": 8787,
      "Ġpaint": 8788,
      "amin": 8789,
      "Ġeat": 8790,
      "Ġrall": 8791,
      "ĠTrust": 8792,
      "umped": 8793,
      "jo": 8794,
      "ixon": 8795,
      "Ġdisappointment": 8796,
      "ĠChairman": 8797,
      "Ġdiverse": 8798,
      "Ġvictim": 8799,
      "alez": 8800,
      "hetic": 8801,
      "Ġpocket": 8802,
      "72": 8803,
      "Ġsand": 8804,
      "isa": 8805,
      "ĠNon": 8806,
      "Ġboxer": 8807,
      "Ġ1970": 8808,
      "aki": 8809,
      "ĠHey": 8810,
      "Ġslip": 8811,
      "ĠColomb": 8812,
      "Ġoperation": 8813,
      "Ġhate": 8814,
      "Ġbless": 8815,
      "ĠBailey": 8816,
      "oh": 8817,
      "Ġren": 8818,
      "ĠMull": 8819,
      "Ġpiv": 8820,
      "Ġdie": 8821,
      "ĠDri": 8822,
      "Ġnotes": 8823,
      "Ġguards": 8824,
      "annon": 8825,
      "ĠMb": 8826,
      "ĠWem": 8827,
      "Ġnationally": 8828,
      "ĠIslanders": 8829,
      "ĠEmer": 8830,
      "aku": 8831,
      "Ġflo": 8832,
      "Ġped": 8833,
      "ullivan": 8834,
      "Ġguidelines": 8835,
      "Ġnewsletter": 8836,
      "Ġstrategic": 8837,
      "Ġaccommod": 8838,
      "ylv": 8839,
      "ĠKrist": 8840,
      "Ġsideline": 8841,
      "Ġtor": 8842,
      "Ġgro": 8843,
      "idance": 8844,
      "Ġshortstop": 8845,
      "Ġdevices": 8846,
      "iac": 8847,
      "kay": 8848,
      "Ġcitiz": 8849,
      "ĠSus": 8850,
      "ules": 8851,
      "ĠKirk": 8852,
      "ahan": 8853,
      "ĠSebast": 8854,
      "Ġarrive": 8855,
      "Ġ800": 8856,
      "ĠRogers": 8857,
      "hyth": 8858,
      "Ġhamstring": 8859,
      "ĠBYU": 8860,
      "stra": 8861,
      "ĠLiam": 8862,
      "Ġconsequ": 8863,
      "Ġquarterfinals": 8864,
      "ĠWrestle": 8865,
      "Ġsuddenly": 8866,
      "Ġoutfielder": 8867,
      "ĠPA": 8868,
      "Ġdoctor": 8869,
      "ĠCommissioner": 8870,
      "ĠPadres": 8871,
      "One": 8872,
      "gies": 8873,
      "iters": 8874,
      "ĠBris": 8875,
      "Ġessentially": 8876,
      "ĠCustom": 8877,
      "Ġprison": 8878,
      "appen": 8879,
      "ĠCardiff": 8880,
      "Ġtypical": 8881,
      "Ġidentified": 8882,
      "ĠAgainst": 8883,
      "Cl": 8884,
      "vi": 8885,
      "ĠHaz": 8886,
      "olks": 8887,
      "Ġrolled": 8888,
      "Ġtopic": 8889,
      "ĠPlace": 8890,
      "Ġprojected": 8891,
      "orough": 8892,
      "istent": 8893,
      "Ġcomputer": 8894,
      "Ġcombine": 8895,
      "Ġportion": 8896,
      "LC": 8897,
      "ĠJazz": 8898,
      "Ġidentify": 8899,
      "ĠCoy": 8900,
      "semb": 8901,
      "phone": 8902,
      "ĠWarren": 8903,
      "cribe": 8904,
      "ĠPoland": 8905,
      "Ġshutout": 8906,
      "ĠBucs": 8907,
      "Ġbaby": 8908,
      "Ġnavig": 8909,
      "apter": 8910,
      "Ġalternative": 8911,
      "ĠGovernment": 8912,
      "igg": 8913,
      "ĠDucks": 8914,
      "Ġalter": 8915,
      "apore": 8916,
      "ĠService": 8917,
      "PC": 8918,
      "Ġaer": 8919,
      "ĠAJ": 8920,
      "Ġelement": 8921,
      "Ġtransl": 8922,
      "Ġspecialist": 8923,
      "incoln": 8924,
      "ĠSaf": 8925,
      "ĠCurt": 8926,
      "ounded": 8927,
      "Ġshowdown": 8928,
      "ĠWals": 8929,
      "Ġconstruct": 8930,
      "Ġlean": 8931,
      "ĠCarson": 8932,
      "ylvania": 8933,
      "PM": 8934,
      "isive": 8935,
      "Ġdry": 8936,
      "Ġbutton": 8937,
      "ĠBangladesh": 8938,
      "ĠCycling": 8939,
      "Ġdoubled": 8940,
      "Ġjumping": 8941,
      "ĠDelhi": 8942,
      "ras": 8943,
      "lete": 8944,
      "Ġpeace": 8945,
      "ĠCarroll": 8946,
      "ĠConor": 8947,
      "Ġequally": 8948,
      "Ġpatient": 8949,
      "ĠPierre": 8950,
      "Ġwed": 8951,
      "isman": 8952,
      "immer": 8953,
      "Ġreserved": 8954,
      "Ġ81": 8955,
      "Ġexplains": 8956,
      "Ġanswered": 8957,
      "Ġencouraging": 8958,
      "da": 8959,
      "Ġhip": 8960,
      "ĠOT": 8961,
      "ĠAthlete": 8962,
      "Ġcircle": 8963,
      "Ġbattling": 8964,
      "ĠGonzalez": 8965,
      "Ġilleg": 8966,
      "Ġcru": 8967,
      "ĠWallace": 8968,
      "omed": 8969,
      "utt": 8970,
      "ĠFarm": 8971,
      "abil": 8972,
      "Ġveterans": 8973,
      "ĠLeafs": 8974,
      "DAY": 8975,
      "pted": 8976,
      "ĠSoon": 8977,
      "ĠScore": 8978,
      "Ġinsurance": 8979,
      "ĠPoll": 8980,
      "ĠNRL": 8981,
      "Ġaccounts": 8982,
      "Ġbuying": 8983,
      "ĠGarrett": 8984,
      "Ġencouraged": 8985,
      "ĠRepublican": 8986,
      "jan": 8987,
      "ĠMoney": 8988,
      "ĠBE": 8989,
      "Ġholiday": 8990,
      "po": 8991,
      "ship": 8992,
      "agh": 8993,
      "Ġattribut": 8994,
      "Ġlowest": 8995,
      "ci": 8996,
      "Ġpersonality": 8997,
      "Ġtenure": 8998,
      "ĠPenns": 8999,
      "ĠCorey": 9000,
      "Ġhun": 9001,
      "ictions": 9002,
      "Ġspeech": 9003,
      "Ġratings": 9004,
      "ju": 9005,
      "Ġsecuring": 9006,
      "Ġfumble": 9007,
      "ento": 9008,
      "Ġfract": 9009,
      "Ġstring": 9010,
      "Ġsolutions": 9011,
      "Ġprotected": 9012,
      "ĠLionel": 9013,
      "ĠKohli": 9014,
      "Ġfab": 9015,
      "Ġpil": 9016,
      "Ġdiet": 9017,
      "Ġcompon": 9018,
      "Ġstrongly": 9019,
      "ĠMoscow": 9020,
      "Ġunexpected": 9021,
      "ĠPun": 9022,
      "Ġsignature": 9023,
      "Ġtiming": 9024,
      "Ġnewspaper": 9025,
      "Ġpure": 9026,
      "uties": 9027,
      "ĠIron": 9028,
      "ĠHeavy": 9029,
      "stars": 9030,
      "Ġunderst": 9031,
      "ĠPhilipp": 9032,
      "stein": 9033,
      "TON": 9034,
      "Ġsounds": 9035,
      "ĠPop": 9036,
      "ĠEU": 9037,
      "asty": 9038,
      "Ġexhibition": 9039,
      "MS": 9040,
      "Ġsomewhere": 9041,
      "Ġcamps": 9042,
      "Ġdiscussions": 9043,
      "ĠHornets": 9044,
      "park": 9045,
      "ĠMcCarthy": 9046,
      "hythm": 9047,
      "Ġbond": 9048,
      "Ġcell": 9049,
      "Ġmic": 9050,
      "ĠLock": 9051,
      "Ġhighlighted": 9052,
      "ĠEntertain": 9053,
      "ĠEducation": 9054,
      "Ġtherap": 9055,
      "ĠHong": 9056,
      "Ġdefenses": 9057,
      "Ġresulting": 9058,
      "which": 9059,
      "ĠSumm": 9060,
      "ĠIS": 9061,
      "ĠPub": 9062,
      "ĠHull": 9063,
      "ĠFast": 9064,
      "encies": 9065,
      "gal": 9066,
      "ĠHans": 9067,
      "ĠFun": 9068,
      "Ġsustained": 9069,
      "71": 9070,
      "fall": 9071,
      "ĠPitt": 9072,
      "Ġrates": 9073,
      "Ġvill": 9074,
      "ĠAlong": 9075,
      "Ġfounded": 9076,
      "Ġglass": 9077,
      "gypt": 9078,
      "Ġbattled": 9079,
      "cap": 9080,
      "hu": 9081,
      "ĠReyn": 9082,
      "Ġparking": 9083,
      "oubted": 9084,
      "ĠSpartans": 9085,
      "ĠMcIl": 9086,
      "Ġpermanent": 9087,
      "Ġcontroversy": 9088,
      "Ġembarrass": 9089,
      "four": 9090,
      "fred": 9091,
      "nergy": 9092,
      "ĠRooney": 9093,
      "Ġbirdie": 9094,
      "ĠMend": 9095,
      "ĠGray": 9096,
      "ĠGrade": 9097,
      "ĠRichardson": 9098,
      "Ġcongrat": 9099,
      "Ġaid": 9100,
      "Ġfier": 9101,
      "ima": 9102,
      "Ġsheet": 9103,
      "ĠShar": 9104,
      "Ġdefeats": 9105,
      "Ġgenerate": 9106,
      "Ġmotors": 9107,
      "Ġparent": 9108,
      "icip": 9109,
      "ĠBeing": 9110,
      "Ġsmile": 9111,
      "Ġcontribution": 9112,
      "ĠJean": 9113,
      "ylan": 9114,
      "ĠSometimes": 9115,
      "ĠCF": 9116,
      "Ġ99": 9117,
      "ĠSmart": 9118,
      "Ġelected": 9119,
      "Ġphenomen": 9120,
      "Co": 9121,
      "meter": 9122,
      "Ġsector": 9123,
      "Ġnoticed": 9124,
      "oving": 9125,
      "Ġguilty": 9126,
      "Ġ88": 9127,
      "ĠGoogle": 9128,
      "itage": 9129,
      "ĠMetro": 9130,
      "ĠHERE": 9131,
      "ĠFloyd": 9132,
      "Ġstopp": 9133,
      "ĠOx": 9134,
      "ĠWarner": 9135,
      "Ġfavourites": 9136,
      "Ġadministr": 9137,
      "Ġdating": 9138,
      "riers": 9139,
      "Ġowns": 9140,
      "Ġconsideration": 9141,
      "Ġacquis": 9142,
      "ĠSarah": 9143,
      "alle": 9144,
      "Ġscrimm": 9145,
      "An": 9146,
      "Ġchasing": 9147,
      "irds": 9148,
      "Ġkickoff": 9149,
      "Ġhonour": 9150,
      "Ġfailing": 9151,
      "Ġrings": 9152,
      "through": 9153,
      "Ġapplied": 9154,
      "Ġgranted": 9155,
      "orns": 9156,
      "theless": 9157,
      "olen": 9158,
      "Ġdriven": 9159,
      "Ġexplore": 9160,
      "rington": 9161,
      "Ġoccup": 9162,
      "conference": 9163,
      "Ġexercises": 9164,
      "Ex": 9165,
      "mates": 9166,
      "Ġtow": 9167,
      "iminal": 9168,
      "ĠNXT": 9169,
      "Ġretain": 9170,
      "ĠFranklin": 9171,
      "count": 9172,
      "ĠPT": 9173,
      "ĠRunning": 9174,
      "ĠOp": 9175,
      "Ġrecalled": 9176,
      "Ġbrut": 9177,
      "ĠSingapore": 9178,
      "Ġrarely": 9179,
      "urg": 9180,
      "Ġsomehow": 9181,
      "ĠMaria": 9182,
      "annah": 9183,
      "Ġwrestler": 9184,
      "ae": 9185,
      "inch": 9186,
      "Ġanthe": 9187,
      "ĠOsc": 9188,
      "Ġcovers": 9189,
      "Ġcommentary": 9190,
      "ĠRandy": 9191,
      "ĠOttawa": 9192,
      "amps": 9193,
      "Ġadvoc": 9194,
      "ĠMavericks": 9195,
      "dig": 9196,
      "ĠÃ": 9197,
      "Ġgolfer": 9198,
      "Ġwhenever": 9199,
      "Ġoffensively": 9200,
      "ĠGibson": 9201,
      "Ġluxury": 9202,
      "arian": 9203,
      "Ġmeets": 9204,
      "ĠWee": 9205,
      "Ġdowns": 9206,
      "Ġmeters": 9207,
      "GE": 9208,
      "inations": 9209,
      "ĠChand": 9210,
      "Ġbacking": 9211,
      "enson": 9212,
      "Ġappointed": 9213,
      "Ġeffects": 9214,
      "ĠSecret": 9215,
      "Ġlaid": 9216,
      "uman": 9217,
      "ĠVince": 9218,
      "Ġrestart": 9219,
      "Ġathleticism": 9220,
      "Ġliterally": 9221,
      "ĠÐ": 9222,
      "Ġfulf": 9223,
      "ĠChurch": 9224,
      "Ġpray": 9225,
      "Ġunfortunately": 9226,
      "Ġguidance": 9227,
      "ifications": 9228,
      "ĠFla": 9229,
      "Ġteaching": 9230,
      "Ġdownt": 9231,
      "Ġtele": 9232,
      "Ġunderdog": 9233,
      "Ġsuperior": 9234,
      "Ġprominent": 9235,
      "Kings": 9236,
      "rich": 9237,
      "Ġhometown": 9238,
      "ĠTroy": 9239,
      "being": 9240,
      "Ġengaged": 9241,
      "ĠCroatia": 9242,
      "ĠClarke": 9243,
      "ping": 9244,
      "ĠGas": 9245,
      "rounder": 9246,
      "ĠCapitals": 9247,
      "],": 9248,
      "Ġhaul": 9249,
      "Ġ86": 9250,
      "ĠNorwich": 9251,
      "Ġhopeful": 9252,
      "Ġpublicly": 9253,
      "Ġdetailed": 9254,
      "OO": 9255,
      "ori": 9256,
      "Ġbed": 9257,
      "berger": 9258,
      "Ġhelm": 9259,
      "Ġcommented": 9260,
      "mission": 9261,
      "Ġcycle": 9262,
      "Ġloaded": 9263,
      "ishop": 9264,
      "ĠJoey": 9265,
      "char": 9266,
      "artial": 9267,
      "ahoo": 9268,
      "Ġsurpass": 9269,
      "ĠGlas": 9270,
      "Ġvoting": 9271,
      "Ġmaintained": 9272,
      "iens": 9273,
      "len": 9274,
      "Ġ>": 9275,
      "ĠMA": 9276,
      "ĠGrizz": 9277,
      "Ġeverywhere": 9278,
      "Ġdelivering": 9279,
      "ders": 9280,
      "ĠBear": 9281,
      "Ġweigh": 9282,
      "ĠWork": 9283,
      "Ġefficiency": 9284,
      "Ġchest": 9285,
      "Ġdominance": 9286,
      "ĠOffensive": 9287,
      "Ġpreferred": 9288,
      "ĠHopefully": 9289,
      "Ġlights": 9290,
      "Ġhell": 9291,
      "ĠNE": 9292,
      "ĠDouble": 9293,
      "ĠLE": 9294,
      "ĠEp": 9295,
      "Ġunbeliev": 9296,
      "Ġfocusing": 9297,
[...]
