{
  "version": "1.0",
  "truncation": null,
  "padding": null,
  "added_tokens": [
    {
      "id": 0,
      "content": "<|endoftext|>",
      "single_word": false,
      "lstrip": false,
      "rstrip": false,
      "normalized": false,
      "special": true
    },
    {
      "id": 1,
      "content": "<|pad|>",
      "single_word": false,
      "lstrip": false,
      "rstrip": false,
      "normalized": false,
      "special": true
    },
    {
      "id": 2,
      "content": "<|unk|>",
      "single_word": false,
      "lstrip": false,
      "rstrip": false,
      "normalized": false,
      "special": true
    }
  ],
  "normalizer": null,
  "pre_tokenizer": {
    "type": "Sequence",
    "pretokenizers": [
      {
        "type": "Split",
        "pattern": {
          "String": "\\s+|\\w+|[^\\w\\s]+"
        },
        "behavior": "Isolated",
        "invert": false
      },
      {
        "type": "ByteLevel",
        "add_prefix_space": false,
        "trim_offsets": true,
        "use_regex": true
      }
    ]
  },
  "post_processor": null,
  "decoder": {
    "type": "ByteLevel",
    "add_prefix_space": true,
    "trim_offsets": true,
    "use_regex": true
  },
  "model": {
    "type": "BPE",
    "dropout": null,
    "unk_token": "<|unk|>",
    "continuing_subword_prefix": null,
    "end_of_word_suffix": null,
    "fuse_unk": false,
    "byte_fallback": false,
    "ignore_merges": false,
    "vocab": {
      "<|endoftext|>": 0,
      "<|pad|>": 1,
      "<|unk|>": 2,
      "!": 3,
      "\"": 4,
      "#": 5,
      "$": 6,
      "%": 7,
      "&": 8,
      "'": 9,
      "(": 10,
      ")": 11,
      "*": 12,
      "+": 13,
      ",": 14,
      "-": 15,
      ".": 16,
      "/": 17,
      "0": 18,
      "1": 19,
      "2": 20,
      "3": 21,
      "4": 22,
      "5": 23,
      "6": 24,
      "7": 25,
      "8": 26,
      "9": 27,
      ":": 28,
      ";": 29,
      "<": 30,
      "=": 31,
      ">": 32,
      "?": 33,
      "@": 34,
      "A": 35,
      "B": 36,
      "C": 37,
      "D": 38,
      "E": 39,
      "F": 40,
      "G": 41,
      "H": 42,
      "I": 43,
      "J": 44,
      "K": 45,
      "L": 46,
      "M": 47,
      "N": 48,
      "O": 49,
      "P": 50,
      "Q": 51,
      "R": 52,
      "S": 53,
      "T": 54,
      "U": 55,
      "V": 56,
      "W": 57,
      "X": 58,
      "Y": 59,
      "Z": 60,
      "[": 61,
      "\\": 62,
      "]": 63,
      "^": 64,
      "_": 65,
      "`": 66,
      "a": 67,
      "b": 68,
      "c": 69,
      "d": 70,
      "e": 71,
      "f": 72,
      "g": 73,
      "h": 74,
      "i": 75,
      "j": 76,
      "k": 77,
      "l": 78,
      "m": 79,
      "n": 80,
      "o": 81,
      "p": 82,
      "q": 83,
      "r": 84,
      "s": 85,
      "t": 86,
      "u": 87,
      "v": 88,
      "w": 89,
      "x": 90,
      "y": 91,
      "z": 92,
      "{": 93,
      "|": 94,
      "}": 95,
      "~": 96,
      "¡": 97,
      "¢": 98,
      "£": 99,
      "¤": 100,
      "¥": 101,
      "¦": 102,
      "§": 103,
      "¨": 104,
      "©": 105,
      "ª": 106,
      "«": 107,
      "¬": 108,
      "®": 109,
      "¯": 110,
      "°": 111,
      "±": 112,
      "²": 113,
      "³": 114,
      "´": 115,
      "µ": 116,
      "¶": 117,
      "·": 118,
      "¸": 119,
      "¹": 120,
      "º": 121,
      "»": 122,
      "¼": 123,
      "½": 124,
      "¾": 125,
      "¿": 126,
      "Â": 127,
      "Ã": 128,
      "Ä": 129,
      "Å": 130,
      "Æ": 131,
      "Ç": 132,
      "È": 133,
      "É": 134,
      "Ê": 135,
      "Ë": 136,
      "Ì": 137,
      "Í": 138,
      "Î": 139,
      "Ï": 140,
      "Ð": 141,
      "Ñ": 142,
      "Ò": 143,
      "Ó": 144,
      "Ô": 145,
      "Õ": 146,
      "Ö": 147,
      "×": 148,
      "Ø": 149,
      "Ù": 150,
      "Ú": 151,
      "Û": 152,
      "Ü": 153,
      "Ý": 154,
      "Þ": 155,
      "ß": 156,
      "à": 157,
      "á": 158,
      "â": 159,
      "ã": 160,
      "ä": 161,
      "å": 162,
      "æ": 163,
      "ç": 164,
      "è": 165,
      "é": 166,
      "ê": 167,
      "ë": 168,
      "ì": 169,
      "í": 170,
      "î": 171,
      "ï": 172,
      "ð": 173,
      "ñ": 174,
      "ò": 175,
      "ó": 176,
      "ô": 177,
      "ā": 178,
      "Ă": 179,
      "ă": 180,
      "Ą": 181,
      "ą": 182,
      "Ć": 183,
      "ć": 184,
      "Ĉ": 185,
      "ĉ": 186,
      "Ċ": 187,
      "ċ": 188,
      "Č": 189,
      "č": 190,
      "Ď": 191,
      "ď": 192,
      "Đ": 193,
      "đ": 194,
      "Ē": 195,
      "ē": 196,
      "Ĕ": 197,
      "ĕ": 198,
      "Ė": 199,
      "ė": 200,
      "Ę": 201,
      "ę": 202,
      "Ě": 203,
      "ě": 204,
      "Ĝ": 205,
      "ĝ": 206,
      "Ğ": 207,
      "ğ": 208,
      "Ġ": 209,
      "ġ": 210,
      "Ģ": 211,
      "ģ": 212,
      "Ĥ": 213,
      "ĥ": 214,
      "Ħ": 215,
      "ħ": 216,
      "Ĩ": 217,
      "ĩ": 218,
      "Ī": 219,
      "ī": 220,
      "Ĭ": 221,
      "ĭ": 222,
      "Į": 223,
      "į": 224,
      "İ": 225,
      "ı": 226,
      "Ĳ": 227,
      "ĳ": 228,
      "Ĵ": 229,
      "ĵ": 230,
      "Ķ": 231,
      "ķ": 232,
      "ĸ": 233,
      "Ĺ": 234,
      "ĺ": 235,
      "Ļ": 236,
      "ļ": 237,
      "Ľ": 238,
      "ľ": 239,
      "Ŀ": 240,
      "ŀ": 241,
      "Ł": 242,
      "ł": 243,
      "Ń": 244,
      "ĠĠ": 245,
      "ĠĠĠĠ": 246,
      "ĠĠĠ": 247,
      "in": 248,
      "ĠĠĠĠĠĠĠ": 249,
      "Ġ=": 250,
      "se": 251,
      "re": 252,
      "Ġt": 253,
      "st": 254,
      "or": 255,
      "er": 256,
      "en": 257,
      "on": 258,
      "at": 259,
      "čĊ": 260,
      "ĠĠĠĠĠĠĠĠ": 261,
      "Ġa": 262,
      "de": 263,
      "Ġp": 264,
      "Ġi": 265,
      "int": 266,
      "le": 267,
      "Ġc": 268,
      "he": 269,
      "al": 270,
      "ar": 271,
      "--": 272,
      "Ġf": 273,
      "an": 274,
      "Ġn": 275,
      "lf": 276,
      "self": 277,
      "ur": 278,
      "it": 279,
      "rint": 280,
      "ĠĠĠĠĠĠĠĠĠĠĠ": 281,
      "me": 282,
      "):": 283,
      "Ġin": 284,
      "##": 285,
      "Ġ\"": 286,
      "um": 287,
      "Ġre": 288,
      "ut": 289,
      "Ġthe": 290,
      "ro": 291,
      "Ġs": 292,
      "Ġl": 293,
      "ion": 294,
      "ge": 295,
      "ct": 296,
      "Ġo": 297,
      "Ġe": 298,
      "Ġ1": 299,
      "Ġw": 300,
      "Ġm": 301,
      "Ġ'": 302,
      "ing": 303,
      "Ġb": 304,
      "te": 305,
      "()": 306,
      "ue": 307,
      "Ġd": 308,
      "Ġ#": 309,
      "def": 310,
      "ist": 311,
      "Ġself": 312,
      "un": 313,
      "urn": 314,
      "turn": 315,
      "ra": 316,
      "Ġif": 317,
      "Ġprint": 318,
      "ce": 319,
      "mp": 320,
      "(\"": 321,
      "----": 322,
      "la": 323,
      "ot": 324,
      "end": 325,
      "__": 326,
      "xt": 327,
      "ri": 328,
      "Ġ+": 329,
      "ss": 330,
      "\"\"": 331,
      "co": 332,
      "Ġreturn": 333,
      "==": 334,
      "Ġfor": 335,
      "Ġan": 336,
      "ame": 337,
      "))": 338,
      "ate": 339,
      "Ġ(": 340,
      "ent": 341,
      "print": 342,
      "ĠĠĠĠĠĠĠĠĠĠĠĠĠĠĠ": 343,
      "####": 344,
      "Ġ0": 345,
      "Ġ==": 346,
      "lo": 347,
      "ran": 348,
      "Ġto": 349,
      "hi": 350,
      "Ġst": 351,
      "ad": 352,
      "put": 353,
      "Ġco": 354,
      "val": 355,
      "Ġof": 356,
      "ve": 357,
      "\")": 358,
      "th": 359,
      "if": 360,
      "Ġ-": 361,
      "Ġis": 362,
      "Ġ[": 363,
      "ul": 364,
      "ap": 365,
      "',": 366,
      "Ġand": 367,
      "ck": 368,
      "Ġ2": 369,
      "('": 370,
      "Ġdef": 371,
      "ĠT": 372,
      "ch": 373,
      "Ġnum": 374,
      "Ġel": 375,
      "ode": 376,
      "ort": 377,
      "\",": 378,
      "ig": 379,
      "ord": 380,
      "of": 381,
      "ter": 382,
      "text": 383,
      "id": 384,
      "Ġy": 385,
      "00": 386,
      "ma": 387,
      "Ġg": 388,
      "')": 389,
      "Ġran": 390,
      "ĉĉ": 391,
      "ed": 392,
      "ber": 393,
      "es": 394,
      "el": 395,
      "ata": 396,
      "il": 397,
      "**": 398,
      "as": 399,
      "ht": 400,
      "--------": 401,
      "ction": 402,
      "ol": 403,
      "is": 404,
      "ĠĠĠĠĠĠĠĠĠĠĠĠĠĠĠĠ": 405,
      "one": 406,
      "Ġse": 407,
      "|>": 408,
      "<|": 409,
      "endof": 410,
      "endoftext": 411,
      "Ġint": 412,
      "num": 413,
      "])": 414,
      "list": 415,
      "ke": 416,
      "di": 417,
      "os": 418,
      "ser": 419,
      "mport": 420,
      "ĠN": 421,
      "value": 422,
      "get": 423,
      "ver": 424,
      "pe": 425,
      "name": 426,
      "Ġx": 427,
      "ab": 428,
      "unt": 429,
      "for": 430,
      "ation": 431,
      "ow": 432,
      "up": 433,
      "nt": 434,
      "====": 435,
      "Ġ\"\"\"": 436,
      "ile": 437,
      "Ġrange": 438,
      "ĠS": 439,
      "Ġde": 440,
      "Ġh": 441,
      "########": 442,
      "ne": 443,
      "om": 444,
      "],": 445,
      "op": 446,
      "ult": 447,
      "qu": 448,
      "Ġstr": 449,
      "app": 450,
      "Ġlist": 451,
      "str": 452,
      "''": 453,
      "ic": 454,
      "Ġ{": 455,
      "Ġ3": 456,
      "rom": 457,
      "Ġelse": 458,
      "ard": 459,
      "Ġth": 460,
      "ime": 461,
      "ir": 462,
      "ĠF": 463,
      "iz": 464,
      "Ġne": 465,
      "pl": 466,
      "ĠC": 467,
      "Ġ:": 468,
      "lass": 469,
      "ou": 470,
      "art": 471,
      "ine": 472,
      "input": 473,
      "Ġ<": 474,
      "ĠA": 475,
      "Ġte": 476,
      "Ġbe": 477,
      "Ġlen": 478,
      "Ġcon": 479,
      "ä¸": 480,
      "ĠĊ": 481,
      "ith": 482,
      "Ġ*": 483,
      "Ġma": 484,
      "Ġu": 485,
      "lay": 486,
      "ĠI": 487,
      "append": 488,
      "Ġnot": 489,
      "ĠP": 490,
      "rue": 491,
      "':": 492,
      "Ġnumber": 493,
      "ite": 494,
      "res": 495,
      "Ġas": 496,
      "im": 497,
      "Ġ>": 498,
      "Ġro": 499,
      "dex": 500,
      "ĠĠĠĠĠĠĠĠĠĠĠĠĠĠĠĠĠĠĠ": 501,
      "Ġ__": 502,
      "and": 503,
      "mat": 504,
      "mo": 505,
      "][": 506,
      "ĠÐ": 507,
      "Ġ+=": 508,
      "Ġor": 509,
      "et": 510,
      "\"\"\"": 511,
      "ment": 512,
      "len": 513,
      "ft": 514,
      "ind": 515,
      "Ġar": 516,
      "rent": 517,
      "Ġle": 518,
      "Ġinput": 519,
      "Ġv": 520,
      "ay": 521,
      "od": 522,
      "Ġres": 523,
      "Ġal": 524,
      "con": 525,
      "pt": 526,
      "Ðµ": 527,
      "key": 528,
      "ase": 529,
      "import": 530,
      "Ð¾": 531,
      "hile": 532,
      "Ġvalue": 533,
      "ta": 534,
      "ath": 535,
      "..": 536,
      "data": 537,
      "ize": 538,
      "Ġex": 539,
      "bo": 540,
      "ray": 541,
      "ĠL": 542,
      "class": 543,
      "),": 544,
      "am": 545,
      "Ġj": 546,
      "alse": 547,
      "Ġch": 548,
      "age": 549,
      "ï¼": 550,
      "rig": 551,
      "Ġelif": 552,
      "all": 553,
      "per": 554,
      "\":": 555,
      "ĠĠĠĠĊ": 556,
      "ty": 557,
      "Ġ5": 558,
      "his": 559,
      "Ġ%": 560,
      "Ġdata": 561,
      "ĠNone": 562,
      "ĠD": 563,
      "Ġcur": 564,
      "Ð°": 565,
      "ĠR": 566,
      "Ġwith": 567,
      "right": 568,
      "us": 569,
      "():": 570,
      "Ġ4": 571,
      "ĠTrue": 572,
      "ight": 573,
      "que": 574,
      "our": 575,
      "set": 576,
      "ers": 577,
      "Ġhe": 578,
      "ry": 579,
      "py": 580,
      "Ġpro": 581,
      "mple": 582,
      "Ġdi": 583,
      "word": 584,
      "Ġcol": 585,
      "pa": 586,
      "able": 587,
      "----------------": 588,
      "ub": 589,
      "col": 590,
      "Ġr": 591,
      "__(": 592,
      "Ġme": 593,
      "unction": 594,
      "Ð¸": 595,
      "Ġ[]": 596,
      "ree": 597,
      "init": 598,
      "ance": 599,
      "10": 600,
      "ĠM": 601,
      "ĠE": 602,
      "Ġthat": 603,
      "========": 604,
      "****": 605,
      "ect": 606,
      "Ġimport": 607,
      "ÑĤ": 608,
      "Ġit": 609,
      "count": 610,
      "cur": 611,
      "dom": 612,
      "Ġwhile": 613,
      "Ġnode": 614,
      "und": 615,
      "ĠB": 616,
      "from": 617,
      "low": 618,
      "Ġk": 619,
      "Ġon": 620,
      "dd": 621,
      "ary": 622,
      "ĠFalse": 623,
      "ive": 624,
      "ac": 625,
      "Ġnew": 626,
      "Ġname": 627,
      "['": 628,
      "Ġlo": 629,
      "ill": 630,
      "oint": 631,
      "sert": 632,
      "ly": 633,
      "to": 634,
      "']": 635,
      "layer": 636,
      "################": 637,
      "ĠĠĠĠĠ": 638,
      "çļ": 639,
      "ph": 640,
      "çļĦ": 641,
      "Ġare": 642,
      "bj": 643,
      "row": 644,
      "ak": 645,
      "irst": 646,
      "ack": 647,
      "Ġwe": 648,
      "node": 649,
      "iv": 650,
      "Ġfrom": 651,
      "gra": 652,
      "ity": 653,
      "li": 654,
      "Ġget": 655,
      "Ġresult": 656,
      "ition": 657,
      "red": 658,
      "index": 659,
      "())": 660,
      "Ġ/": 661,
      "In": 662,
      "number": 663,
      "time": 664,
      "Ġword": 665,
      "act": 666,
      "Ġfile": 667,
      "ep": 668,
      "heck": 669,
      "ci": 670,
      "next": 671,
      "ror": 672,
      "file": 673,
      "ted": 674,
      "otal": 675,
      "!=": 676,
      "Ġstring": 677,
      "Ġbo": 678,
      "left": 679,
      "ms": 680,
      "utput": 681,
      "ex": 682,
      "Ġyou": 683,
      "ble": 684,
      "Ð½": 685,
      "Ġtime": 686,
      "Ñģ": 687,
      "Ġfunction": 688,
      "ari": 689,
      "Ġpa": 690,
      "add": 691,
      "pre": 692,
      "ice": 693,
      "Ġnp": 694,
      "Ġmo": 695,
      "pro": 696,
      "]:": 697,
      "Ġ10": 698,
      "ĠO": 699,
      "reate": 700,
      "ÑĢ": 701,
      "Ð¾Ð": 702,
      "umn": 703,
      "ï¼Į": 704,
      "par": 705,
      "main": 706,
      "ave": 707,
      "ant": 708,
      "'''": 709,
      "Ġcount": 710,
      "gth": 711,
      "='": 712,
      "test": 713,
      "thon": 714,
      "ution": 715,
      "loat": 716,
      "Ġmax": 717,
      "Ġ6": 718,
      "sh": 719,
      "move": 720,
      "format": 721,
      "ĠW": 722,
      "Ġsh": 723,
      "ast": 724,
      "Ġ!=": 725,
      "return": 726,
      "read": 727,
      "Ġline": 728,
      "([": 729,
      "Ġval": 730,
      "ĠG": 731,
      "Ġpre": 732,
      "lement": 733,
      "._": 734,
      "dict": 735,
      "List": 736,
      "=\"": 737,
      "plit": 738,
      "gs": 739,
      "pos": 740,
      "Ġen": 741,
      "].": 742,
      "type": 743,
      "ach": 744,
      "Ġrow": 745,
      "we": 746,
      "size": 747,
      "æķ": 748,
      "Ġkey": 749,
      "Ġset": 750,
      "sed": 751,
      "ld": 752,
      "Ġ{}": 753,
      "Ġthis": 754,
      "Ġdo": 755,
      "Ġrandom": 756,
      "pen": 757,
      "Ġat": 758,
      "ure": 759,
      "ie": 760,
      "åı": 761,
      "ĠIn": 762,
      "Ġby": 763,
      "Ġuser": 764,
      "bject": 765,
      "ĠĠĠĠĠĠĠĠĊ": 766,
      "Ġcurrent": 767,
      "sc": 768,
      "date": 769,
      "olution": 770,
      "rain": 771,
      "20": 772,
      "ust": 773,
      "ial": 774,
      "Ġtest": 775,
      "raw": 776,
      "core": 777,
      "ĠĠĠĠĠĠĠĠĠĠĠĠĠĠĠĠĠĠĠĠĠĠĠ": 778,
      "Ġall": 779,
      "Ġmat": 780,
      "cept": 781,
      "min": 782,
      "ample": 783,
      "Node": 784,
      "åĪ": 785,
      "rid": 786,
      "Ġun": 787,
      "eg": 788,
      "ear": 789,
      "max": 790,
      "string": 791,
      "Ġend": 792,
      "Ġ\")": 793,
      "Ġcan": 794,
      "Ġsum": 795,
      "mm": 796,
      "Ġstart": 797,
      "root": 798,
      "ĠThe": 799,
      "mage": 800,
      "ok": 801,
      "are": 802,
      "rix": 803,
      "','": 804,
      "array": 805,
      "line": 806,
      "ide": 807,
      "//": 808,
      "fo": 809,
      "Ġ<=": 810,
      "ces": 811,
      "sum": 812,
      "æķ°": 813,
      "ang": 814,
      "my": 815,
      "rite": 816,
      "Ġindex": 817,
      ".__": 818,
      "ud": 819,
      "ator": 820,
      "Ġtext": 821,
      "Ġpar": 822,
      "ero": 823,
      "split": 824,
      "ll": 825,
      "reak": 826,
      "En": 827,
      "Ġadd": 828,
      "åħ": 829,
      "board": 830,
      "Ġso": 831,
      "tter": 832,
      "Ġarray": 833,
      "Ġpl": 834,
      "rect": 835,
      "Ġmin": 836,
      "Ġpos": 837,
      "ype": 838,
      "fe": 839,
      "Ġpy": 840,
      "Ġ7": 841,
      "Ġfirst": 842,
      "mb": 843,
      "Ġwill": 844,
      "Ġite": 845,
      "Ð»": 846,
      "ip": 847,
      "ĠĠĠĠĠĠ": 848,
      "start": 849,
      "est": 850,
      "wo": 851,
      "ther": 852,
      "rror": 853,
      ")):": 854,
      "ĠV": 855,
      "lace": 856,
      "ute": 857,
      "100": 858,
      "Ġ9": 859,
      ">>": 860,
      "alc": 861,
      "St": 862,
      "ren": 863,
      "\".": 864,
      "ses": 865,
      "cond": 866,
      "sw": 867,
      "path": 868,
      "thod": 869,
      "ĉĉĉ": 870,
      "Ġì": 871,
      "du": 872,
      "Ġ\\": 873,
      "ys": 874,
      "sv": 875,
      "ĠRe": 876,
      "Ġno": 877,
      "Ġ8": 878,
      "ĠH": 879,
      "uld": 880,
      "Ġcont": 881,
      "Error": 882,
      "idth": 883,
      "The": 884,
      "play": 885,
      "oice": 886,
      "Ġ->": 887,
      "((": 888,
      "Ġright": 889,
      "Ġopen": 890,
      "da": 891,
      "Ġtemp": 892,
      "head": 893,
      "Ġ\",": 894,
      "Ġbreak": 895,
      "Ġleft": 896,
      "df": 897,
      "12": 898,
      "Ġroot": 899,
      "Ġque": 900,
      "Ġfloat": 901,
      "its": 902,
      "ange": 903,
      "Ġ100": 904,
      "Ġelement": 905,
      "'s": 906,
      "order": 907,
      "enter": 908,
      "ens": 909,
      "ise": 910,
      "ont": 911,
      "game": 912,
      "Ġeach": 913,
      "ä»": 914,
      "Ġcomp": 915,
      "Ġyour": 916,
      "Ġ'''": 917,
      "Ġcheck": 918,
      "ence": 919,
      "ĠList": 920,
      "new": 921,
      "ates": 922,
      "les": 923,
      "********": 924,
      "ER": 925,
      ").": 926,
      "\",\"": 927,
      "arget": 928,
      "Ġhas": 929,
      "code": 930,
      "Ġchar": 931,
      "ton": 932,
      "Ġup": 933,
      "Ġclass": 934,
      "____": 935,
      "Ġ20": 936,
      "[:": 937,
      "ors": 938,
      "ff": 939,
      "Ġ_": 940,
      "ies": 941,
      "arr": 942,
      "ents": 943,
      "plot": 944,
      "cre": 945,
      "ä¸ª": 946,
      "iven": 947,
      "Enter": 948,
      "gh": 949,
      "Ġz": 950,
      "pri": 951,
      "Ġnums": 952,
      "ink": 953,
      "ĠU": 954,
      "åŃ": 955,
      "result": 956,
      "ariable": 957,
      "ould": 958,
      "Ġpri": 959,
      "else": 960,
      "è¿": 961,
      "Ġwh": 962,
      "================": 963,
      "rame": 964,
      "Ġcolumn": 965,
      "ape": 966,
      "Ġtotal": 967,
      "\"]": 968,
      "ps": 969,
      "ding": 970,
      "Ġpass": 971,
      "lab": 972,
      "out": 973,
      "ick": 974,
      "ener": 975,
      "ins": 976,
      "ãģ": 977,
      "ag": 978,
      "cess": 979,
      "åĲ": 980,
      "ory": 981,
      "Ġ>=": 982,
      "orted": 983,
      "[\"": 984,
      "Ġpoint": 985,
      "Ġone": 986,
      "hild": 987,
      "loc": 988,
      "Ġplayer": 989,
      "arch": 990,
      "ations": 991,
      "no": 992,
      "You": 993,
      "æľ": 994,
      "odel": 995,
      "Ġitem": 996,
      "Ġhave": 997,
      "Ġboard": 998,
      "pop": 999,
      "ä¸Ģ": 1000,
      "11": 1001,
      "ix": 1002,
      "ĠĠĠĠĠĠĠĠĠĠĠĠĠĠĠĠĠĠĠĠĠĠĠĠĠĠĠĠĠĠĠĠ": 1003,
      "Ġra": 1004,
      "utton": 1005,
      "sing": 1006,
      "jo": 1007,
      "Ġvalues": 1008,
      "vert": 1009,
      "ec": 1010,
      "param": 1011,
      "ãĢ": 1012,
      "().": 1013,
      "Ġfind": 1014,
      "user": 1015,
      "qual": 1016,
      "gram": 1017,
      "ign": 1018,
      "inal": 1019,
      "place": 1020,
      ".\")": 1021,
      "Ġsub": 1022,
      "IN": 1023,
      "vel": 1024,
      "Ġout": 1025,
      "Ġ|": 1026,
      "old": 1027,
      "Ġmain": 1028,
      "tri": 1029,
      "'.": 1030,
      "æĺ": 1031,
      "abel": 1032,
      "\"))": 1033,
      "Ġoutput": 1034,
      "alcul": 1035,
      "itle": 1036,
      ")]": 1037,
      "while": 1038,
      "ines": 1039,
      "ong": 1040,
      "label": 1041,
      "Ġgra": 1042,
      "ax": 1043,
      "Ġmy": 1044,
      "Ġother": 1045,
      "Ġhead": 1046,
      "onth": 1047,
      "Ñĥ": 1048,
      "Ġ@": 1049,
      "Ġ)": 1050,
      "po": 1051,
      "ork": 1052,
      "point": 1053,
      "Ġnumbers": 1054,
      "istance": 1055,
      "Num": 1056,
      "Ġqu": 1057,
      "av": 1058,
      "own": 1059,
      "oth": 1060,
      "--------------------------------": 1061,
      "Ð²": 1062,
      "so": 1063,
      "ption": 1064,
      "grid": 1065,
      "arg": 1066,
      "ä½": 1067,
      "hich": 1068,
      "Ġnext": 1069,
      "Ġmove": 1070,
      "ib": 1071,
      "Ġac": 1072,
      "Ġper": 1073,
      "Co": 1074,
      "None": 1075,
      "iter": 1076,
      "çĶ": 1077,
      "Ð¼": 1078,
      "True": 1079,
      "isplay": 1080,
      "cle": 1081,
      "ĠčĊ": 1082,
      "bin": 1083,
      "Ġ\"))": 1084,
      "day": 1085,
      "unter": 1086,
      "item": 1087,
      "ç»": 1088,
      "]]": 1089,
      "txt": 1090,
      "alue": 1091,
      "ssage": 1092,
      "swer": 1093,
      "son": 1094,
      "rans": 1095,
      "train": 1096,
      "ress": 1097,
      "ĉĉĉĉ": 1098,
      "50": 1099,
      "ctions": 1100,
      "temp": 1101,
      "bal": 1102,
      "rand": 1103,
      "Ġcreate": 1104,
      "sent": 1105,
      "åĩ": 1106,
      "Ġ(\"": 1107,
      "Re": 1108,
      "Ġarr": 1109,
      "################################": 1110,
      "ated": 1111,
      "ĠĠĠĠĠĠĠĠĠĠĠĠ": 1112,
      "Ġgame": 1113,
      "tle": 1114,
      "uple": 1115,
      "mpty": 1116,
      "ca": 1117,
      "âĢ": 1118,
      "ĠSolution": 1119,
      "Ðº": 1120,
      "Ġtry": 1121,
      "current": 1122,
      "sort": 1123,
      "*-": 1124,
      "Ġap": 1125,
      "length": 1126,
      "ain": 1127,
      "æĺ¯": 1128,
      "range": 1129,
      "random": 1130,
      "äº": 1131,
      "Ġlength": 1132,
      "Ġ,": 1133,
      "Ġletter": 1134,
      "verse": 1135,
      "...": 1136,
      "Ġtwo": 1137,
      "Ġinteg": 1138,
      "lower": 1139,
      "nums": 1140,
      "æĸ": 1141,
      "Ġ['": 1142,
      "elif": 1143,
      "sub": 1144,
      "Ġfo": 1145,
      ")))": 1146,
      "assert": 1147,
      "Ġtype": 1148,
      "cl": 1149,
      "lect": 1150,
      "lose": 1151,
      "Ġë": 1152,
      "è¡": 1153,
      "do": 1154,
      "Ġplt": 1155,
      "score": 1156,
      "player": 1157,
      "ctionary": 1158,
      "args": 1159,
      "ST": 1160,
      "map": 1161,
      "Ġobject": 1162,
      "Ġwhich": 1163,
      "[-": 1164,
      "Ġmath": 1165,
      "form": 1166,
      "pon": 1167,
      "unc": 1168,
      "color": 1169,
      "Ġ-*-": 1170,
      "å®": 1171,
      "ual": 1172,
      "com": 1173,
      "Ð´": 1174,
      "Ġlast": 1175,
      "LE": 1176,
      "ell": 1177,
      "(\"\\": 1178,
      "plt": 1179,
      "state": 1180,
      "Ġcode": 1181,
      "Ġconta": 1182,
      "Ġexcept": 1183,
      "error": 1184,
      "rip": 1185,
      "Ġuse": 1186,
      "lock": 1187,
      "Ġvariable": 1188,
      "object": 1189,
      "ĠEx": 1190,
      "csv": 1191,
      "ĠX": 1192,
      "the": 1193,
      "Ġmethod": 1194,
      "å¤": 1195,
      "values": 1196,
      "{}": 1197,
      "uess": 1198,
      "Ġpo": 1199,
      "Ġpath": 1200,
      "Ġdate": 1201,
      "Ñĭ": 1202,
      "Ġdf": 1203,
      "find": 1204,
      "ext": 1205,
      "join": 1206,
      "Ex": 1207,
      "ĠĠĠĠĠĠĠĠĠ": 1208,
      "write": 1209,
      "mmand": 1210,
      "ON": 1211,
      "ĠSt": 1212,
      "Ġgiven": 1213,
      "vent": 1214,
      "Ġsize": 1215,
      "total": 1216,
      "Ġsecond": 1217,
      "Ġhi": 1218,
      "ÑĮ": 1219,
      "]))": 1220,
      "np": 1221,
      "ï¼ļ": 1222,
      "ìĿ": 1223,
      "ded": 1224,
      "ark": 1225,
      "ating": 1226,
      "Ġgo": 1227,
      "Ñı": 1228,
      "igh": 1229,
      "iel": 1230,
      "stance": 1231,
      "first": 1232,
      "25": 1233,
      "Ġ**": 1234,
      "Ñĩ": 1235,
      "=[": 1236,
      "å°": 1237,
      "column": 1238,
      "Ġtarget": 1239,
      "htt": 1240,
      "ake": 1241,
      "urtle": 1242,
      "pace": 1243,
      "mount": 1244,
      "nd": 1245,
      "lease": 1246,
      "Ġid": 1247,
      "ĠReturn": 1248,
      "roup": 1249,
      "uth": 1250,
      "è¯": 1251,
      "words": 1252,
      "ameter": 1253,
      "ho": 1254,
      "char": 1255,
      "tra": 1256,
      "Name": 1257,
      "ning": 1258,
      "Ġstate": 1259,
      "ans": 1260,
      "://": 1261,
      "indow": 1262,
      "Ġos": 1263,
      "99": 1264,
      "Ġusing": 1265,
      "width": 1266,
      "ward": 1267,
      "valid": 1268,
      "15": 1269,
      "Ġ')": 1270,
      "Ġposition": 1271,
      "orm": 1272,
      "ãĢĤ": 1273,
      "items": 1274,
      "Ġ-=": 1275,
      "AT": 1276,
      "Ġsys": 1277,
      "ner": 1278,
      "Ġsu": 1279,
      "ĠThis": 1280,
      "ield": 1281,
      "RE": 1282,
      "Ġarg": 1283,
      "inue": 1284,
      "ython": 1285,
      "ose": 1286,
      "Ġcor": 1287,
      "Ã©": 1288,
      "ĠK": 1289,
      "'))": 1290,
      "Ġmatrix": 1291,
      "Ġread": 1292,
      "Ġspe": 1293,
      "çĶ¨": 1294,
      "Ġinto": 1295,
      "title": 1296,
      "che": 1297,
      "ull": 1298,
      "ename": 1299,
      "ible": 1300,
      "vis": 1301,
      "gest": 1302,
      "utf": 1303,
      "Ġshould": 1304,
      "ven": 1305,
      "height": 1306,
      "quare": 1307,
      "Ġwords": 1308,
      "ions": 1309,
      "Ġvalid": 1310,
      "ower": 1311,
      "Ġq": 1312,
      "ring": 1313,
      "here": 1314,
      "è¾": 1315,
      "fig": 1316,
      "ĠY": 1317,
      "åŃĹ": 1318,
      "Ġpython": 1319,
      "matrix": 1320,
      "comp": 1321,
      "angle": 1322,
      "Ġ12": 1323,
      "åº": 1324,
      "!\")": 1325,
      "Ġiter": 1326,
      "ilename": 1327,
      "duct": 1328,
      "led": 1329,
      "curs": 1330,
      "tes": 1331,
      "card": 1332,
      "imal": 1333,
      "ault": 1334,
      "inter": 1335,
      "ctor": 1336,
      "udent": 1337,
      "igit": 1338,
      "ĠĠĊ": 1339,
      "ĠĠĠĠčĊ": 1340,
      "Ġ'__": 1341,
      "---": 1342,
      "cor": 1343,
      "gre": 1344,
      "Ġthan": 1345,
      "æī": 1346,
      "float": 1347,
      "hat": 1348,
      "insert": 1349,
      "ĠIf": 1350,
      "OR": 1351,
      "vers": 1352,
      "__':": 1353,
      "position": 1354,
      "bs": 1355,
      "Ġdif": 1356,
      "Ġ',": 1357,
      "ĠCo": 1358,
      "quest": 1359,
      "Ġdict": 1360,
      "Ġla": 1361,
      "ally": 1362,
      "False": 1363,
      "0000": 1364,
      "ĠĠĠĠĠĠĠĠĠĠĠĠĠĠĠĠĠĠĠĠĠĠĠĠĠĠĠ": 1365,
      "Ġany": 1366,
      "ãĤ": 1367,
      "ä¸Ģä¸ª": 1368,
      "by": 1369,
      "Ġcharact": 1370,
      "EN": 1371,
      "æĪ": 1372,
      "ous": 1373,
      "Ġrun": 1374,
      "Ġli": 1375,
      "Ġthen": 1376,
      "Ġoper": 1377,
      "vi": 1378,
      "Ġtree": 1379,
      "ado": 1380,
      "shape": 1381,
      "log": 1382,
      "base": 1383,
      "Ġpart": 1384,
      "Ġve": 1385,
      "image": 1386,
      "Ġscore": 1387,
      "itial": 1388,
      "Ġnumpy": 1389,
      "ĠÑģ": 1390,
      "ifi": 1391,
      "Ġstack": 1392,
      "Ġonly": 1393,
      "Data": 1394,
      "Ġraise": 1395,
      "og": 1396,
      "not": 1397,
      "atter": 1398,
      "output": 1399,
      "Ġimage": 1400,
      "AR": 1401,
      "Ġcontinue": 1402,
      "check": 1403,
      "Ġsorted": 1404,
      "inary": 1405,
      "Ġdel": 1406,
      "Ġcolor": 1407,
      "ĠÐ¿": 1408,
      "imum": 1409,
      "strip": 1410,
      "choice": 1411,
      "ative": 1412,
      "Ġprogram": 1413,
      "30": 1414,
      "Ġloop": 1415,
      "lobal": 1416,
      "Ġinter": 1417,
      "'t": 1418,
      "Ġent": 1419,
      "Ġday": 1420,
      "ĠÐ²": 1421,
      "Ġ('": 1422,
      "io": 1423,
      "ste": 1424,
      "ia": 1425,
      "tree": 1426,
      "url": 1427,
      "twe": 1428,
      "rt": 1429,
      "+=": 1430,
      "close": 1431,
      "Ġmid": 1432,
      "ru": 1433,
      "#!": 1434,
      "ç¬": 1435,
      "year": 1436,
      "show": 1437,
      "cy": 1438,
      "Ġgener": 1439,
      "Ġ[\"": 1440,
      "Ġheight": 1441,
      "ĠNode": 1442,
      "Ġanswer": 1443,
      "stack": 1444,
      "ĠDe": 1445,
      "ask": 1446,
      "sp": 1447,
      "Ġbase": 1448,
      "Ġlabel": 1449,
      "with": 1450,
      "python": 1451,
      "pect": 1452,
      "Ġchoice": 1453,
      "Ġmake": 1454,
      "mail": 1455,
      "ĠĠĠĠĠĠĠĠĠĠĠĠĊ": 1456,
      "Ġdictionary": 1457,
      "Ġinteger": 1458,
      "uthor": 1459,
      "ument": 1460,
      "fter": 1461,
      "íķ": 1462,
      "Ġmult": 1463,
      "Ġ`": 1464,
      "usr": 1465,
      "Ġcalcul": 1466,
      "Ġfe": 1467,
      "ÐµÐ½": 1468,
      "quence": 1469,
      "Ġtrain": 1470,
      "other": 1471,
      "AL": 1472,
      "rection": 1473,
      "stru": 1474,
      "any": 1475,
      "Ġused": 1476,
      "round": 1477,
      "gor": 1478,
      "cent": 1479,
      "14": 1480,
      "Ġreturns": 1481,
      "Ġad": 1482,
      "cont": 1483,
      "Ġ//": 1484,
      "Number": 1485,
      "000": 1486,
      "Ġmod": 1487,
      "child": 1488,
      "ee": 1489,
      "Ġpygame": 1490,
      "ater": 1491,
      "(),": 1492,
      "},": 1493,
      "Ġplay": 1494,
      "à¸": 1495,
      "ited": 1496,
      "Ġ>>>": 1497,
      "Ġpd": 1498,
      "Ġtra": 1499,
      "Ġassert": 1500,
      "ai": 1501,
      "go": 1502,
      "numbers": 1503,
      "åħ¥": 1504,
      "18": 1505,
      "ore": 1506,
      "search": 1507,
      "Ġyear": 1508,
      "Pro": 1509,
      "bu": 1510,
      "Ġbu": 1511,
      "verage": 1512,
      "frame": 1513,
      "https": 1514,
      "Ġå": 1515,
      "inked": 1516,
      "Ġorder": 1517,
      "....": 1518,
      "16": 1519,
      "æł": 1520,
      "Ġ.": 1521,
      "oc": 1522,
      "ID": 1523,
      "enu": 1524,
      "Ġax": 1525,
      "Ã¡": 1526,
      "sq": 1527,
      "letter": 1528,
      "Ġenter": 1529,
      "Input": 1530,
      "To": 1531,
      "Ġcommand": 1532,
      "remove": 1533,
      "Ġcoding": 1534,
      "ä¸º": 1535,
      "Ã£": 1536,
      "#!/": 1537,
      "Equal": 1538,
      "cket": 1539,
      "ting": 1540,
      ",\"": 1541,
      "side": 1542,
      "ĠĠĠĠĠĠĠĠĠĠ": 1543,
      "13": 1544,
      "lib": 1545,
      "Ar": 1546,
      "Ã§": 1547,
      "der": 1548,
      "ES": 1549,
      "stat": 1550,
      "ature": 1551,
      "Ã£o": 1552,
      "Ġstep": 1553,
      "ĠReturns": 1554,
      "Ġag": 1555,
      "ify": 1556,
      "Ġsame": 1557,
      "ĠJ": 1558,
      "Ġmodel": 1559,
      "æľī": 1560,
      "Ġwidth": 1561,
      "randint": 1562,
      "erge": 1563,
      "ĠQ": 1564,
      "last": 1565,
      "________": 1566,
      "éĩ": 1567,
      "be": 1568,
      "(-": 1569,
      "19": 1570,
      "ĠValue": 1571,
      ":\",": 1572,
      "ures": 1573,
      "Ġcase": 1574,
      "actor": 1575,
      "This": 1576,
      "åĢ": 1577,
      "tr": 1578,
      ")-": 1579,
      "Ġcurr": 1580,
      "Ġed": 1581,
      "~~": 1582,
      "Ġwant": 1583,
      "mes": 1584,
      "ank": 1585,
      "lete": 1586,
      "Ġbetwe": 1587,
      "'])": 1588,
      "33": 1589,
      "Ġthere": 1590,
      "###": 1591,
      "Ġbetween": 1592,
      "draw": 1593,
      "å¼": 1594,
      "ä¹": 1595,
      "lamb": 1596,
      "æ³": 1597,
      "very": 1598,
      "è¾ĵ": 1599,
      "Ġchange": 1600,
      "Ġum": 1601,
      "lic": 1602,
      "Ġcard": 1603,
      "Ġvis": 1604,
      "pass": 1605,
      "ĠTree": 1606,
      "ĉĊ": 1607,
      "bl": 1608,
      "lst": 1609,
      "ng": 1610,
      "Ġerror": 1611,
      "mid": 1612,
      "Ġneed": 1613,
      "Ġloc": 1614,
      "ars": 1615,
      "Ġremove": 1616,
      "ãĥ": 1617,
      "atch": 1618,
      "****************": 1619,
      "scri": 1620,
      "fit": 1621,
      "lambda": 1622,
      "SE": 1623,
      "ä¸Ń": 1624,
      "pr": 1625,
      "Ġdistance": 1626,
      "Bo": 1627,
      "ä¸į": 1628,
      "Ġsearch": 1629,
      "ww": 1630,
      "upper": 1631,
      "ical": 1632,
      "weight": 1633,
      "keys": 1634,
      "ĠPro": 1635,
      "ÑĢÐ°": 1636,
      "spe": 1637,
      "vie": 1638,
      "Ġact": 1639,
      "Di": 1640,
      "igits": 1641,
      "Ġfound": 1642,
      "eros": 1643,
      "åĽ": 1644,
      "feren": 1645,
      "ĠPython": 1646,
      "ollow": 1647,
      ")+": 1648,
      "top": 1649,
      "erson": 1650,
      "idx": 1651,
      "Ġmonth": 1652,
      "Ġ'))": 1653,
      "assertEqual": 1654,
      "Ġmessage": 1655,
      "las": 1656,
      "ific": 1657,
      "ish": 1658,
      "Ġgraph": 1659,
      "__\":": 1660,
      "Ġsy": 1661,
      "ordin": 1662,
      "port": 1663,
      "'],": 1664,
      "case": 1665,
      "Ġcsv": 1666,
      "åľ": 1667,
      "Ġweight": 1668,
      "Ġ\"\"": 1669,
      "use": 1670,
      "('\\": 1671,
      "hel": 1672,
      "ush": 1673,
      "work": 1674,
      "Ġ25": 1675,
      "Ġsome": 1676,
      "Ġover": 1677,
      "!!": 1678,
      "Con": 1679,
      "Ġglobal": 1680,
      "lear": 1681,
      "model": 1682,
      "Ġlog": 1683,
      "Ġlike": 1684,
      "iss": 1685,
      "Ġwhere": 1686,
      "blem": 1687,
      "info": 1688,
      "è¡¨": 1689,
      "cord": 1690,
      "leep": 1691,
      "su": 1692,
      "Ġ\"__": 1693,
      "åĩº": 1694,
      "replace": 1695,
      "IT": 1696,
      "ssible": 1697,
      "Ġop": 1698,
      "Ġexample": 1699,
      ".\"\"\"": 1700,
      "table": 1701,
      "graph": 1702,
      "No": 1703,
      "Ch": 1704,
      "Ġgrid": 1705,
      "Ġwin": 1706,
      "fa": 1707,
      "vide": 1708,
      "element": 1709,
      "Ġrepre": 1710,
      "na": 1711,
      "Ġempty": 1712,
      ",'": 1713,
      "ash": 1714,
      "Ġtable": 1715,
      "ml": 1716,
      "instance": 1717,
      "Ġdisplay": 1718,
      "}\")": 1719,
      "Ġage": 1720,
      "Ġwhen": 1721,
      "lines": 1722,
      "Ġguess": 1723,
      "ameters": 1724,
      "è®": 1725,
      "Ġ15": 1726,
      "Ġass": 1727,
      "pend": 1728,
      "env": 1729,
      "File": 1730,
      "Ġpoints": 1731,
      "queue": 1732,
      "load": 1733,
      "tack": 1734,
      "Ġelements": 1735,
      "ĠĠĠĠĠĠĠĠĠĠĠĠĠ": 1736,
      "Ð¿": 1737,
      "ek": 1738,
      "ract": 1739,
      "utes": 1740,
      "CT": 1741,
      "Ġsc": 1742,
      "Ġdraw": 1743,
      "40": 1744,
      "Ġ\"\\": 1745,
      "ken": 1746,
      "ecute": 1747,
      "Ġlista": 1748,
      "reen": 1749,
      "Ġsolution": 1750,
      "Ġback": 1751,
      "De": 1752,
      "yp": 1753,
      "Ġsup": 1754,
      "price": 1755,
      "Ġhere": 1756,
      "lection": 1757,
      "æĹ": 1758,
      "ery": 1759,
      "Ġmore": 1760,
      "sta": 1761,
      "dic": 1762,
      "Ġqueue": 1763,
      "ighb": 1764,
      "parent": 1765,
      "Ġutf": 1766,
      "++": 1767,
      "ts": 1768,
      "ä»¥": 1769,
      "ome": 1770,
      "Ð¾Ð²": 1771,
      "umer": 1772,
      "dir": 1773,
      "Ġcall": 1774,
      "Ġtop": 1775,
      "å¯": 1776,
      "ries": 1777,
      "45": 1778,
      "Ġ{'": 1779,
      "lag": 1780,
      "17": 1781,
      "win": 1782,
      "Ġ[[": 1783,
      "Ġtk": 1784,
      "He": 1785,
      "ule": 1786,
      "sy": 1787,
      "åĨ": 1788,
      "fore": 1789,
      "RO": 1790,
      "method": 1791,
      "trib": 1792,
      "ject": 1793,
      "ĠCon": 1794,
      "åĬ": 1795,
      "Ġcontain": 1796,
      "Ġbut": 1797,
      "aa": 1798,
      "åĪĹ": 1799,
      "Ġmust": 1800,
      "Ġinitial": 1801,
      "ipl": 1802,
      "uter": 1803,
      "60": 1804,
      "ĠAr": 1805,
      "pha": 1806,
      "AN": 1807,
      "target": 1808,
      "ÑĤÐµ": 1809,
      "Ġformat": 1810,
      "Value": 1811,
      "åı¯": 1812,
      "vo": 1813,
      "Ġupdate": 1814,
      "Ġparent": 1815,
      "now": 1816,
      "Ġans": 1817,
      "attern": 1818,
      "Ġreg": 1819,
      "month": 1820,
      "filename": 1821,
      "Please": 1822,
      "names": 1823,
      "tex": 1824,
      "ĠValueError": 1825,
      "ique": 1826,
      "Ġabo": 1827,
      "nect": 1828,
      "Ġfollow": 1829,
      "qui": 1830,
      "Ġ--": 1831,
      "Ð·": 1832,
      "ilter": 1833,
      "Of": 1834,
      "Se": 1835,
      "Ġwas": 1836,
      "ges": 1837,
      "Ġsm": 1838,
      "Ġoption": 1839,
      "pi": 1840,
      "Ġbinary": 1841,
      "ĠÐ½": 1842,
      "Ġes": 1843,
      "ols": 1844,
      "Ġhel": 1845,
      ":\")": 1846,
      ":]": 1847,
      "des": 1848,
      "Ġtrans": 1849,
      "æŀ": 1850,
      "Ġwork": 1851,
      "Ġtuple": 1852,
      "box": 1853,
      "Ġ11": 1854,
      "ues": 1855,
      "éĢ": 1856,
      "ê°": 1857,
      "Ġpop": 1858,
      "Ġchild": 1859,
      "part": 1860,
      "Ġsq": 1861,
      "del": 1862,
      "emp": 1863,
      "back": 1864,
      "String": 1865,
      "ference": 1866,
      "Ġcom": 1867,
      "ĠYou": 1868,
      "ze": 1869,
      "rou": 1870,
      "Ġits": 1871,
      "æ³ķ": 1872,
      "Ġdist": 1873,
      ".\"": 1874,
      "trans": 1875,
      "Test": 1876,
      "hand": 1877,
      "Ġdefault": 1878,
      "Ġamount": 1879,
      "Ġexist": 1880,
      "Ġrepresent": 1881,
      "Ġver": 1882,
      "copy": 1883,
      "ormal": 1884,
      "32": 1885,
      "tail": 1886,
      "ëĭ": 1887,
      "ĠĠĠĠĠĠĠĠĠĠĠĠĠĠ": 1888,
      "var": 1889,
      "Ġdoes": 1890,
      "Ġdatetime": 1891,
      "Ãº": 1892,
      "UT": 1893,
      "press": 1894,
      "reg": 1895,
      "lack": 1896,
      "================================": 1897,
      "Ġcal": 1898,
      "90": 1899,
      "umerate": 1900,
      "bot": 1901,
      "Ġhand": 1902,
      "math": 1903,
      "Ð¸Ñģ": 1904,
      "Ġturtle": 1905,
      "ĠTreeNode": 1906,
      ")/": 1907,
      "=(": 1908,
      "],[": 1909,
      "æĿ": 1910,
      "Ġlines": 1911,
      "Ġcar": 1912,
      "group": 1913,
      "Ġdec": 1914,
      "amb": 1915,
      "ey": 1916,
      "åĢ¼": 1917,
      "mean": 1918,
      "Ġsort": 1919,
      "update": 1920,
      "Ġsi": 1921,
      "create": 1922,
      "ments": 1923,
      "Ġcounter": 1924,
      "ular": 1925,
      "lista": 1926,
      "ĠĠĠĠĠĠĠĠčĊ": 1927,
      "cs": 1928,
      "Ġhigh": 1929,
      "func": 1930,
      "ç´": 1931,
      "Ġ30": 1932,
      ",-": 1933,
      "points": 1934,
      "atures": 1935,
      "åľ¨": 1936,
      "step": 1937,
      "man": 1938,
      "come": 1939,
      "function": 1940,
      "Ġ''": 1941,
      "Ġ50": 1942,
      "Ġpara": 1943,
      "Ġagain": 1944,
      "olve": 1945,
      "cost": 1946,
      "ail": 1947,
      "ircle": 1948,
      "æĸ¹": 1949,
      "Ġhow": 1950,
      "ĠCreate": 1951,
      "OD": 1952,
      "Tree": 1953,
      "]+": 1954,
      "Ġvalor": 1955,
      "Ġtri": 1956,
      "zz": 1957,
      "ĠÑ": 1958,
      "ÑģÑĤ": 1959,
      "Ġenumerate": 1960,
      "Ġsk": 1961,
      ".')": 1962,
      "Frame": 1963,
      "cc": 1964,
      "Ġcost": 1965,
      "Ġshow": 1966,
      "Ġter": 1967,
      "rough": 1968,
      "ida": 1969,
      "resh": 1970,
      "ource": 1971,
      "Ġprime": 1972,
      "æİ": 1973,
      "Ð¾Ð»": 1974,
      "sorted": 1975,
      "ha": 1976,
      "ĠFor": 1977,
      "loy": 1978,
      "book": 1979,
      "distance": 1980,
      "'):": 1981,
      "button": 1982,
      "Hel": 1983,
      "è¡Į": 1984,
      "alind": 1985,
      "Ġmap": 1986,
      ":-": 1987,
      "vious": 1988,
      "AM": 1989,
      "ç¬¦": 1990,
      "Ġcharacter": 1991,
      "ache": 1992,
      "els": 1993,
      "message": 1994,
      "execute": 1995,
      "run": 1996,
      "rop": 1997,
      "Ġnodes": 1998,
      "obj": 1999,
      "ponse": 2000,
      "22": 2001,
      "car": 2002,
      "Ġspec": 2003,
      "âĸ": 2004,
      "=[]": 2005,
      "omb": 2006,
      "creen": 2007,
      "Ġcell": 2008,
      "Ġitems": 2009,
      "second": 2010,
      "Ã³": 2011,
      "akes": 2012,
      "Ġinsert": 2013,
      "ility": 2014,
      "au": 2015,
      "pth": 2016,
      "Ġext": 2017,
      "Ġcl": 2018,
      "opt": 2019,
      "åºı": 2020,
      "Ġafter": 2021,
      "Ġcomple": 2022,
      "ger": 2023,
      "Ð¹": 2024,
      "ĠÐº": 2025,
      "gorith": 2026,
      "db": 2027,
      "å½": 2028,
      "ception": 2029,
      "Ġfinal": 2030,
      "counter": 2031,
      "oly": 2032,
      "ç±": 2033,
      "rit": 2034,
      "ĠListNode": 2035,
      "01": 2036,
      "tom": 2037,
      "Count": 2038,
      "lat": 2039,
      "OT": 2040,
      "åį": 2041,
      "ouse": 2042,
      "Ġpassword": 2043,
      "ik": 2044,
      "iece": 2045,
      "window": 2046,
      "åĩ½": 2047,
      "Ġplot": 2048,
      "Ġsing": 2049,
      "çĽ": 2050,
      "pected": 2051,
      "Time": 2052,
      "itive": 2053,
      "Ġlst": 2054,
      "Ġthrough": 2055,
      "å®ļ": 2056,
      "}')": 2057,
      "orld": 2058,
      "uff": 2059,
      "ass": 2060,
      "Le": 2061,
      "ĠÐ¸": 2062,
      "ç±»": 2063,
      "Ġrows": 2064,
      "80": 2065,
      "hip": 2066,
      "ÐµÑĤ": 2067,
      "ulation": 2068,
      "Col": 2069,
      "åħĥ": 2070,
      "Ġ&": 2071,
      "quen": 2072,
      "Ġconvert": 2073,
      "Ġtmp": 2074,
      "display": 2075,
      "dius": 2076,
      "cat": 2077,
      "åĩ½æķ°": 2078,
      "pack": 2079,
      "AB": 2080,
      "Ġlevel": 2081,
      "tuple": 2082,
      "})": 2083,
      "rows": 2084,
      "div": 2085,
      "Ġsp": 2086,
      "argv": 2087,
      "uments": 2088,
      "Ġreverse": 2089,
      "å¯¹": 2090,
      "ets": 2091,
      "ene": 2092,
      "Ġraw": 2093,
      "Ġcorrect": 2094,
      "thing": 2095,
      "Ġlow": 2096,
      "Ġselect": 2097,
      "çĤ": 2098,
      "ador": 2099,
      "ient": 2100,
      "sleep": 2101,
      "æį": 2102,
      "ustom": 2103,
      "ities": 2104,
      ")*": 2105,
      "vas": 2106,
      "Âł": 2107,
      "ob": 2108,
      "can": 2109,
      "rd": 2110,
      "ĠÐ´": 2111,
      "oney": 2112,
      "ada": 2113,
      "change": 2114,
      "ĠNum": 2115,
      "ches": 2116,
      "ays": 2117,
      "rome": 2118,
      "Sum": 2119,
      "IG": 2120,
      "cores": 2121,
      "\"):": 2122,
      "level": 2123,
      "ified": 2124,
      "screen": 2125,
      "author": 2126,
      "ĠĠĠĠĠĠĠĠĠĠĠĠĠĠĠĠĠĠĠĠĠĠĠĠĠĠĠĠĠĠĠ": 2127,
      "Ġpossible": 2128,
      "]):": 2129,
      "ude": 2130,
      "Word": 2131,
      "Ġsquare": 2132,
      "è¾ĵåħ¥": 2133,
      "Ġabs": 2134,
      "ION": 2135,
      "Ġsequence": 2136,
      "heap": 2137,
      "ĥ½": 2138,
      "Ġdis": 2139,
      "ĠWe": 2140,
      "andas": 2141,
      "Ġresults": 2142,
      "Ġturn": 2143,
      "Ġ]": 2144,
      "Ġmatch": 2145,
      "try": 2146,
      "Index": 2147,
      "Ġbest": 2148,
      "Ġargs": 2149,
      "Ġsee": 2150,
      "sk": 2151,
      "[:,": 2152,
      "Ġwrite": 2153,
      "dif": 2154,
      "Ġstat": 2155,
      "Val": 2156,
      "]==": 2157,
      "Ġ((": 2158,
      "Ġour": 2159,
      "Ġequal": 2160,
      "ster": 2161,
      "rate": 2162,
      ">>>": 2163,
      "Ġspace": 2164,
      "ĠAn": 2165,
      "stion": 2166,
      "ĠIN": 2167,
      "Ġevery": 2168,
      "Ġprev": 2169,
      "ision": 2170,
      "Ġ\"+": 2171,
      "Ġ13": 2172,
      "åĪ°": 2173,
      "23": 2174,
      "ĠNo": 2175,
      "ale": 2176,
      "mon": 2177,
      "cell": 2178,
      "Ġvisited": 2179,
      "ole": 2180,
      "qua": 2181,
      "lable": 2182,
      "ario": 2183,
      "Ãºm": 2184,
      "ĴĮ": 2185,
      "andid": 2186,
      "Ġpe": 2187,
      "Ġproduct": 2188,
      "An": 2189,
      "ings": 2190,
      "ccess": 2191,
      "ten": 2192,
      "cli": 2193,
      "å¾": 2194,
      "Ġlay": 2195,
      "fix": 2196,
      "Ġsent": 2197,
      "two": 2198,
      "çĤ¹": 2199,
      "Ġser": 2200,
      "21": 2201,
      "]=": 2202,
      "img": 2203,
      "ock": 2204,
      "Create": 2205,
      "Ġthem": 2206,
      "Ġ'.": 2207,
      "]),": 2208,
      "Ġnumero": 2209,
      "Return": 2210,
      "digit": 2211,
      "çİ": 2212,
      "Ġ'\\": 2213,
      "html": 2214,
      "ild": 2215,
      "sys": 2216,
      "AC": 2217,
      "Ġmerge": 2218,
      "open": 2219,
      "éĹ": 2220,
      "Ġrand": 2221,
      "ĠInput": 2222,
      "Ġwould": 2223,
      "imit": 2224,
      "Ġmany": 2225,
      "Ġnames": 2226,
      "Output": 2227,
      "Ġisinstance": 2228,
      "sor": 2229,
      "Ġ16": 2230,
      "è¦": 2231,
      "Ġpair": 2232,
      "Ġret": 2233,
      "nodes": 2234,
      "åĮ": 2235,
      "argest": 2236,
      "Ġgre": 2237,
      "Ġcontains": 2238,
      "Ġevent": 2239,
      "ente": 2240,
      "Dict": 2241,
      "æŀľ": 2242,
      "Ġtyp": 2243,
      "Ġnow": 2244,
      "Ġorig": 2245,
      "æĹ¶": 2246,
      "ÐµÐ´": 2247,
      "Ġ$": 2248,
      "¦Ĥ": 2249,
      "Ġfunc": 2250,
      "æ¯": 2251,
      "speed": 2252,
      "Ġprice": 2253,
      "Ġletters": 2254,
      "24": 2255,
      "Ġmost": 2256,
      "ìŀ": 2257,
      "Ġfont": 2258,
      "Ġround": 2259,
      "åĽŀ": 2260,
      "comm": 2261,
      "ä¼": 2262,
      "cry": 2263,
      "down": 2264,
      "'].": 2265,
      "mplement": 2266,
      "ÐµÑĢ": 2267,
      "ove": 2268,
      "prime": 2269,
      "ĠData": 2270,
      "plotlib": 2271,
      "Ġcalculate": 2272,
      "wh": 2273,
      "'),": 2274,
      "ian": 2275,
      "Th": 2276,
      "Ġav": 2277,
      "Type": 2278,
      "TH": 2279,
      "gorithm": 2280,
      "cap": 2281,
      "als": 2282,
      "Ġbool": 2283,
      "igite": 2284,
      "æĢ": 2285,
      "Ġhttps": 2286,
      "Ġdirection": 2287,
      "empty": 2288,
      "Ñħ": 2289,
      "Ġthey": 2290,
      "PI": 2291,
      "abc": 2292,
      "rtype": 2293,
      "Ġda": 2294,
      "Ġdigit": 2295,
      "åŃĹç¬¦": 2296,
      "sqrt": 2297,
      "Ġlists": 2298,
      "ambda": 2299,
      "Ġsuper": 2300,
      "(*": 2301,
      "Ġ##": 2302,
      "<=": 2303,
      "ension": 2304,
      "Ġ{}\".": 2305,
      ":\\": 2306,
      "alle": 2307,
      "ined": 2308,
      "Ġph": 2309,
      "Ġscreen": 2310,
      "stem": 2311,
      "dist": 2312,
      "è¦ģ": 2313,
      "bab": 2314,
      "alindrome": 2315,
      "ĠTest": 2316,
      "ä¾": 2317,
      "Ġgroup": 2318,
      "LL": 2319,
      "ferent": 2320,
      "mber": 2321,
      "ĠnÃºm": 2322,
      "æĪĲ": 2323,
      "Ġjust": 2324,
      "Ġmark": 2325,
      "Ġsplit": 2326,
      "roll": 2327,
      "Ġunit": 2328,
      "riter": 2329,
      "ĠÃ©": 2330,
      "mbol": 2331,
      "Ġpad": 2332,
      "Ġwhat": 2333,
      "Me": 2334,
      "si": 2335,
      "Ġwindow": 2336,
      "Ġdivis": 2337,
      "Ð¾Ð´": 2338,
      "Ġblock": 2339,
      "mark": 2340,
      "åĲİ": 2341,
      "Ġaction": 2342,
      "Ġcli": 2343,
      "mult": 2344,
      "Pos": 2345,
      "Ġdataset": 2346,
      "!')": 2347,
      "Ġfollowing": 2348,
      "ĠDef": 2349,
      "()))": 2350,
      "AD": 2351,
      "Ġvariables": 2352,
      "rest": 2353,
      "Ġcolumns": 2354,
      "Ġtimes": 2355,
      "Ġrequest": 2356,
      "------------": 2357,
      "Ġ...": 2358,
      "Ġinstance": 2359,
      "Ġlower": 2360,
      "Ã§Ã£o": 2361,
      "ĠÑĩ": 2362,
      "lot": 2363,
      "Pri": 2364,
      "OU": 2365,
      "Array": 2366,
      "Hello": 2367,
      "ongest": 2368,
      "ront": 2369,
      "dle": 2370,
      "sample": 2371,
      "ordinates": 2372,
      "Ġsw": 2373,
      "ier": 2374,
      "Ġmean": 2375,
      "Ġcharacters": 2376,
      "lections": 2377,
      "istic": 2378,
      "Ġjson": 2379,
      "Ġ}": 2380,
      "amount": 2381,
      "For": 2382,
      "ç´ł": 2383,
      "wise": 2384,
      "ized": 2385,
      "coding": 2386,
      "æľĢ": 2387,
      "Ġfun": 2388,
      "Ġlambda": 2389,
      "Ġform": 2390,
      "åĴĮ": 2391,
      "Ġexit": 2392,
      "ĠAdd": 2393,
      "reverse": 2394,
      "exp": 2395,
      "ume": 2396,
      "Ġside": 2397,
      "Ġeven": 2398,
      "ĠSe": 2399,
      "fill": 2400,
      "Ġnon": 2401,
      "Ġfunctions": 2402,
      "Ġexp": 2403,
      "cursor": 2404,
      "ĠPar": 2405,
      "Ġcopy": 2406,
      "Ġsave": 2407,
      "Ġperson": 2408,
      "lem": 2409,
      "action": 2410,
      ");": 2411,
      "->": 2412,
      "Ġfre": 2413,
      "exit": 2414,
      "Ġstop": 2415,
      "123": 2416,
      "uzz": 2417,
      "center": 2418,
      "Ġsingle": 2419,
      "Ġâ": 2420,
      "face": 2421,
      "ĠIt": 2422,
      "What": 2423,
      "json": 2424,
      "formation": 2425,
      "password": 2426,
      "wargs": 2427,
      "ours": 2428,
      "200": 2429,
      "Ġim": 2430,
      "è¿Ļ": 2431,
      "Ġest": 2432,
      "ĠÐ¾": 2433,
      "Ġaverage": 2434,
      "uplic": 2435,
      "Ð¾ÑĢ": 2436,
      "ĠCheck": 2437,
      "Ġmay": 2438,
      "loop": 2439,
      "Ġmatplotlib": 2440,
      "answer": 2441,
      ":',": 2442,
      "nection": 2443,
      "å¹": 2444,
      "Ġdown": 2445,
      "cho": 2446,
      "=\"\"": 2447,
      "ç»Ħ": 2448,
      "Ġpandas": 2449,
      "\"],": 2450,
      "Ġalso": 2451,
      "Īĺ": 2452,
      "version": 2453,
      "Ġdigits": 2454,
      "Ġprevious": 2455,
      "åī": 2456,
      "Point": 2457,
      "ler": 2458,
      "Ġtf": 2459,
      "]*": 2460,
      "Ð±": 2461,
      "Ġobj": 2462,
      "åı¯ä»¥": 2463,
      "Ġtrue": 2464,
      "ices": 2465,
      "ug": 2466,
      "Ġvector": 2467,
      "Ġeval": 2468,
      "Button": 2469,
      "Ġurl": 2470,
      "this": 2471,
      "Ġstrings": 2472,
      "Ġ1000": 2473,
      "Your": 2474,
      "Ġcho": 2475,
      "HE": 2476,
      "ba": 2477,
      "tk": 2478,
      "Ġdifferent": 2479,
      "ost": 2480,
      "sal": 2481,
      "Ġheap": 2482,
      "loyee": 2483,
      "Ġgenerate": 2484,
      "phab": 2485,
      "ÑĤÑĮ": 2486,
      "Ġintegers": 2487,
      "Ġ18": 2488,
      "è¿Ķ": 2489,
      "perty": 2490,
      "command": 2491,
      "acy": 2492,
      "Ġcalled": 2493,
      "bar": 2494,
      "ople": 2495,
      "cal": 2496,
      "ready": 2497,
      "learn": 2498,
      "Ð°Ð½": 2499,
      "Ġtheir": 2500,
      "ĠOutput": 2501,
      "turtle": 2502,
      "Ġcv": 2503,
      "Que": 2504,
      "Ġplace": 2505,
      "ifier": 2506,
      "ula": 2507,
      "Ġoff": 2508,
      "ìĹ": 2509,
      "over": 2510,
      "rel": 2511,
      "Ġ14": 2512,
      "gen": 2513,
      "\"{": 2514,
      "1000": 2515,
      "mut": 2516,
      "Ä±": 2517,
      "ross": 2518,
      "balance": 2519,
      "medi": 2520,
      "ination": 2521,
      "Ġlook": 2522,
      "alance": 2523,
      "forward": 2524,
      "ç®": 2525,
      "æŃ": 2526,
      "ateg": 2527,
      "ç§": 2528,
      "äºĨ": 2529,
      "Ġdirect": 2530,
      "match": 2531,
      "guess": 2532,
      "ĠNumber": 2533,
      "64": 2534,
      "ful": 2535,
      "square": 2536,
      "Ġbutton": 2537,
      "ĠPrint": 2538,
      "æĮ": 2539,
      "Ġ\".": 2540,
      "std": 2541,
      "ĠCh": 2542,
      "vals": 2543,
      "ĉĉĊ": 2544,
      "hello": 2545,
      "ns": 2546,
      "Example": 2547,
      "OL": 2548,
      "product": 2549,
      "IM": 2550,
      "HT": 2551,
      "parse": 2552,
      "ire": 2553,
      "]['": 2554,
      "Player": 2555,
      "cards": 2556,
      "coord": 2557,
      "ana": 2558,
      "Ġtake": 2559,
      "config": 2560,
      "dis": 2561,
      "Ġke": 2562,
      "ombre": 2563,
      "Ġcollections": 2564,
      "ÃŃ": 2565,
      "åħĥç´ł": 2566,
      "è¿ĶåĽŀ": 2567,
      "Ġdon": 2568,
      "Set": 2569,
      "area": 2570,
      "Ġord": 2571,
      "curacy": 2572,
      "dim": 2573,
      "ä¸ĭ": 2574,
      "Ġfilename": 2575,
      "location": 2576,
      "75": 2577,
      "columns": 2578,
      "Digite": 2579,
      "pression": 2580,
      "bb": 2581,
      "Ñİ": 2582,
      "abs": 2583,
      "ization": 2584,
      "older": 2585,
      "ING": 2586,
      "prev": 2587,
      "':'": 2588,
      "axis": 2589,
      "Ġpas": 2590,
      "æĸ¹æ³ķ": 2591,
      "Ġflag": 2592,
      "ivot": 2593,
      "ew": 2594,
      "Ġassign": 2595,
      "stant": 2596,
      "Ġí": 2597,
      "ving": 2598,
      "term": 2599,
      "Ġfib": 2600,
      "font": 2601,
      "We": 2602,
      "Ġarea": 2603,
      "select": 2604,
      "Ġaxis": 2605,
      "Ġoperator": 2606,
      "Ġfactor": 2607,
      "let": 2608,
      "Total": 2609,
      "oto": 2610,
      "ighbors": 2611,
      "Ġcomm": 2612,
      "cursive": 2613,
      "scription": 2614,
      "gener": 2615,
      "Ġidx": 2616,
      "Ġsal": 2617,
      "Ð»Ð¸": 2618,
      "Ġsim": 2619,
      "ah": 2620,
      "Ġsql": 2621,
      "Ġob": 2622,
      "ather": 2623,
      "dition": 2624,
      "ÐµÐ¼": 2625,
      "lasses": 2626,
      "pp": 2627,
      "ĠĠĠĠĠĠĠĠĠĠĠĠĠĠĠĠĠ": 2628,
      "]])": 2629,
      "ump": 2630,
      "stra": 2631,
      "Ġcap": 2632,
      "Ġstudent": 2633,
      "except": 2634,
      "off": 2635,
      "angu": 2636,
      "Ġshape": 2637,
      "Ġattrib": 2638,
      "rib": 2639,
      "Ġbelow": 2640,
      "view": 2641,
      "Ġold": 2642,
      "util": 2643,
      "Ġbefore": 2644,
      "riend": 2645,
      "Ġcomb": 2646,
      "iles": 2647,
      "ä¸²": 2648,
      "Ð½Ð°": 2649,
      "ĠExample": 2650,
      "net": 2651,
      "phabet": 2652,
      "ds": 2653,
      "Ġsa": 2654,
      "User": 2655,
      "ody": 2656,
      "dden": 2657,
      "Ġthree": 2658,
      "Ġ60": 2659,
      "Class": 2660,
      "~~~~": 2661,
      "ĠĠĠĊ": 2662,
      "ET": 2663,
      "Ġlocation": 2664,
      ":.": 2665,
      "Ġfiles": 2666,
      "oper": 2667,
      "dot": 2668,
      "ailable": 2669,
      "ìĿ´": 2670,
      "Ġsample": 2671,
      "==\"": 2672,
      "Ġbeen": 2673,
      "izz": 2674,
      "å·": 2675,
      "Label": 2676,
      "OW": 2677,
      "gative": 2678,
      "Ġboth": 2679,
      "fre": 2680,
      "Ġstore": 2681,
      "udents": 2682,
      "pher": 2683,
      "ores": 2684,
      "duce": 2685,
      "ĠĠčĊ": 2686,
      "70": 2687,
      "plan": 2688,
      "ior": 2689,
      "Sort": 2690,
      "å¤§": 2691,
      "ëĭ¤": 2692,
      "éĿ": 2693,
      "å°ı": 2694,
      "www": 2695,
      "curr": 2696,
      "AS": 2697,
      "edge": 2698,
      "Python": 2699,
      "delete": 2700,
      "Ġtitle": 2701,
      "Ġus": 2702,
      "\"])": 2703,
      "Ġanother": 2704,
      "Ġmaximum": 2705,
      "ness": 2706,
      "iple": 2707,
      "Len": 2708,
      "cu": 2709,
      "Ġdp": 2710,
      "Ð³": 2711,
      "ä½¿": 2712,
      "Ġtakes": 2713,
      "Ġhash": 2714,
      "Ġcity": 2715,
      "alculate": 2716,
      "Ġfin": 2717,
      "variable": 2718,
      "*(": 2719,
      "ED": 2720,
      "black": 2721,
      "Ġmultipl": 2722,
      "irth": 2723,
      "ound": 2724,
      "alf": 2725,
      ">=": 2726,
      "ao": 2727,
      "åıĺ": 2728,
      "urse": 2729,
      "Ġ{\"": 2730,
      "ression": 2731,
      "Ġrot": 2732,
      "è§": 2733,
      "Ġ19": 2734,
      "Ġbot": 2735,
      "è½": 2736,
      "äºİ": 2737,
      "cion": 2738,
      "åĪĨ": 2739,
      "student": 2740,
      "ats": 2741,
      "Ġ40": 2742,
      "ĠEn": 2743,
      "Res": 2744,
      "city": 2745,
      "UM": 2746,
      "Ġalready": 2747,
      "ender": 2748,
      "Ġincre": 2749,
      "ç¤": 2750,
      "ons": 2751,
      "alpha": 2752,
      "rank": 2753,
      "ĠTh": 2754,
      "tered": 2755,
      "78": 2756,
      "Ġlayer": 2757,
      "åİ": 2758,
      "éĻ": 2759,
      "zeros": 2760,
      "Ġtraining": 2761,
      "alth": 2762,
      "ÑĨ": 2763,
      "Ġabove": 2764,
      "hift": 2765,
      "alk": 2766,
      "Ġbl": 2767,
      "ëĬ": 2768,
      "æĶ": 2769,
      "ĠGet": 2770,
      "room": 2771,
      "Ġlong": 2772,
      "Ġedge": 2773,
      "Ġtkinter": 2774,
      "ait": 2775,
      "Ġyield": 2776,
      "http": 2777,
      "Ġdim": 2778,
      "=='": 2779,
      "mi": 2780,
      "ç¬¬": 2781,
      "å±": 2782,
      "ĠĠĠĠĠĠĠĠĠĠĠĠĠĠĠĠĊ": 2783,
      "earch": 2784,
      "men": 2785,
      "Ð½Ñĭ": 2786,
      "wn": 2787,
      "æ¬": 2788,
      "ĠâĢ": 2789,
      "å¦Ĥ": 2790,
      "ç¤º": 2791,
      "Ġincl": 2792,
      "Ġzero": 2793,
      "Ġless": 2794,
      "Par": 2795,
      "Ġimp": 2796,
      "Ġab": 2797,
      "Ġbook": 2798,
      "allest": 2799,
      "Ġcursor": 2800,
      "ĠnÃºmero": 2801,
      "block": 2802,
      "onac": 2803,
      "55": 2804,
      "Ġê": 2805,
      "ls": 2806,
      "Ġprocess": 2807,
      "Max": 2808,
      "ND": 2809,
      "åŃĲ": 2810,
      "Text": 2811,
      "Ġ?": 2812,
      "æīĢ": 2813,
      "atrix": 2814,
      "}\".": 2815,
      "ä¾ĭ": 2816,
      "Ġvar": 2817,
      "Ġargument": 2818,
      "Ġang": 2819,
      "################################################################": 2820,
      "ados": 2821,
      "IC": 2822,
      ".\\": 2823,
      "Ġway": 2824,
      "Ġproblem": 2825,
      "Ġseg": 2826,
      "Ġkeys": 2827,
      "æĸĩ": 2828,
      "Ġzip": 2829,
      "ÐµÐ½Ð¸": 2830,
      "ä½į": 2831,
      "correct": 2832,
      "ĠZ": 2833,
      "íķĺ": 2834,
      "entry": 2835,
      "predict": 2836,
      "rase": 2837,
      "Un": 2838,
      "::": 2839,
      "Ġwhe": 2840,
      "Ġupper": 2841,
      "Ġresponse": 2842,
      "xx": 2843,
      "Board": 2844,
      "Ġsign": 2845,
      "Ġalgorithm": 2846,
      "dient": 2847,
      "Ġoriginal": 2848,
      "cri": 2849,
      "åıĤ": 2850,
      "ando": 2851,
      "conta": 2852,
      "26": 2853,
      "Ġfield": 2854,
      "({": 2855,
      "gin": 2856,
      "af": 2857,
      "Ġbox": 2858,
      "ĠÐ¿ÑĢ": 2859,
      "Id": 2860,
      "aj": 2861,
      "ìĦ": 2862,
      "________________": 2863,
      "Add": 2864,
      "dices": 2865,
      "ĠName": 2866,
      "ĠException": 2867,
      "ĠComp": 2868,
      "bit": 2869,
      "white": 2870,
      "has": 2871,
      "ential": 2872,
      "Ġhelp": 2873,
      "åĪĹè¡¨": 2874,
      "255": 2875,
      "cture": 2876,
      "Ġcontaining": 2877,
      "nake": 2878,
      "cv": 2879,
      "Ġnet": 2880,
      "Ġrequi": 2881,
      "datetime": 2882,
      "ages": 2883,
      "28": 2884,
      "onacci": 2885,
      "Ġconn": 2886,
      "connect": 2887,
      "èĥ½": 2888,
      "ĠÐ·": 2889,
      "org": 2890,
      "moves": 2891,
      "ãĢģ": 2892,
      "Ġbased": 2893,
      "Ġ200": 2894,
      "ç»ĵ": 2895,
      "Ġsmall": 2896,
      "Ġload": 2897,
      "rong": 2898,
      "Ġmenu": 2899,
      "process": 2900,
      "seq": 2901,
      "TE": 2902,
      "ÑĪ": 2903,
      "email": 2904,
      "counts": 2905,
      "erci": 2906,
      "ë¥": 2907,
      "34": 2908,
      "Ġfa": 2909,
      "Ġcomputer": 2910,
      "Ġparameters": 2911,
      "Ġexpected": 2912,
      "={": 2913,
      "person": 2914,
      "save": 2915,
      "Al": 2916,
      "ìĪĺ": 2917,
      "Ġball": 2918,
      "Ġadj": 2919,
      "Ġmode": 2920,
      "35": 2921,
      "sen": 2922,
      "----------": 2923,
      "agon": 2924,
      "Ġstarting": 2925,
      "pyplot": 2926,
      "Ġdelete": 2927,
      "Ġentry": 2928,
      "ĠFunction": 2929,
      "sm": 2930,
      "ball": 2931,
      "\\\\": 2932,
      "ann": 2933,
      "ç½": 2934,
      "ĠButton": 2935,
      ":])": 2936,
      "eff": 2937,
      "åŃĹç¬¦ä¸²": 2938,
      "days": 2939,
      "----------------------------------------------------------------": 2940,
      "pair": 2941,
      "IS": 2942,
      "ĠBo": 2943,
      "Ġsklearn": 2944,
      "mer": 2945,
      "solution": 2946,
      "IGHT": 2947,
      "DE": 2948,
      "direction": 2949,
      "ĠÐ¼": 2950,
      "Ġodd": 2951,
      "izer": 2952,
      "Ġappl": 2953,
      "ĠSet": 2954,
      "Path": 2955,
      "Ġfill": 2956,
      "vertices": 2957,
      "Ġfilter": 2958,
      "ĠMe": 2959,
      "////": 2960,
      "ĠLabel": 2961,
      "ital": 2962,
      "ĠAl": 2963,
      "Ġpattern": 2964,
      "rot": 2965,
      "hist": 2966,
      "Ġtask": 2967,
      "ros": 2968,
      "Size": 2969,
      "Ġunique": 2970,
      "cial": 2971,
      "ï¼ī": 2972,
      "Ġdiff": 2973,
      "ams": 2974,
      "Ġsolve": 2975,
      "æį®": 2976,
      "high": 2977,
      "ëĬĶ": 2978,
      "light": 2979,
      "State": 2980,
      "Ġarguments": 2981,
      "fin": 2982,
      "ç¨": 2983,
      "mployee": 2984,
      "quares": 2985,
      "éĩı": 2986,
      "Ġopt": 2987,
      "Ġman": 2988,
      "Ġmodule": 2989,
      "OM": 2990,
      "final": 2991,
      "tn": 2992,
      "unit": 2993,
      "``": 2994,
      "initial": 2995,
      "hed": 2996,
      "call": 2997,
      "Ġrepe": 2998,
      "ä½¿çĶ¨": 2999,
      "labels": 3000,
      "factor": 3001,
      "Ġìŀ": 3002,
      "ince": 3003,
      "rap": 3004,
      "Ġpick": 3005,
      "ĠTo": 3006,
      "letters": 3007,
      "ĉĉĉĉĉ": 3008,
      "hash": 3009,
      "'{": 3010,
      "dest": 3011,
      "mory": 3012,
      "[(": 3013,
      "late": 3014,
      "Ġ21": 3015,
      "Ġpositive": 3016,
      "ç®Ĺ": 3017,
      "rat": 3018,
      "åīį": 3019,
      "Ð¸ÑĤÐµ": 3020,
      "åıĸ": 3021,
      "diff": 3022,
      "Ġfast": 3023,
      ")),": 3024,
      "raph": 3025,
      "pad": 3026,
      "ï¼Ī": 3027,
      "default": 3028,
      "blue": 3029,
      "èĬ": 3030,
      "ense": 3031,
      "æ¬¡": 3032,
      "ÐĴ": 3033,
      "åĲį": 3034,
      "menu": 3035,
      "Ġrecord": 3036,
      "If": 3037,
      "Given": 3038,
      "hird": 3039,
      "uzzle": 3040,
      "ĠÐ½Ð°": 3041,
      "\"),": 3042,
      "Ġmoves": 3043,
      "åº¦": 3044,
      "Ġemail": 3045,
      "inition": 3046,
      "Ġms": 3047,
      "kwargs": 3048,
      "Ġallow": 3049,
      "ustomer": 3050,
      "è¯·": 3051,
      "loor": 3052,
      "ĠType": 3053,
      "å°±": 3054,
      "quency": 3055,
      "dec": 3056,
      "children": 3057,
      "\"+": 3058,
      "Ġprogra": 3059,
      "Ġdatabase": 3060,
      "ëł": 3061,
      "Ġem": 3062,
      "respon": 3063,
      "Case": 3064,
      "acter": 3065,
      "ĠĠĠĠĠĠĠĠĠĠĠĠĠĠĠĠĠĠĠĠ": 3066,
      "Ġrect": 3067,
      "65": 3068,
      "mode": 3069,
      "ura": 3070,
      "å¼ı": 3071,
      "Or": 3072,
      "itude": 3073,
      "</": 3074,
      "ighbor": 3075,
      "Ġfig": 3076,
      "Ro": 3077,
      "token": 3078,
      "è¿Ľ": 3079,
      "31": 3080,
      "reader": 3081,
      "âĶ": 3082,
      "ĠWrite": 3083,
      "Ġabout": 3084,
      "Ġkeep": 3085,
      "cret": 3086,
      "Ð½Ð¾": 3087,
      "Not": 3088,
      "arning": 3089,
      "Comp": 3090,
      ")[": 3091,
      "ENT": 3092,
      "uto": 3093,
      "Ġsuch": 3094,
      "Ġ'-": 3095,
      "ives": 3096,
      "chi": 3097,
      "ordinate": 3098,
      "cause": 3099,
      "Sub": 3100,
      "Ġlargest": 3101,
      "Ġdic": 3102,
      "Ġinformation": 3103,
      "Ġdb": 3104,
      "Ġdest": 3105,
      "ĠDi": 3106,
      "Ġframe": 3107,
      "kens": 3108,
      "cos": 3109,
      "msg": 3110,
      "ĠÑĩÐ¸Ñģ": 3111,
      "under": 3112,
      "field": 3113,
      "ĠString": 3114,
      "Ġcondition": 3115,
      "Check": 3116,
      "Move": 3117,
      "Ġ17": 3118,
      "Ġminimum": 3119,
      "Ġfull": 3120,
      "Ġbecause": 3121,
      "yes": 3122,
      "tic": 3123,
      "Ġchoose": 3124,
      "ube": 3125,
      "Ġwhether": 3126,
      "andidate": 3127,
      "ä½ľ": 3128,
      "').": 3129,
      "Ġlabels": 3130,
      "è±": 3131,
      "digits": 3132,
      "ground": 3133,
      "ç¨ĭ": 3134,
      "SI": 3135,
      "èĢ": 3136,
      "ĠĠĠĠĠĠĠĠĠĠĠĠĠĠĠĠĠĠ": 3137,
      "leg": 3138,
      "ntry": 3139,
      "Ġthese": 3140,
      "Ð¾Ð¼": 3141,
      "Ġdepth": 3142,
      "âĢĻ": 3143,
      "Ġlinked": 3144,
      "make": 3145,
      "sequence": 3146,
      "push": 3147,
      "radius": 3148,
      "Row": 3149,
      "Ġroom": 3150,
      "ä»¶": 3151,
      "ÑĤÐ°": 3152,
      "sets": 3153,
      "inf": 3154,
      "aler": 3155,
      "rc": 3156,
      "ouble": 3157,
      "Ð»ÑĮ": 3158,
      "nn": 3159,
      "å®ŀ": 3160,
      "Ġsentence": 3161,
      "Ġ{}'.": 3162,
      "Ð¶": 3163,
      "Ġparameter": 3164,
      "Ġask": 3165,
      "ë¡": 3166,
      "02": 3167,
      "è±¡": 3168,
      "results": 3169,
      "Ġprovide": 3170,
      "clear": 3171,
      "tod": 3172,
      "Ġthread": 3173,
      "å°Ĩ": 3174,
      "ĠTime": 3175,
      "Ġquestion": 3176,
      "66": 3177,
      "ĠLo": 3178,
      "Ð¾Ðº": 3179,
      "ĠArgs": 3180,
      "delta": 3181,
      "bet": 3182,
      "åĬł": 3183,
      "Ġrel": 3184,
      "Ġdone": 3185,
      "pose": 3186,
      "ĠQue": 3187,
      "med": 3188,
      "mod": 3189,
      "}\\": 3190,
      "AG": 3191,
      "!\"": 3192,
      "Ġunt": 3193,
      "acity": 3194,
      "tem": 3195,
      "ĠHe": 3196,
      ":\"))": 3197,
      "Ġcalc": 3198,
      "asic": 3199,
      "Ġ):": 3200,
      "ATE": 3201,
      "eval": 3202,
      "ä¿": 3203,
      "[::-": 3204,
      "ìļ": 3205,
      "èĬĤ": 3206,
      "ido": 3207,
      "åŃĺ": 3208,
      "Ġam": 3209,
      "âĸĪ": 3210,
      "miss": 3211,
      "cd": 3212,
      "vertex": 3213,
      "Ġgreater": 3214,
      "ĠUn": 3215,
      "Ġæ": 3216,
      "oo": 3217,
      "uster": 3218,
      "way": 3219,
      "Ġalpha": 3220,
      "etcode": 3221,
      "Min": 3222,
      "Line": 3223,
      "é¢": 3224,
      "paces": 3225,
      "ìĿĺ": 3226,
      "hest": 3227,
      "Ġimplement": 3228,
      "æĿ¥": 3229,
      "ui": 3230,
      "\").": 3231,
      "pred": 3232,
      "Ġdays": 3233,
      "ids": 3234,
      "attr": 3235,
      "hes": 3236,
      "åıĤæķ°": 3237,
      "éĹ´": 3238,
      "Ð»Ð°": 3239,
      "bg": 3240,
      "\"\\": 3241,
      "Ġ----": 3242,
      "Ġclose": 3243,
      "Ġbig": 3244,
      "ux": 3245,
      "âķ": 3246,
      "ones": 3247,
      "Game": 3248,
      "space": 3249,
      "Created": 3250,
      "ging": 3251,
      "ategory": 3252,
      "ied": 3253,
      "Ġrandint": 3254,
      "mpt": 3255,
      "idade": 3256,
      "Ġsol": 3257,
      "ĠFind": 3258,
      "stop": 3259,
      "ë¥¼": 3260,
      "='')": 3261,
      "pes": 3262,
      "property": 3263,
      "adj": 3264,
      "Key": 3265,
      "pal": 3266,
      "air": 3267,
      "Ġtoken": 3268,
      ":')": 3269,
      "UR": 3270,
      "AY": 3271,
      "ì§": 3272,
      "++++": 3273,
      "('-": 3274,
      "ters": 3275,
      "Ġpor": 3276,
      "Ġ[(": 3277,
      "Invalid": 3278,
      "Ð¸Ð¼": 3279,
      "Ġbalance": 3280,
      "é¡": 3281,
      "éĶ": 3282,
      "Ġcre": 3283,
      "è¾ĵåĩº": 3284,
      "Date": 3285,
      "Ġsepar": 3286,
      "ĠNOT": 3287,
      "ither": 3288,
      "xy": 3289,
      "Ġcons": 3290,
      "Ġreplace": 3291,
      "Ġquery": 3292,
      "repr": 3293,
      "Ġcommon": 3294,
      "struct": 3295,
      "Ġweights": 3296,
      "############": 3297,
      "Ġinit": 3298,
      "Ġsimple": 3299,
      "pted": 3300,
      "Ġ'+": 3301,
      "etch": 3302,
      "break": 3303,
      "versed": 3304,
      "ä»£": 3305,
      "status": 3306,
      "maining": 3307,
      "ector": 3308,
      "vector": 3309,
      "ivation": 3310,
      "Ãª": 3311,
      "ern": 3312,
      "aries": 3313,
      "mary": 3314,
      "ç½®": 3315,
      "binary": 3316,
      "Ġlos": 3317,
      "numero": 3318,
      "Ġnormal": 3319,
      "best": 3320,
      "elcome": 3321,
      "inkedList": 3322,
      "Ð¾Ð³": 3323,
      "tmp": 3324,
      "ÐºÐ°": 3325,
      "ODO": 3326,
      "lour": 3327,
      "ê°Ģ": 3328,
      "Ġbegin": 3329,
      "Str": 3330,
      "ä¸Ĭ": 3331,
      "sign": 3332,
      "content": 3333,
      "weights": 3334,
      "Ã³n": 3335,
      "Ġuna": 3336,
      "ien": 3337,
      "depth": 3338,
      "termin": 3339,
      "section": 3340,
      "ercise": 3341,
      "Ġfact": 3342,
      "Ġ255": 3343,
      "eng": 3344,
      "xity": 3345,
      "27": 3346,
      "XX": 3347,
      "Per": 3348,
      "ë¡ľ": 3349,
      "88": 3350,
      "Ġappend": 3351,
      "Ġcorrespon": 3352,
      "png": 3353,
      "Start": 3354,
      "So": 3355,
      "ending": 3356,
      ")])": 3357,
      "Ġsuccess": 3358,
      "ication": 3359,
      "Ġpi": 3360,
      "uration": 3361,
      "Ġna": 3362,
      "ìĿĦ": 3363,
      "green": 3364,
      "ensor": 3365,
      "Ġnumer": 3366,
      "dictionary": 3367,
      "æķ°æį®": 3368,
      "uel": 3369,
      "cia": 3370,
      "query": 3371,
      ":\"": 3372,
      "tf": 3373,
      "Ġinputs": 3374,
      "ider": 3375,
      "Ġtup": 3376,
      "cols": 3377,
      "filter": 3378,
      "full": 3379,
      "Ġsteps": 3380,
      "pattern": 3381,
      "den": 3382,
      "Ġgues": 3383,
      "........": 3384,
      "stract": 3385,
      "ĠPoint": 3386,
      "(\"\")": 3387,
      "aper": 3388,
      "Ġ24": 3389,
      "At": 3390,
      "OP": 3391,
      "Ġpredict": 3392,
      "sa": 3393,
      "va": 3394,
      "Ġprobab": 3395,
      "blems": 3396,
      "ylabel": 3397,
      "ROM": 3398,
      "iro": 3399,
      "ÑĤÑĢ": 3400,
      "link": 3401,
      "Ġobjects": 3402,
      "Ġparser": 3403,
      "()[": 3404,
      "unk": 3405,
      "Ġdiv": 3406,
      "cm": 3407,
      "kes": 3408,
      "dered": 3409,
      "Qu": 3410,
      "Ġloss": 3411,
      "xlabel": 3412,
      "Ġbuild": 3413,
      "most": 3414,
      "(['": 3415,
      "ural": 3416,
      "drop": 3417,
      "rary": 3418,
      "ped": 3419,
      "normal": 3420,
      "å¸": 3421,
      "erature": 3422,
      "andard": 3423,
      "address": 3424,
      "Ġconnect": 3425,
      "Int": 3426,
      "'}": 3427,
      "å¯¹è±¡": 3428,
      "post": 3429,
      "IST": 3430,
      "@@": 3431,
      "Ġcompute": 3432,
      "Ġuma": 3433,
      "ping": 3434,
      "orig": 3435,
      "Up": 3436,
      "]}": 3437,
      "Ġactual": 3438,
      "flow": 3439,
      "Ð²ÐµÐ´": 3440,
      "********************************": 3441,
      "ane": 3442,
      "Pre": 3443,
      "features": 3444,
      "èĬĤçĤ¹": 3445,
      "Do": 3446,
      "lip": 3447,
      "éģ": 3448,
      "Ġoc": 3449,
      "AME": 3450,
      "raction": 3451,
      "ority": 3452,
      "river": 3453,
      "05": 3454,
      "Ġput": 3455,
      "Ġspeed": 3456,
      "ja": 3457,
      "Ġsqlite": 3458,
      "ĠSh": 3459,
      "ote": 3460,
      "theta": 3461,
      "'\\": 3462,
      "Ġaddress": 3463,
      "ãģ®": 3464,
      "readline": 3465,
      "ìł": 3466,
      "å§": 3467,
      "]-": 3468,
      "Ġmeans": 3469,
      "andom": 3470,
      "ERE": 3471,
      "Ġgen": 3472,
      "Ġuntil": 3473,
      "Ġ*=": 3474,
      "yn": 3475,
      "Ġseconds": 3476,
      "sin": 3477,
      "Ġcoordinates": 3478,
      "Ġvertex": 3479,
      "lim": 3480,
      "ìĬ": 3481,
      "Ġmultiple": 3482,
      "cls": 3483,
      "DataFrame": 3484,
      "36": 3485,
      "uffle": 3486,
      "fact": 3487,
      "bour": 3488,
      "ĠĠĠĠĠĠĠĠĠĠĠĠĠĠĠĠĠĠĠĠĠĠĠĠĠĠĠĠĠĠĠĠĠĠĠ": 3489,
      "Ñī": 3490,
      "bound": 3491,
      "Ġ32": 3492,
      "Ġxrange": 3493,
      "Ġfeatures": 3494,
      "ZE": 3495,
      "It": 3496,
      "Ġlongest": 3497,
      "phone": 3498,
      "ĠGame": 3499,
      "Ġmedi": 3500,
      "direct": 3501,
      "ategor": 3502,
      "Ġimg": 3503,
      "ilar": 3504,
      "integ": 3505,
      "los": 3506,
      "Ġpower": 3507,
      "ĠGiven": 3508,
      "Ġpost": 3509,
      "loss": 3510,
      "Ġpiece": 3511,
      "Sh": 3512,
      "How": 3513,
      "æİ¥": 3514,
      "Ġinfo": 3515,
      "antity": 3516,
      "Ġspecified": 3517,
      "Ġpivot": 3518,
      "Ġradius": 3519,
      "gree": 3520,
      "crypt": 3521,
      "ily": 3522,
      "ĠParameters": 3523,
      "Ġ[-": 3524,
      "dice": 3525,
      "ling": 3526,
      "ef": 3527,
      "44": 3528,
      "ron": 3529,
      "ä¼ļ": 3530,
      "Ġoperation": 3531,
      "olean": 3532,
      "Ġsig": 3533,
      "ä¸¤": 3534,
      "Ġedges": 3535,
      "033": 3536,
      "Ġaccount": 3537,
      "Lo": 3538,
      "tools": 3539,
      "Ġdoc": 3540,
      "Ġrate": 3541,
      "centage": 3542,
      "Ġ23": 3543,
      "ighbour": 3544,
      "Ġmiddle": 3545,
      "Ġvari": 3546,
      "éĿ¢": 3547,
      "diction": 3548,
      "Ġsource": 3549,
      "Ġbound": 3550,
      "All": 3551,
      "circle": 3552,
      "mag": 3553,
      "è°": 3554,
      "event": 3555,
      "Ġcards": 3556,
      "ood": 3557,
      "average": 3558,
      "Ġbg": 3559,
      "Ġmu": 3560,
      "scores": 3561,
      "merge": 3562,
      "versal": 3563,
      "Ġ\"-": 3564,
      "static": 3565,
      "ç©": 3566,
      "Print": 3567,
      "Ġadded": 3568,
      "gy": 3569,
      "reshold": 3570,
      "ventory": 3571,
      "=\"\")": 3572,
      "deck": 3573,
      "æĬ": 3574,
      "rol": 3575,
      "fer": 3576,
      "AA": 3577,
      "cii": 3578,
      "canvas": 3579,
      "PIO": 3580,
      "ĠPlayer": 3581,
      "leetcode": 3582,
      "LECT": 3583,
      "ias": 3584,
      "Ġfalse": 3585,
      "Ġknow": 3586,
      "tick": 3587,
      "éĻ¤": 3588,
      "lice": 3589,
      "Ġgoal": 3590,
      "=-": 3591,
      "29": 3592,
      "aut": 3593,
      "Ġwithout": 3594,
      "zero": 3595,
      "Ġpix": 3596,
      "MA": 3597,
      "Ġmethods": 3598,
      "sentence": 3599,
      "Ġunittest": 3600,
      "Ġcreated": 3601,
      "ways": 3602,
      "cer": 3603,
      "æķ°ç»Ħ": 3604,
      "sql": 3605,
      "(\"%": 3606,
      "Ġtyping": 3607,
      "Ġnetwork": 3608,
      "ìŀĲ": 3609,
      "ists": 3610,
      "ĠĠĠĠĠĠĠĠĠĠĠĠĠĠĠĠĠĠĠĠĠ": 3611,
      "Ġunder": 3612,
      "æĮĩ": 3613,
      "ough": 3614,
      "ä½ł": 3615,
      "Ġdfs": 3616,
      "Ġappro": 3617,
      "you": 3618,
      "Ġparse": 3619,
      ".,": 3620,
      "times": 3621,
      "çĶŁ": 3622,
      "ĠĠĠĠĠĠĠĠĠĠĠĠĠĠĠĠĠĠĠĠĠĠĠĠ": 3623,
      "Length": 3624,
      "Ġer": 3625,
      "äºĮ": 3626,
      "Ġleast": 3627,
      "Ġavailable": 3628,
      "lish": 3629,
      "\":\"": 3630,
      "}'.": 3631,
      "Ġwon": 3632,
      "bug": 3633,
      "çī": 3634,
      "Com": 3635,
      "Ġangle": 3636,
      "cies": 3637,
      "Ġbit": 3638,
      "Ð»Ð¾": 3639,
      "uation": 3640,
      "Ð»Ñı": 3641,
      "termine": 3642,
      "sol": 3643,
      "Ġreal": 3644,
      "æĢ§": 3645,
      "æķ´": 3646,
      "è¿ĩ": 3647,
      "riz": 3648,
      "åĨħ": 3649,
      "çº": 3650,
      "ghest": 3651,
      "Ġstatement": 3652,
      "Ġden": 3653,
      "Ġlink": 3654,
      "ĠUser": 3655,
      "acion": 3656,
      "power": 3657,
      "Ġconnection": 3658,
      "local": 3659,
      "dataset": 3660,
      "zip": 3661,
      "Ġ###": 3662,
      "æĭ": 3663,
      "iod": 3664,
      "pay": 3665,
      "Ġfeature": 3666,
      "example": 3667,
      "ĠFROM": 3668,
      "è½¬": 3669,
      "swith": 3670,
      "Ġquick": 3671,
      "username": 3672,
      "edges": 3673,
      "Ġexists": 3674,
      "ĠID": 3675,
      "Ġ(-": 3676,
      "omin": 3677,
      "itch": 3678,
      "stead": 3679,
      "Des": 3680,
      "Ġsure": 3681,
      "Ġnome": 3682,
      "nown": 3683,
      "CH": 3684,
      "Reg": 3685,
      "Ġcontent": 3686,
      "layers": 3687,
      "Ġhor": 3688,
      "Ġgrade": 3689,
      "?\")": 3690,
      "ret": 3691,
      "ĠMy": 3692,
      "Ġlib": 3693,
      "Search": 3694,
      "__()": 3695,
      "food": 3696,
      "FF": 3697,
      "Ġstru": 3698,
      "Ġfit": 3699,
      "çŃ": 3700,
      "Ġswap": 3701,
      "writer": 3702,
      "agonal": 3703,
      "ëł¥": 3704,
      "Left": 3705,
      "Solution": 3706,
      "locity": 3707,
      "Ġwithin": 3708,
      "lean": 3709,
      "Function": 3710,
      "inder": 3711,
      "even": 3712,
      "UE": 3713,
      "ruit": 3714,
      "divid": 3715,
      "ponent": 3716,
      "uman": 3717,
      "ç©º": 3718,
      "å¤ļ": 3719,
      "Ġwinner": 3720,
      "Ġjo": 3721,
      "çİ°": 3722,
      "money": 3723,
      "true": 3724,
      "Ġcould": 3725,
      "Ġdataframe": 3726,
      "ich": 3727,
      "US": 3728,
      "ìĹĲ": 3729,
      "è°ĥ": 3730,
      "ĠUse": 3731,
      "Ġinte": 3732,
      "rea": 3733,
      "numer": 3734,
      "extend": 3735,
      "mit": 3736,
      "oll": 3737,
      "Ð¾Ð»ÑĮ": 3738,
      "ref": 3739,
      "Ġrest": 3740,
      "Score": 3741,
      "ribution": 3742,
      "planation": 3743,
      "ĠĠĠĠĠĠĠĠĠĠĠĠčĊ": 3744,
      "irc": 3745,
      "gex": 3746,
      "anguage": 3747,
      "éĩį": 3748,
      "egin": 3749,
      "][\"": 3750,
      "æ¯ı": 3751,
      "Ġalphabet": 3752,
      "Ġmsg": 3753,
      "Color": 3754,
      "åĲĮ": 3755,
      "Ġmoney": 3756,
      "comb": 3757,
      "Ġbottom": 3758,
      ")**": 3759,
      "FT": 3760,
      "([[": 3761,
      "vice": 3762,
      "click": 3763,
      "Ġmen": 3764,
      "Ġsmallest": 3765,
      "ivo": 3766,
      "Ġworld": 3767,
      "izes": 3768,
      "Ġplayers": 3769,
      "TO": 3770,
      "Ġprints": 3771,
      "500": 3772,
      "imer": 3773,
      "Ġusername": 3774,
      "ĠLe": 3775,
      "players": 3776,
      "First": 3777,
      "lap": 3778,
      ")==": 3779,
      "Ġexpression": 3780,
      "[:-": 3781,
      "Ġpage": 3782,
      "Ġ90": 3783,
      "iew": 3784,
      "Ġpassed": 3785,
      "Ġroll": 3786,
      "ĠInitial": 3787,
      "Ġet": 3788,
      "Char": 3789,
      "king": 3790,
      "argument": 3791,
      "cel": 3792,
      "Matrix": 3793,
      "Ġnegative": 3794,
      "...\")": 3795,
      "Ġrequired": 3796,
      "Ġ=>": 3797,
      "Queue": 3798,
      "Ġcy": 3799,
      "ÑĤÐ¾": 3800,
      "sec": 3801,
      "Iter": 3802,
      "eded": 3803,
      "Result": 3804,
      "addle": 3805,
      "Ġdecimal": 3806,
      "crease": 3807,
      "ification": 3808,
      "conn": 3809,
      "tain": 3810,
      "åĲĪ": 3811,
      "().__": 3812,
      "Ġgood": 3813,
      "łģ": 3814,
      "Ġsay": 3815,
      "tw": 3816,
      "Card": 3817,
      "coded": 3818,
      "Ġdelta": 3819,
      "fib": 3820,
      "Ġeither": 3821,
      "æķ°åŃĹ": 3822,
      "Ġforward": 3823,
      "hour": 3824,
      "ream": 3825,
      "à¹": 3826,
      "rees": 3827,
      "Ġwrit": 3828,
      "Ġ26": 3829,
      "+\"": 3830,
      "Ġpoly": 3831,
      "UL": 3832,
      "yle": 3833,
      "Ġpay": 3834,
      "Ġpeople": 3835,
      "nome": 3836,
      "Ġrequests": 3837,
      "ĠÃ": 3838,
      "eries": 3839,
      "wd": 3840,
      "br": 3841,
      "Ġencoding": 3842,
      "Ġmiss": 3843,
      "Ġselected": 3844,
      "Let": 3845,
      "ele": 3846,
      "question": 3847,
      "æİĴ": 3848,
      "ĠWH": 3849,
      "Ġtheta": 3850,
      "è®¡": 3851,
      "tails": 3852,
      "ĠĠĠĠĠĠĠĠĠĠĠĠĠĠĠĠĠĠĠĠĠĠ": 3853,
      "linked": 3854,
      "»º": 3855,
      "Ġbin": 3856,
      "reshape": 3857,
      "oku": 3858,
      "å§ĭ": 3859,
      "cale": 3860,
      "åĨĻ": 3861,
      "Ġduplic": 3862,
      "Ġhist": 3863,
      "hen": 3864,
      "ĠÐ±": 3865,
      "Ġsymbol": 3866,
      "grade": 3867,
      "ved": 3868,
      "ĠYour": 3869,
      "Ġdirectory": 3870,
      "ĠDo": 3871,
      "ĠTODO": 3872,
      "Ġseq": 3873,
      "Ġrece": 3874,
      "Ġcenter": 3875,
      "Ġdivide": 3876,
      ")}": 3877,
      "avg": 3878,
      "Ġcircle": 3879,
      "rial": 3880,
      "Ġ22": 3881,
      "az": 3882,
      "è·": 3883,
      "ĠAt": 3884,
      "Stack": 3885,
      "Ġcounts": 3886,
      "åĪĻ": 3887,
      "limit": 3888,
      "readlines": 3889,
      "ife": 3890,
      "account": 3891,
      "Image": 3892,
      "ortest": 3893,
      "Ġlimit": 3894,
      "EL": 3895,
      "PL": 3896,
      "phi": 3897,
      "uate": 3898,
      "acc": 3899,
      "page": 3900,
      "å½ĵ": 3901,
      "ssion": 3902,
      "doc": 3903,
      "Ġtrack": 3904,
      "source": 3905,
      "ĠEnter": 3906,
      "SC": 3907,
      "Is": 3908,
      "ellow": 3909,
      "çĽ¸": 3910,
      ")\")": 3911,
      "gon": 3912,
      "åĿ": 3913,
      "ĠFile": 3914,
      "elements": 3915,
      "ints": 3916,
      "gn": 3917,
      "SIZE": 3918,
      "Child": 3919,
      "ript": 3920,
      "77": 3921,
      "Ed": 3922,
      "Ġapp": 3923,
      "pow": 3924,
      "hn": 3925,
      "]],": 3926,
      "ê³": 3927,
      "ĠNot": 3928,
      "Ġ-->": 3929,
      "Ġind": 3930,
      "48": 3931,
      "flag": 3932,
      "Ġport": 3933,
      "Returns": 3934,
      "Ġchose": 3935,
      "ulo": 3936,
      "staticmethod": 3937,
      "ites": 3938,
      "convert": 3939,
      "ä¹ī": 3940,
      "params": 3941,
      "EX": 3942,
      "Ġcnt": 3943,
      "()]": 3944,
      "record": 3945,
      "çłģ": 3946,
      "Ð²Ð°": 3947,
      "description": 3948,
      "Ġsur": 3949,
      "fetch": 3950,
      "lists": 3951,
      "valor": 3952,
      "hor": 3953,
      "task": 3954,
      "æīĢæľī": 3955,
      "å»º": 3956,
      "Var": 3957,
      "åŀ": 3958,
      "æĪĳ": 3959,
      "My": 3960,
      "arge": 3961,
      "ched": 3962,
      "dt": 3963,
      "ÑģÑı": 3964,
      "Ġpla": 3965,
      "idad": 3966,
      "Ġele": 3967,
      "éľ": 3968,
      "Ġtoo": 3969,
      ":%": 3970,
      "option": 3971,
      "Ġdefined": 3972,
      "ĠBe": 3973,
      "week": 3974,
      "One": 3975,
      "èµ": 3976,
      "mul": 3977,
      "apple": 3978,
      ":'": 3979,
      "Ġcoord": 3980,
      "âĢĿ": 3981,
      "åı·": 3982,
      "problems": 3983,
      "Inter": 3984,
      "UN": 3985,
      "Right": 3986,
      "rie": 3987,
      "ĠNote": 3988,
      "Two": 3989,
      "æŁ": 3990,
      "Ġdifference": 3991,
      "ieces": 3992,
      "Ac": 3993,
      "Ġfood": 3994,
      "she": 3995,
      "ĠImage": 3996,
      "ipher": 3997,
      "Ġpal": 3998,
      "ê¸": 3999,
      "nom": 4000,
      "Ġequ": 4001,
      "¦¬": 4002,
      "åıª": 4003,
      "Ġscores": 4004,
      "ĠCol": 4005,
      "unique": 4006,
      "æĸ°": 4007,
      "ä»İ": 4008,
      "Ġbeing": 4009,
      "calc": 4010,
      "=['": 4011,
      "udoku": 4012,
      "æī¾": 4013,
      "å¹¶": 4014,
      "Ġfil": 4015,
      "éľĢ": 4016,
      "Ġ----------": 4017,
      "front": 4018,
      "Ġotherwise": 4019,
      "Ġpr": 4020,
      "em": 4021,
      "ĠDefinition": 4022,
      "Ġtriangle": 4023,
      "Ġprimes": 4024,
      "three": 4025,
      "æłĩ": 4026,
      "ĠPerson": 4027,
      "ato": 4028,
      "è´": 4029,
      "Ġ''.": 4030,
      "Ġscript": 4031,
      "Ġlinear": 4032,
      "SELECT": 4033,
      "goto": 4034,
      "Ġconf": 4035,
      "ules": 4036,
      "Ġcanvas": 4037,
      "jk": 4038,
      "åıĺéĩı": 4039,
      "visited": 4040,
      "ĠStudent": 4041,
      "åŀĭ": 4042,
      "Ġ28": 4043,
      "ummy": 4044,
      "ĠìĿ": 4045,
      "Ġfront": 4046,
      "Ġrunning": 4047,
      "PUT": 4048,
      "IL": 4049,
      "pg": 4050,
      "multipl": 4051,
      "Ġusers": 4052,
      "piece": 4053,
      "æı": 4054,
      "Ġrank": 4055,
      "37": 4056,
      "Ð´Ð°": 4057,
      "batch": 4058,
      "Write": 4059,
      "SV": 4060,
      "Ġexec": 4061,
      "Ġcent": 4062,
      "figure": 4063,
      "Ġinstead": 4064,
      "ressed": 4065,
      "There": 4066,
      "300": 4067,
      "Ġ31": 4068,
      "Ġpairs": 4069,
      "è§£": 4070,
      "ĠClass": 4071,
      "ĠKey": 4072,
      "Ġ\"%": 4073,
      "scale": 4074,
      "New": 4075,
      "Ġattribute": 4076,
      "Order": 4077,
      "olume": 4078,
      "otes": 4079,
      "ĠTypeError": 4080,
      "Ġweek": 4081,
      "âĶĢ": 4082,
      "seg": 4083,
      "ister": 4084,
      "Ġtak": 4085,
      "By": 4086,
      "èĩ": 4087,
      "riends": 4088,
      "Ġtab": 4089,
      "Ð¾Ð±": 4090,
      "Ġinvalid": 4091,
      "salary": 4092,
      "send": 4093,
      "poly": 4094,
      "ĠÐ²Ñĭ": 4095,
      "Ġslow": 4096,
      "structor": 4097,
      "Ġcache": 4098,
      "Ġcannot": 4099,
      "Ġident": 4100,
      "ici": 4101,
      "'re": 4102,
      "stats": 4103,
      "EY": 4104,
      "pla": 4105,
      "åĲ¦": 4106,
      "ader": 4107,
      "Position": 4108,
      "ãĤĴ": 4109,
      "Ġbatch": 4110,
      "Ġig": 4111,
      "lt": 4112,
      "comple": 4113,
      "Ġheader": 4114,
      "Ġíķ": 4115,
      "Ġtail": 4116,
      "98": 4117,
      "ras": 4118,
      "Ġyears": 4119,
      "Ġperform": 4120,
      "ena": 4121,
      "Element": 4122,
      "è°ĥçĶ¨": 4123,
      "UP": 4124,
      "vies": 4125,
      "ensions": 4126,
      "SER": 4127,
      "body": 4128,
      "ĠÑį": 4129,
      "cache": 4130,
      "steps": 4131,
      "je": 4132,
      "Ġphone": 4133,
      "])):": 4134,
      "Ġquit": 4135,
      "ciss": 4136,
      "ç»Ļ": 4137,
      "sup": 4138,
      "tag": 4139,
      "------------------------------------------------": 4140,
      "mented": 4141,
      "apping": 4142,
      "Ġprograma": 4143,
      "files": 4144,
      "å¦Ĥæŀľ": 4145,
      "ÑĨÐ¸": 4146,
      "Ġdir": 4147,
      "ics": 4148,
      "'+": 4149,
      "Ġreduce": 4150,
      "),(": 4151,
      "response": 4152,
      "divis": 4153,
      "commit": 4154,
      "9999": 4155,
      "tup": 4156,
      "ny": 4157,
      "Ġdeque": 4158,
      "country": 4159,
      "ators": 4160,
      "Ġoptions": 4161,
      "Ġrecursive": 4162,
      "Ġinside": 4163,
      "ĠÐ·Ð°": 4164,
      "Ġelem": 4165,
      "struction": 4166,
      "ĠPre": 4167,
      "pygame": 4168,
      "Ġhelper": 4169,
      "sur": 4170,
      "transform": 4171,
      "Ġinterval": 4172,
      "Ð²ÐµÐ´Ð¸ÑĤÐµ": 4173,
      "ris": 4174,
      "åĮĸ": 4175,
      "Valid": 4176,
      "Ġ80": 4177,
      "67": 4178,
      "Ġfactorial": 4179,
      "éĽ": 4180,
      "uck": 4181,
      "95": 4182,
      "Ġthird": 4183,
      "uk": 4184,
      "38": 4185,
      "æį¢": 4186,
      "éĺ": 4187,
      "å¼Ģ": 4188,
      "Ġcompare": 4189,
      "æĸĩä»¶": 4190,
      "Ġpresent": 4191,
      "Ġcourse": 4192,
      "odd": 4193,
      "pol": 4194,
      "Ġsocket": 4195,
      "bottom": 4196,
      "ĠLine": 4197,
      "health": 4198,
      "Ġutil": 4199,
      "El": 4200,
      "Ġsleep": 4201,
      "imp": 4202,
      "Ġbar": 4203,
      "ored": 4204,
      "Ver": 4205,
      "ĠGener": 4206,
      "curren": 4207,
      "tract": 4208,
      "ĠBinary": 4209,
      "ĠST": 4210,
      "END": 4211,
      "Ġmovie": 4212,
      "(',": 4213,
      "{:": 4214,
      "Ad": 4215,
      "Get": 4216,
      "(\"-": 4217,
      "Ġsets": 4218,
      "Ġreturned": 4219,
      "å¤į": 4220,
      "null": 4221,
      "sig": 4222,
      "ĠQu": 4223,
      "%%": 4224,
      "OS": 4225,
      "<<": 4226,
      "And": 4227,
      "Ġê°": 4228,
      "Ġitertools": 4229,
      "éĥ½": 4230,
      "Cur": 4231,
      "Code": 4232,
      "Ġ'*": 4233,
      "Ġversion": 4234,
      "Ġclear": 4235,
      "éķ": 4236,
      "åħ¶": 4237,
      "arange": 4238,
      "request": 4239,
      "Ġtr": 4240,
      "Ġclasses": 4241,
      "ilt": 4242,
      "mar": 4243,
      "Ġacc": 4244,
      "NT": 4245,
      "===": 4246,
      "Ġdefine": 4247,
      "Ġpady": 4248,
      "Ġsqrt": 4249,
      "å®ļä¹ī": 4250,
      "track": 4251,
      "grees": 4252,
      "ĠÑĦ": 4253,
      "ished": 4254,
      "Table": 4255,
      "ubble": 4256,
      "Ġprefix": 4257,
      "equal": 4258,
      "Item": 4259,
      "swers": 4260,
      "store": 4261,
      "freq": 4262,
      "FS": 4263,
      "ica": 4264,
      "member": 4265,
      "Ġclo": 4266,
      "Ġentered": 4267,
      "Ġgive": 4268,
      "From": 4269,
      "ÑĤÐ¸": 4270,
      "ĠRead": 4271,
      "rad": 4272,
      "each": 4273,
      "less": 4274,
      "Ð¾Ð¹": 4275,
      "Ġstatus": 4276,
      "Ġserver": 4277,
      "avor": 4278,
      "mos": 4279,
      "parser": 4280,
      "éĥ": 4281,
      "izont": 4282,
      "Ġclean": 4283,
      "global": 4284,
      "¬¸": 4285,
      "ìĬ¤": 4286,
      "urant": 4287,
      "å¥": 4288,
      "åĲĳ": 4289,
      "iment": 4290,
      "Loc": 4291,
      "inputs": 4292,
      "ĠComple": 4293,
      "symbol": 4294,
      "03": 4295,
      "çİ¯": 4296,
      "Ġindic": 4297,
      "=\",": 4298,
      "å¿": 4299,
      "Ñĸ": 4300,
      "begin": 4301,
      "Ġclick": 4302,
      "andidates": 4303,
      "ĠÐ½Ðµ": 4304,
      "scatter": 4305,
      "mainloop": 4306,
      "allen": 4307,
      "fs": 4308,
      "land": 4309,
      "Ġappe": 4310,
      "\\'": 4311,
      "dule": 4312,
      "/(": 4313,
      "zy": 4314,
      "Map": 4315,
      "Tra": 4316,
      "Ġaccuracy": 4317,
      "dictions": 4318,
      "42": 4319,
      "Ġtypes": 4320,
      "Īëĭ¤": 4321,
      "âĸĪâĸĪ": 4322,
      "tect": 4323,
      "iloc": 4324,
      "åĻ": 4325,
      "IDTH": 4326,
      "AP": 4327,
      "acent": 4328,
      "]][": 4329,
      "ĠPlease": 4330,
      "ĠÑĥ": 4331,
      "ager": 4332,
      "Ġdeck": 4333,
      "dio": 4334,
      "Ġselection": 4335,
      "feature": 4336,
      "éĥ¨": 4337,
      "btn": 4338,
      "Ġshift": 4339,
      "Ġwins": 4340,
      "sim": 4341,
      "Ġshe": 4342,
      "Ġtwe": 4343,
      "()):": 4344,
      "ived": 4345,
      "hidden": 4346,
      "colors": 4347,
      "ĠDE": 4348,
      "isdigit": 4349,
      "header": 4350,
      "åĻ¨": 4351,
      "Ġcorresponding": 4352,
      "'][": 4353,
      "Ġ---": 4354,
      "Ġdid": 4355,
      "Ġtxt": 4356,
      "Ġnombre": 4357,
      "dog": 4358,
      "ĠDec": 4359,
      "system": 4360,
      "Ne": 4361,
      "host": 4362,
      "ina": 4363,
      "icient": 4364,
      "thread": 4365,
      "Ġwere": 4366,
      "Ġemp": 4367,
      "integer": 4368,
      "Ġchildren": 4369,
      "non": 4370,
      "Ġpartic": 4371,
      "ruits": 4372,
      "selection": 4373,
      "Ã¡ri": 4374,
      "team": 4375,
      "ĠIndex": 4376,
      "Ġ2020": 4377,
      "Ġdoesn": 4378,
      "ght": 4379,
      "============": 4380,
      "ëĵ": 4381,
      "Ġsince": 4382,
      "Ġstock": 4383,
      ".'": 4384,
      "Ġred": 4385,
      "Ġmade": 4386,
      "stamp": 4387,
      "Ġfour": 4388,
      "Ġmon": 4389,
      "On": 4390,
      "Find": 4391,
      "her": 4392,
      "QU": 4393,
      "uted": 4394,
      "eras": 4395,
      "Ġdice": 4396,
      "gues": 4397,
      "ĠĠĠĠĠĠĊ": 4398,
      "Div": 4399,
      "Ð¿Ð¸Ñģ": 4400,
      "Ġìł": 4401,
      "cnt": 4402,
      "inner": 4403,
      "Ġdesc": 4404,
      "mn": 4405,
      "metri": 4406,
      "Ġgoing": 4407,
      "moid": 4408,
      "Cont": 4409,
      "ĠCounter": 4410,
      "Ġhidden": 4411,
      "Ġaccess": 4412,
      "mutation": 4413,
      "Ġhighest": 4414,
      "met": 4415,
      "Ġindices": 4416,
      "ABLE": 4417,
      "Ġrepresenting": 4418,
      "span": 4419,
      "Ġalways": 4420,
      "racket": 4421,
      "Ġ500": 4422,
      "Ġspaces": 4423,
      "TestCase": 4424,
      "ĠAss": 4425,
      "orth": 4426,
      "æĸŃ": 4427,
      "âķĲ": 4428,
      "unct": 4429,
      "quit": 4430,
      "pd": 4431,
      "éľĢè¦ģ": 4432,
      "']:": 4433,
      "Ġspecific": 4434,
      "ĠRo": 4435,
      "images": 4436,
      "master": 4437,
      "tab": 4438,
      "coords": 4439,
      "FI": 4440,
      "ignment": 4441,
      "neighbors": 4442,
      "Ġge": 4443,
      "ban": 4444,
      "dx": 4445,
      "End": 4446,
      "bool": 4447,
      "male": 4448,
      "alys": 4449,
      "ically": 4450,
      "ĠPri": 4451,
      "ram": 4452,
      "arn": 4453,
      "izza": 4454,
      "åģ": 4455,
      "subplot": 4456,
      "amp": 4457,
      "Ġteam": 4458,
      "ulate": 4459,
      "Ġsystem": 4460,
      "Ġremaining": 4461,
      "Ġcases": 4462,
      "éķ¿": 4463,
      "ê¸°": 4464,
      "rec": 4465,
      "Exception": 4466,
      "chool": 4467,
      "lin": 4468,
      "Ð¾Ð²Ð°": 4469,
      "Ġinv": 4470,
      "Ġlearning": 4471,
      "grams": 4472,
      "inations": 4473,
      "md": 4474,
      "Ġpadx": 4475,
      "orn": 4476,
      "ĠDes": 4477,
      "IP": 4478,
      "Year": 4479,
      "where": 4480,
      "ĠRes": 4481,
      "ACK": 4482,
      "Ġship": 4483,
      "character": 4484,
      "asy": 4485,
      "ves": 4486,
      "Fe": 4487,
      "Ġ^": 4488,
      "Ġiteration": 4489,
      "Ġ'%": 4490,
      "456": 4491,
      "CC": 4492,
      "é¢ĺ": 4493,
      "rating": 4494,
      "æ²": 4495,
      "Ð½Ð¸": 4496,
      "floor": 4497,
      "ano": 4498,
      "ÐµÑģÑĤ": 4499,
      "Ġlat": 4500,
      "ason": 4501,
      "Ġder": 4502,
      "ÑĤÐ¾ÑĢ": 4503,
      "æ±": 4504,
      "strings": 4505,
      "***": 4506,
      "(\",": 4507,
      "Ġdat": 4508,
      "ka": 4509,
      "vec": 4510,
      "æīĵ": 4511,
      "alysis": 4512,
      "Ġpalindrome": 4513,
      "mas": 4514,
      "Ġhold": 4515,
      "Ġpush": 4516,
      "Ġlocal": 4517,
      "dividual": 4518,
      "Ġcountry": 4519,
      "Ġpopulation": 4520,
      "cio": 4521,
      "Car": 4522,
      "åįķ": 4523,
      "orch": 4524,
      "long": 4525,
      "Ġonce": 4526,
      "Age": 4527,
      "Ġhour": 4528,
      "Prime": 4529,
      "Ġdes": 4530,
      "Ġë°": 4531,
      "posit": 4532,
      "\"%": 4533,
      "encode": 4534,
      "Ġ[],": 4535,
      "ìľ": 4536,
      "aving": 4537,
      "Ġvert": 4538,
      "prob": 4539,
      "ìĭ": 4540,
      "Ġlet": 4541,
      "ä¹ĭ": 4542,
      "ĠĠĠĠĠĠĠĠĠĠĠĠĠĠĠĠĠĠĠĠĠĠĠĠĠ": 4543,
      "Ġtile": 4544,
      "}\"": 4545,
      "Ġcomplete": 4546,
      "æĶ¹": 4547,
      "Ġattributes": 4548,
      "Ġwho": 4549,
      "cao": 4550,
      "Ġdtype": 4551,
      "04": 4552,
      "ä¸ŃçļĦ": 4553,
      "Ġactivation": 4554,
      "structions": 4555,
      "fn": 4556,
      "iform": 4557,
      "randrange": 4558,
      "population": 4559,
      "big": 4560,
      "ship": 4561,
      "quared": 4562,
      "asure": 4563,
      "GR": 4564,
      "åĪ¤": 4565,
      "Ġhours": 4566,
      "Ġsen": 4567,
      "ĠThere": 4568,
      "found": 4569,
      "rstrip": 4570,
      "Ġstudents": 4571,
      "Ġtermin": 4572,
      "users": 4573,
      "æĦ": 4574,
      "Ġterm": 4575,
      "winner": 4576,
      "Empty": 4577,
      "coder": 4578,
      "éĢļ": 4579,
      "ĠUp": 4580,
      "ĠFirst": 4581,
      "Ġche": 4582,
      "after": 4583,
      "Ġtag": 4584,
      "è¯·è¾ĵåħ¥": 4585,
      "Ġclient": 4586,
      "ila": 4587,
      "æł¼": 4588,
      "Ġmatches": 4589,
      "ODE": 4590,
      "Ġfrequency": 4591,
      "cing": 4592,
      "Ġmemory": 4593,
      "mt": 4594,
      "Sp": 4595,
      "active": 4596,
      "Ġtick": 4597,
      "Ġmissing": 4598,
      "ĠĠĠĠĠĊ": 4599,
      "nombre": 4600,
      "common": 4601,
      "istics": 4602,
      "Ġnamed": 4603,
      "Ġconver": 4604,
      "ipo": 4605,
      "compile": 4606,
      "Ġprobability": 4607,
      "owels": 4608,
      "å±ŀ": 4609,
      "sted": 4610,
      "MP": 4611,
      "Rect": 4612,
      "rs": 4613,
      "imo": 4614,
      "Ġpack": 4615,
      "dp": 4616,
      "ascii": 4617,
      "Ġavg": 4618,
      "$$": 4619,
      "~~~~~~~~": 4620,
      "rada": 4621,
      "Ġdefaultdict": 4622,
      "Ġstructure": 4623,
      "Ġconstant": 4624,
      "OC": 4625,
      "Ġneighbor": 4626,
      "Ġarrays": 4627,
      "elem": 4628,
      "adding": 4629,
      "caten": 4630,
      "mming": 4631,
      "Ġcandidate": 4632,
      "Ġaddition": 4633,
      "Ġdetermine": 4634,
      "Author": 4635,
      "ĠĠĠĠĠĠĠĠĠĠĠĠĠĠĠĠĠĠĠĠĠĠĠĠĠĠĠĠĠĠĠĠĠĠĠĠĠĠĠĠĠĠĠĠĠĠĠĠĠĠĠĠĠĠĠĠĠĠĠĠĠĠĠĠ": 4636,
      "Ġ45": 4637,
      "101": 4638,
      "Ġene": 4639,
      "Ġattack": 4640,
      "ks": 4641,
      "ĠTk": 4642,
      "Ġwrong": 4643,
      "wait": 4644,
      "97": 4645,
      "Ġrepresents": 4646,
      "Ġprovided": 4647,
      "ocÃª": 4648,
      "Ġwall": 4649,
      "Ġimages": 4650,
      "II": 4651,
      "ĠPer": 4652,
      "ĠIter": 4653,
      "ĠHow": 4654,
      "ì§Ģ": 4655,
      "Pass": 4656,
      "(\"{}": 4657,
      "Ġ%(": 4658,
      "orry": 4659,
      "cription": 4660,
      "æĪĸ": 4661,
      "[]": 4662,
      ".)": 4663,
      "cursion": 4664,
      "ually": 4665,
      "ä½įç½®": 4666,
      "ĠÑĢÐ°": 4667,
      "animal": 4668,
      "serv": 4669,
      "ket": 4670,
      "ÐµÐ»": 4671,
      "trie": 4672,
      "åı³": 4673,
      "With": 4674,
      "iled": 4675,
      "Ġdescription": 4676,
      "ä¸¤ä¸ª": 4677,
      "æłĳ": 4678,
      "aly": 4679,
      "âĶĢâĶĢ": 4680,
      "æµ": 4681,
      "Ġsoma": 4682,
      "Ġextract": 4683,
      "ĠSub": 4684,
      "Ġstd": 4685,
      "Ġenemy": 4686,
      "åĪĽ": 4687,
      "85": 4688,
      "VE": 4689,
      "api": 4690,
      "Hand": 4691,
      "ante": 4692,
      "={}": 4693,
      "unittest": 4694,
      "idget": 4695,
      "Jo": 4696,
      "izontal": 4697,
      "Entry": 4698,
      "æİĴåºı": 4699,
      "condition": 4700,
      "Ġparam": 4701,
      "Ġgot": 4702,
      "problem": 4703,
      "'*": 4704,
      "ä»¬": 4705,
      "Ġ\"*": 4706,
      "imate": 4707,
      "Ġreversed": 4708,
      "Ġneeded": 4709,
      "actions": 4710,
      "ªçİ¯": 4711,
      "ants": 4712,
      "ĠÐ¿Ð¾": 4713,
      "reatest": 4714,
      "students": 4715,
      "Ġtrip": 4716,
      "course": 4717,
      "Ġcipher": 4718,
      "maze": 4719,
      "NA": 4720,
      "pick": 4721,
      "uest": 4722,
      "arm": 4723,
      "don": 4724,
      "å¼ķ": 4725,
      "Ġcu": 4726,
      "eq": 4727,
      "Gener": 4728,
      "æ¯Ķ": 4729,
      "Be": 4730,
      "uture": 4731,
      "Ġpointer": 4732,
      "world": 4733,
      "some": 4734,
      "Ġĉ": 4735,
      "sso": 4736,
      "Welcome": 4737,
      "-%": 4738,
      "('%": 4739,
      "Ġbirth": 4740,
      "Ġhalf": 4741,
      "cp": 4742,
      "imiter": 4743,
      "ino": 4744,
      "Dec": 4745,
      "Ġsomething": 4746,
      "tep": 4747,
      "dia": 4748,
      "Ġ``": 4749,
      "fg": 4750,
      "Ġpositions": 4751,
      "}'": 4752,
      "cissors": 4753,
      "Ġgradient": 4754,
      "çĲ": 4755,
      "Ġsep": 4756,
      "Ġsnake": 4757,
      "Ġusu": 4758,
      "([\"": 4759,
      "ico": 4760,
      "hex": 4761,
      "Ġnote": 4762,
      "COL": 4763,
      "åĪĽå»º": 4764,
      "real": 4765,
      "ĠCount": 4766,
      "seconds": 4767,
      "Ð¾Ð·": 4768,
      "ius": 4769,
      "ĠĠĠĠĠĠĠĠĠĠĠĠĠĠĠĠĠĠĠĠĠĠĠĠĠĠĠĠĠĠĠĠĠĠĠĠĠĠĠ": 4770,
      "wards": 4771,
      "Ġneighbors": 4772,
      "ĠLinkedList": 4773,
      "Ġproper": 4774,
      "Ġseries": 4775,
      "'ll": 4776,
      "ctors": 4777,
      "calculate": 4778,
      "icky": 4779,
      "alt": 4780,
      "400": 4781,
      "ABC": 4782,
      "ernel": 4783,
      "Ġsecret": 4784,
      "lope": 4785,
      "(_": 4786,
      "latten": 4787,
      "Ġcoordinate": 4788,
      "ĠWHERE": 4789,
      "aaaa": 4790,
      "éĵ": 4791,
      "mplemented": 4792,
      "ga": 4793,
      "Ġpur": 4794,
      "Ġtokens": 4795,
      "blit": 4796,
      "WIDTH": 4797,
      "Ġconfig": 4798,
      "dig": 4799,
      "ĠAc": 4800,
      "éĩĮ": 4801,
      "=(\"": 4802,
      "Ġcls": 4803,
      "æľ¬": 4804,
      "ĠMake": 4805,
      "Ġseen": 4806,
      "ogle": 4807,
      "Ġanimal": 4808,
      "CE": 4809,
      "Ġapply": 4810,
      "middle": 4811,
      "åĬ¨": 4812,
      "ç¼": 4813,
      "stock": 4814,
      "ĠStack": 4815,
      "ĠTHE": 4816,
      "tile": 4817,
      "\"}": 4818,
      "Ġmuch": 4819,
      "Next": 4820,
      "Ġpen": 4821,
      "ĠVAL": 4822,
      "Ġsmaller": 4823,
      "Ġdx": 4824,
      "Ġrepresentation": 4825,
      "Ġhit": 4826,
      ")//": 4827,
      "ĠOn": 4828,
      "Ð¾Ð³Ð¾": 4829,
      "æ¨": 4830,
      "ĠEach": 4831,
      "ĠWhat": 4832,
      "Sy": 4833,
      "computer": 4834,
      "ÑĢÐµ": 4835,
      "ilities": 4836,
      "39": 4837,
      "??": 4838,
      "palindrome": 4839,
      "Ġaccept": 4840,
      "Words": 4841,
      "ëĭĪëĭ¤": 4842,
      "\"].": 4843,
      "ĠRE": 4844,
      "wik": 4845,
      "mainder": 4846,
      "ĠSo": 4847,
      "æĦı": 4848,
      ",(": 4849,
      "linear": 4850,
      "Ġcomplexity": 4851,
      "-----": 4852,
      "Ġmaze": 4853,
      "grese": 4854,
      "ĠOr": 4855,
      "ĠVector": 4856,
      "ĠTO": 4857,
      "hours": 4858,
      "inu": 4859,
      "uce": 4860,
      "ìĸ": 4861,
      "Ġexact": 4862,
      "åħ¸": 4863,
      "Ġdrop": 4864,
      "Price": 4865,
      "Ġshort": 4866,
      "NO": 4867,
      "Ġlin": 4868,
      "stor": 4869,
      "(\"\"\"": 4870,
      "Ġstarts": 4871,
      "ogram": 4872,
      "Ġhttp": 4873,
      "gg": 4874,
      "ç»ĵæŀľ": 4875,
      "Ġinitialize": 4876,
      "Pa": 4877,
      "---------": 4878,
      "och": 4879,
      ")')": 4880,
      "åĳ": 4881,
      "Ġfg": 4882,
      "BL": 4883,
      "asing": 4884,
      "Ġaux": 4885,
      "Ġthose": 4886,
      "çŃī": 4887,
      "Ġcols": 4888,
      "åĪ¤æĸŃ": 4889,
      "SP": 4890,
      "ÐĴÐ²ÐµÐ´Ð¸ÑĤÐµ": 4891,
      "æĺ¯åĲ¦": 4892,
      "primes": 4893,
      "ÐµÐ½Ð¸Ðµ": 4894,
      "mbols": 4895,
      "§è¡Į": 4896,
      "Ġcolors": 4897,
      "Inte": 4898,
      "options": 4899,
      "Ġpow": 4900,
      "crypted": 4901,
      "Ġvertices": 4902,
      "éģį": 4903,
      "norm": 4904,
      "just": 4905,
      "returns": 4906,
      "å±ŀæĢ§": 4907,
      "Ġuses": 4908,
      "è¯¥": 4909,
      "Ġeff": 4910,
      "fee": 4911,
      "Ġwell": 4912,
      "CRE": 4913,
      "Ġtesting": 4914,
      "æī§è¡Į": 4915,
      "mutations": 4916,
      "Ð°Ð½Ð¸": 4917,
      "Base": 4918,
      "Ġsend": 4919,
      "socket": 4920,
      "Ġvalores": 4921,
      "ĠĠĠĠĠĠĠĠĠĠĠĠĠĠĠĠĠĠĠĠĠĠĠĠĠĠ": 4922,
      "Ġstar": 4923,
      "Ġadding": 4924,
      "ĠDataFrame": 4925,
      "TT": 4926,
      "!\\": 4927,
      "ĠĠĠĠĠĠĠĠĠĠĠĠĠĠĠĠĠĠĠĠĠĠĠĠĠĠĠĠ": 4928,
      "Ġcross": 4929,
      "ãĤĭ": 4930,
      "Ġ35": 4931,
      "Ġstored": 4932,
      "Ġcompar": 4933,
      "ART": 4934,
      "ev": 4935,
      "poch": 4936,
      "cells": 4937,
      "Note": 4938,
      "Ġ27": 4939,
      "Ġblack": 4940,
      "people": 4941,
      "Ġplease": 4942,
      "goal": 4943,
      "Numbers": 4944,
      "negative": 4945,
      "pix": 4946,
      "ĉčĊ": 4947,
      "rapper": 4948,
      "Ġmemo": 4949,
      "åİĨ": 4950,
      "rypt": 4951,
      "Ġboolean": 4952,
      "states": 4953,
      "SERT": 4954,
      "Can": 4955,
      "history": 4956,
      "UES": 4957,
      "Ġextra": 4958,
      "chars": 4959,
      "Ġdouble": 4960,
      "èİ": 4961,
      "like": 4962,
      "classes": 4963,
      "åĮħ": 4964,
      "=',": 4965,
      "è¿Ļä¸ª": 4966,
      "ral": 4967,
      "Ġchecks": 4968,
      "æŃ£": 4969,
      "chine": 4970,
      "usters": 4971,
      "Ġscale": 4972,
      "cto": 4973,
      "Ġheapq": 4974,
      "helper": 4975,
      "training": 4976,
      "ences": 4977,
      "seed": 4978,
      "ĠAp": 4979,
      "types": 4980,
      "ĠÑĩÐ¸ÑģÐ»Ð¾": 4981,
      "mand": 4982,
      "fil": 4983,
      "utor": 4984,
      "Ġdimension": 4985,
      "Ġtuples": 4986,
      "tokens": 4987,
      "Height": 4988,
      "çĽ´": 4989,
      "////////": 4990,
      "iful": 4991,
      "Ġmultiply": 4992,
      "ìĦľ": 4993,
      "squares": 4994,
      "Ġ\").": 4995,
      "roy": 4996,
      "åĪ¶": 4997,
      "ĠCar": 4998,
      "ublic": 4999,
      "âķĲâķĲ": 5000,
      "Ġchosen": 5001,
      "ML": 5002,
      "tt": 5003,
      "inp": 5004,
      "ĠCalculate": 5005,
      "accuracy": 5006,
      "ĉĉĉĉĉĉ": 5007,
      "OUR": 5008,
      "undo": 5009,
      "Ġcreates": 5010,
      "ĠQueue": 5011,
      "findall": 5012,
      "Head": 5013,
      "Ġ]:": 5014,
      "éĵ¾": 5015,
      "generate": 5016,
      "cha": 5017,
      "Gra": 5018,
      "Ð¾Ð¶": 5019,
      "home": 5020,
      "éĤ": 5021,
      "Ġtw": 5022,
      "Ġreader": 5023,
      "è¿Ľè¡Į": 5024,
      "rink": 5025,
      "Thread": 5026,
      "Ġblue": 5027,
      "aw": 5028,
      "Ġoperations": 5029,
      "fun": 5030,
      "RL": 5031,
      "Ġhandle": 5032,
      "ĠGraph": 5033,
      "Ġcells": 5034,
      "æĥ": 5035,
      "autiful": 5036,
      "stand": 5037,
      "Ġsimilar": 5038,
      "ë³": 5039,
      "oft": 5040,
      "Ġev": 5041,
      "ciÃ³n": 5042,
      "ots": 5043,
      "tribute": 5044,
      "èİ·": 5045,
      "processing": 5046,
      "Ġhapp": 5047,
      "OUT": 5048,
      "ace": 5049,
      "Ġjog": 5050,
      "ffer": 5051,
      "Ġ2019": 5052,
      "ÐµÐ¼ÐµÐ½": 5053,
      "ĠStart": 5054,
      "Ġ'/": 5055,
      "bi": 5056,
      "ÐºÐ¸": 5057,
      "fully": 5058,
      "Ġpartition": 5059,
      "æĽ": 5060,
      "ĠSort": 5061,
      "Ã¡rio": 5062,
      "================================================================": 5063,
      "iron": 5064,
      "ĠArray": 5065,
      "dy": 5066,
      "çĽ®": 5067,
      "åŃĹåħ¸": 5068,
      "ĠÐºÐ¾": 5069,
      "NN": 5070,
      "Ġbasic": 5071,
      "dients": 5072,
      "Ġdistribution": 5073,
      "Ġinner": 5074,
      "?,": 5075,
      "ĠMethod": 5076,
      "cording": 5077,
      "DOW": 5078,
      "dat": 5079,
      "solve": 5080,
      "ĠCode": 5081,
      "__)": 5082,
      "æķ´æķ°": 5083,
      "CTION": 5084,
      "Ġstandard": 5085,
      "lu": 5086,
      "ases": 5087,
      "Student": 5088,
      "Ġcla": 5089,
      "Ġdummy": 5090,
      "åħĪ": 5091,
      "Ġ-------": 5092,
      "ĠAll": 5093,
      "56": 5094,
      "icio": 5095,
      "Graph": 5096,
      "dev": 5097,
      "Po": 5098,
      "ĠConvert": 5099,
      "################################################": 5100,
      "Ġgu": 5101,
      "Ġ70": 5102,
      "ç±»åŀĭ": 5103,
      "å·¦": 5104,
      "Turtle": 5105,
      "repe": 5106,
      "ptr": 5107,
      "Ġquant": 5108,
      "ĵį": 5109,
      "éĽĨ": 5110,
      "éĹ®": 5111,
      "movie": 5112,
      "Ġrespect": 5113,
      "dfs": 5114,
      "stu": 5115,
      "Part": 5116,
      "ç´¢": 5117,
      "ops": 5118,
      "Ġminutes": 5119,
      "Ĥ¬": 5120,
      "mask": 5121,
      "ĠImport": 5122,
      "Ġfibonacci": 5123,
      "ĠNew": 5124,
      "47": 5125,
      "startswith": 5126,
      "staurant": 5127,
      "æ²¡": 5128,
      "ung": 5129,
      "éģįåİĨ": 5130,
      "small": 5131,
      "raise": 5132,
      "-=": 5133,
      "ĠTotal": 5134,
      "Ġprices": 5135,
      "Ġvery": 5136,
      "Ġincrement": 5137,
      "birth": 5138,
      "Window": 5139,
      "stractmethod": 5140,
      "èĩª": 5141,
      "150": 5142,
      "Ġresultado": 5143,
      "attack": 5144,
      "Ġcontents": 5145,
      "Cor": 5146,
      "hips": 5147,
      "Ġfreq": 5148,
      "inci": 5149,
      "Ġref": 5150,
      "capacity": 5151,
      "possible": 5152,
      "scribe": 5153,
      "ä¸ī": 5154,
      "Ġthreading": 5155,
      "Distance": 5156,
      "åĪł": 5157,
      "Cost": 5158,
      "Press": 5159,
      "star": 5160,
      "your": 5161,
      "decode": 5162,
      "ĠĠĠĠĠĠĠĊ": 5163,
      "CA": 5164,
      "Ġguessed": 5165,
      "è®¡ç®Ĺ": 5166,
      "ranch": 5167,
      ")).": 5168,
      "ITE": 5169,
      "Ġ{},": 5170,
      "ags": 5171,
      "ìĿĢ": 5172,
      "Ġrobot": 5173,
      "åºĶ": 5174,
      "used": 5175,
      "Ġletra": 5176,
      "dade": 5177,
      "Ġ\"/": 5178,
      "çŁ": 5179,
      "quent": 5180,
      "Ġsimp": 5181,
      "Ġstates": 5182,
      "å¾ªçİ¯": 5183,
      "Ġrating": 5184,
      "Counter": 5185,
      "ffix": 5186,
      "ilding": 5187,
      "ĠEX": 5188,
      "Ġshortest": 5189,
      "Ġview": 5190,
      "ua": 5191,
      "Ġdt": 5192,
      "ULL": 5193,
      "alist": 5194,
      "untime": 5195,
      "Ġhex": 5196,
      "capital": 5197,
      "Ġson": 5198,
      "stac": 5199,
      "ä¹Ł": 5200,
      "Ġmodify": 5201,
      "ominator": 5202,
      "Ã¼": 5203,
      "Ġou": 5204,
      "coordinates": 5205,
      "ii": 5206,
      "ç§į": 5207,
      "Ġri": 5208,
      "ÑĩÐ°": 5209,
      "ident": 5210,
      "49": 5211,
      "moving": 5212,
      "Ġinterest": 5213,
      "çľ": 5214,
      "bold": 5215,
      "è¡¨ç¤º": 5216,
      "ĠEntry": 5217,
      "Ġìŀħ": 5218,
      "urses": 5219,
      "Ġskip": 5220,
      "lis": 5221,
      "profit": 5222,
      "Ġcoin": 5223,
      "æŁ¥": 5224,
      "ĠText": 5225,
      "ĉĠĠĠ": 5226,
      "largest": 5227,
      "td": 5228,
      "ply": 5229,
      "Ġdestination": 5230,
      "legend": 5231,
      "numpy": 5232,
      "ĠDisplay": 5233,
      "Ġpuzzle": 5234,
      "ĠDate": 5235,
      "Ġmaior": 5236,
      "yellow": 5237,
      "Ġbetter": 5238,
      "SS": 5239,
      "ĠGPIO": 5240,
      "ĠAd": 5241,
      "expected": 5242,
      "nomial": 5243,
      "vari": 5244,
      "Info": 5245,
      "hs": 5246,
      "nb": 5247,
      "desc": 5248,
      "eek": 5249,
      "samples": 5250,
      "Ġrotate": 5251,
      "Ġimplementation": 5252,
      "Ġsquares": 5253,
      "Ġbus": 5254,
      "();": 5255,
      "itor": 5256,
      "))]": 5257,
      "çº¿": 5258,
      "tan": 5259,
      "ĠCalcul": 5260,
      "heit": 5261,
      "çĲĨ": 5262,
      "åħ³": 5263,
      "Last": 5264,
      "IR": 5265,
      "Ġlas": 5266,
      "Ġmut": 5267,
      "Ġmask": 5268,
      "reset": 5269,
      "quences": 5270,
      "half": 5271,
      "fetchall": 5272,
      "ĠMin": 5273,
      "Dep": 5274,
      "Ġmember": 5275,
      "today": 5276,
      "ĠAs": 5277,
      "Ġdy": 5278,
      "longest": 5279,
      "Ingrese": 5280,
      "Ġ36": 5281,
      "Ġchr": 5282,
      "era": 5283,
      "Log": 5284,
      "ple": 5285,
      "ĠÐµ": 5286,
      "Ġurllib": 5287,
      "Ġoptim": 5288,
      "Ġleg": 5289,
      "Temp": 5290,
      "offset": 5291,
      "âĢĶ": 5292,
      "Ġstill": 5293,
      "ĠOption": 5294,
      "izing": 5295,
      "ivative": 5296,
      "Ġrectangle": 5297,
      "á»": 5298,
      "OO": 5299,
      "è¢": 5300,
      "ĠProblem": 5301,
      "redit": 5302,
      "54": 5303,
      "}:": 5304,
      "ĠCard": 5305,
      "('')": 5306,
      "Ġcat": 5307,
      "Ġcluster": 5308,
      "æ±Ĥ": 5309,
      "Ph": 5310,
      "ftime": 5311,
      "Ġanything": 5312,
      "Ġoffset": 5313,
      "ira": 5314,
      "æ³¨": 5315,
      "gb": 5316,
      ")#": 5317,
      "08": 5318,
      "yy": 5319,
      "+'": 5320,
      "10000": 5321,
      ".\",": 5322,
      "Explanation": 5323,
      "aps": 5324,
      "four": 5325,
      "Ġ\":": 5326,
      "indices": 5327,
      "!!!!": 5328,
      "Ġdetermin": 5329,
      "Ġaround": 5330,
      "Ġtemperature": 5331,
      "éļ": 5332,
      "è¢«": 5333,
      "factorial": 5334,
      "00000000": 5335,
      "rections": 5336,
      "epcopy": 5337,
      "å¾Ĺ": 5338,
      "Ġkeyword": 5339,
      "Ġworks": 5340,
      "æ¨¡": 5341,
      "ntax": 5342,
      "Users": 5343,
      "[:]": 5344,
      "imation": 5345,
      "ency": 5346,
      "Ġassume": 5347,
      "Ġface": 5348,
      "?\\": 5349,
      "Ġ----------------": 5350,
      "shuffle": 5351,
      "lon": 5352,
      "Out": 5353,
      "Ġdepend": 5354,
      "clean": 5355,
      "Ġtests": 5356,
      "ë©": 5357,
      "Ġlowest": 5358,
      "hy": 5359,
      "ropy": 5360,
      "bits": 5361,
      "Ġreset": 5362,
      "Ġfolder": 5363,
      "prefix": 5364,
      "orange": 5365,
      "avorite": 5366,
      "percent": 5367,
      "ALL": 5368,
      "SON": 5369,
      "nore": 5370,
      "RA": 5371,
      "Ġ300": 5372,
      "ĠLet": 5373,
      "ĉĉĉĊ": 5374,
      "server": 5375,
      "degree": 5376,
      "éĢĴ": 5377,
      "ird": 5378,
      "difference": 5379,
      "-------": 5380,
      "dians": 5381,
      "done": 5382,
      "Ġlibrary": 5383,
      "Ġargparse": 5384,
      "Ġcustomer": 5385,
      "VER": 5386,
      "Ġparams": 5387,
      "Ġocc": 5388,
      "Ġspecial": 5389,
      "Area": 5390,
      "ĠnÃ£o": 5391,
      "åĪłéĻ¤": 5392,
      "è¯Ń": 5393,
      "decimal": 5394,
      "1111": 5395,
      "crement": 5396,
      "Ġcomput": 5397,
      "za": 5398,
      "ORD": 5399,
      "fect": 5400,
      "Ġneighbour": 5401,
      "bose": 5402,
      "\",\".": 5403,
      "opy": 5404,
      "06": 5405,
      "connection": 5406,
      "Ġwhite": 5407,
      "Spe": 5408,
      "penup": 5409,
      "Ġpot": 5410,
      "Ġdos": 5411,
      "hicle": 5412,
      "ìĸ´": 5413,
      "Ġproject": 5414,
      "ĠOR": 5415,
      "fname": 5416,
      "redential": 5417,
      "shift": 5418,
      "triangle": 5419,
      "}.": 5420,
      "æł·": 5421,
      "straints": 5422,
      "------": 5423,
      "']['": 5424,
      "ï¼ģ": 5425,
      "åį°": 5426,
      "arest": 5427,
      "amos": 5428,
      "NAME": 5429,
      "eta": 5430,
      "Ġ'#": 5431,
      "gu": 5432,
      "ĠÐŁ": 5433,
      "icult": 5434,
      "hp": 5435,
      "Ġinp": 5436,
      "ìķ": 5437,
      "Ġcreating": 5438,
      "Ġattemp": 5439,
      "Ġgenerated": 5440,
      "Ġsci": 5441,
      "Found": 5442,
      "Ġ99": 5443,
      "tern": 5444,
      "votes": 5445,
      "icy": 5446,
      "MM": 5447,
      "Ġthreshold": 5448,
      "ining": 5449,
      "snake": 5450,
      "cla": 5451,
      "ATION": 5452,
      "cup": 5453,
      "è¿Ĳ": 5454,
      "Ġaccording": 5455,
      ")\"": 5456,
      "Go": 5457,
      "rac": 5458,
      "ĠĠĠĠĠĠĠĠĠĠĠĠĠĠĠĠĠĠĠĠĠĠĠĠĠĠĠĠĠ": 5459,
      "43": 5460,
      "ÑĦ": 5461,
      "46": 5462,
      "Yes": 5463,
      "ãĥ¼": 5464,
      "Mult": 5465,
      "bum": 5466,
      "å®ĥ": 5467,
      "ARD": 5468,
      "Ġaut": 5469,
      "Ġposs": 5470,
      "ĠCom": 5471,
      "Cli": 5472,
      "Ġdivision": 5473,
      "clo": 5474,
      "ĠError": 5475,
      "otor": 5476,
      "previous": 5477,
      "ideo": 5478,
      "Ġbody": 5479,
      "Ġintervals": 5480,
      "Ġcategor": 5481,
      "edia": 5482,
      "Ġpaths": 5483,
      "ison": 5484,
      "Ġ10000": 5485,
      ").__": 5486,
      "ĠRandom": 5487,
      "Ġ400": 5488,
      "ĠNow": 5489,
      "íĬ": 5490,
      "ĠMax": 5491,
      "ometry": 5492,
      "wall": 5493,
      "Ġcompon": 5494,
      "AND": 5495,
      "oken": 5496,
      "Ġcategory": 5497,
      "-----------": 5498,
      "viation": 5499,
      "uring": 5500,
      "Ð¼Ð¸": 5501,
      "Ã±": 5502,
      "è®¾": 5503,
      "Ġchanges": 5504,
      "say": 5505,
      "éĶ®": 5506,
      "Choice": 5507,
      "å¸¸": 5508,
      "interval": 5509,
      "bind": 5510,
      "Ġmenor": 5511,
      "ĠGo": 5512,
      "ĠÐ¿ÐµÑĢ": 5513,
      "help": 5514,
      "#####": 5515,
      "gres": 5516,
      "cipher": 5517,
      "Ġcalls": 5518,
      "INT": 5519,
      "usion": 5520,
      "uno": 5521,
      "ë²": 5522,
      "ĠEmployee": 5523,
      "ima": 5524,
      "Ġwalk": 5525,
      "åŃ¦": 5526,
      "hoose": 5527,
      "calcul": 5528,
      "As": 5529,
      "ĠÐĴ": 5530,
      "alphabet": 5531,
      "Ġunits": 5532,
      "ãģĻ": 5533,
      "([])": 5534,
      "æĬĬ": 5535,
      "secret": 5536,
      "Ġwhole": 5537,
      "Edge": 5538,
      "Ġlanguage": 5539,
      "Ġnecess": 5540,
      "Ġnota": 5541,
      "Ġenv": 5542,
      "ĠMatrix": 5543,
      "pivot": 5544,
      "gender": 5545,
      "Def": 5546,
      "Ġguesses": 5547,
      "Ġfix": 5548,
      "Ġcoeff": 5549,
      "ĉĉĉĉĉĉĉĉ": 5550,
      "ĠAND": 5551,
      "ÐŁ": 5552,
      "Object": 5553,
      "96": 5554,
      "puzzle": 5555,
      "Ġrepeat": 5556,
      "Ġìķ": 5557,
      "Ġmakes": 5558,
      "ever": 5559,
      "INSERT": 5560,
      "Ġlarg": 5561,
      "'m": 5562,
      "Ġ\"\".": 5563,
      "\"*": 5564,
      "marks": 5565,
      "neighbor": 5566,
      "ĠPart": 5567,
      "NUM": 5568,
      "ared": 5569,
      "style": 5570,
      "Ġpixel": 5571,
      "Person": 5572,
      "tings": 5573,
      "{'": 5574,
      "how": 5575,
      "prices": 5576,
      ":`": 5577,
      "ĠMA": 5578,
      "Ġexception": 5579,
      "house": 5580,
      "Ġblank": 5581,
      "cade": 5582,
      "Ġremoved": 5583,
      "udget": 5584,
      "ert": 5585,
      "une": 5586,
      "ë¦¬": 5587,
      "æĪĳä»¬": 5588,
      "Ġpress": 5589,
      "å°±æĺ¯": 5590,
      "script": 5591,
      "gar": 5592,
      "cast": 5593,
      "))))": 5594,
      "xyz": 5595,
      "Ġgets": 5596,
      "imshow": 5597,
      "Ġown": 5598,
      "cars": 5599,
      "Down": 5600,
      "ĠâĢľ": 5601,
      "adena": 5602,
      "aves": 5603,
      "pas": 5604,
      "Ġperiod": 5605,
      "Display": 5606,
      "Variable": 5607,
      "Ġtell": 5608,
      "strftime": 5609,
      "2020": 5610,
      "ources": 5611,
      "180": 5612,
      "Ġeng": 5613,
      "Random": 5614,
      "ndarray": 5615,
      "contains": 5616,
      "ĠInitialize": 5617,
      "Ġneeds": 5618,
      "æīĵåį°": 5619,
      "ĠArg": 5620,
      "program": 5621,
      "Ġmedian": 5622,
      "positions": 5623,
      "Ġchars": 5624,
      "ĠUsing": 5625,
      "ĠWhen": 5626,
      "imple": 5627,
      "ĠINTO": 5628,
      "good": 5629,
      "hing": 5630,
      "pool": 5631,
      "rb": 5632,
      "Ġinorder": 5633,
      "continue": 5634,
      "lex": 5635,
      "Ġjob": 5636,
      "pairs": 5637,
      "Ġ'')": 5638,
      "Ġ>>": 5639,
      "ĠçļĦ": 5640,
      "Ġiterable": 5641,
      ")%": 5642,
      "Ġhouse": 5643,
      "87": 5644,
      "ĵįä½ľ": 5645,
      "Ġdelimiter": 5646,
      "LEFT": 5647,
      "Average": 5648,
      "ĠSearch": 5649,
      "cending": 5650,
      "mylist": 5651,
      "units": 5652,
      "rick": 5653,
      "QL": 5654,
      "çĦ": 5655,
      "ĠFe": 5656,
      "å½¢": 5657,
      "Mo": 5658,
      "foo": 5659,
      "Ġlogging": 5660,
      "ĠÑģÐ¿Ð¸Ñģ": 5661,
      "Ġprod": 5662,
      "Ġtaken": 5663,
      "++++++++": 5664,
      "Ġnn": 5665,
      "route": 5666,
      "ÑĢÑĥ": 5667,
      "Ġwait": 5668,
      "ava": 5669,
      "conv": 5670,
      "Ġgenerator": 5671,
      "cn": 5672,
      "Ġ\"#": 5673,
      "gether": 5674,
      "Ġsoup": 5675,
      "Ġalist": 5676,
      "swap": 5677,
      "Values": 5678,
      "Ġenough": 5679,
      "auss": 5680,
      ":],": 5681,
      "Ġassignment": 5682,
      "FA": 5683,
      "Ġ29": 5684,
      "allenge": 5685,
      "Ġ2018": 5686,
      "isalpha": 5687,
      "clock": 5688,
      "inv": 5689,
      "120": 5690,
      "ĠReg": 5691,
      "¶ľ": 5692,
      "ĠAuthor": 5693,
      "ĠÑĨ": 5694,
      "background": 5695,
      "actual": 5696,
      "ĠUpdate": 5697,
      "Ĥ¨": 5698,
      "ĠEND": 5699,
      "original": 5700,
      "Ġìŀħëł¥": 5701,
      "Month": 5702,
      "src": 5703,
      "chr": 5704,
      "Ġcarry": 5705,
      "Soup": 5706,
      "Ġsalary": 5707,
      "Ġcustom": 5708,
      "íĬ¸": 5709,
      "Ġiterations": 5710,
      "Tk": 5711,
      "Ġdocument": 5712,
      "ÑĥÐ½": 5713,
      "Ġwater": 5714,
      "æĹ¶éĹ´": 5715,
      "Ġ\"\")": 5716,
      "æĪ·": 5717,
      "é»": 5718,
      "Ġ%.": 5719,
      "Ġerrors": 5720,
      "apply": 5721,
      "jpg": 5722,
      "imeter": 5723,
      "ĠÑģÑĤÑĢ": 5724,
      "Arr": 5725,
      "what": 5726,
      "ĠLog": 5727,
      "GB": 5728,
      "Ġreference": 5729,
      "ĠBoard": 5730,
      "Ġiterate": 5731,
      "ĠTra": 5732,
      "Ġ()": 5733,
      "ĠSum": 5734,
      "Ġetc": 5735,
      "Su": 5736,
      "Ġpercent": 5737,
      "Ġworking": 5738,
      "Palindrome": 5739,
      "HEIGHT": 5740,
      "uler": 5741,
      "Ġmet": 5742,
      "Ġterms": 5743,
      "ational": 5744,
      "@@@@": 5745,
      "abe": 5746,
      "Ġsticky": 5747,
      "relu": 5748,
      "ĠCan": 5749,
      "âĸĳ": 5750,
      "Ġnothing": 5751,
      "cessed": 5752,
      "æ²¡æľī": 5753,
      "ÐµÐ½Ð¸Ñı": 5754,
      "database": 5755,
      "ki": 5756,
      "mento": 5757,
      "ĠRun": 5758,
      "Ð²Ð¾": 5759,
      "rectangle": 5760,
      "ĠÑģÐ»": 5761,
      "Ġtoday": 5762,
      "recursive": 5763,
      "________________________________": 5764,
      "è¯ķ": 5765,
      ")>": 5766,
      "07": 5767,
      "GG": 5768,
      "pet": 5769,
      "çĶŁæĪĲ": 5770,
      "Ġcoins": 5771,
      "reduce": 5772,
      "ê²": 5773,
      "ĠìĹ": 5774,
      "owel": 5775,
      "umps": 5776,
      "Ġoptional": 5777,
      "han": 5778,
      "ĠVALUES": 5779,
      "Ġcycle": 5780,
      "again": 5781,
      "BC": 5782,
      "Guess": 5783,
      "Ġmonths": 5784,
      "Ġlarge": 5785,
      "('{}": 5786,
      "ÐµÐº": 5787,
      "Ġbuy": 5788,
      "Ġpol": 5789,
      "Ġsin": 5790,
      "001": 5791,
      "pointer": 5792,
      "Ġoutputs": 5793,
      "series": 5794,
      "Ġtorch": 5795,
      "09": 5796,
      "ium": 5797,
      "Ġsubstring": 5798,
      ")\\": 5799,
      "cles": 5800,
      "Ġindividual": 5801,
      "fr": 5802,
      "eting": 5803,
      "Ġtax": 5804,
      "ilon": 5805,
      "å½Ĵ": 5806,
      "configure": 5807,
      "bd": 5808,
      "oci": 5809,
      "ties": 5810,
      "ĠProgram": 5811,
      "prompt": 5812,
      "ĠThen": 5813,
      "Ġå¦Ĥ": 5814,
      "Ġstri": 5815,
      "ĠPy": 5816,
      "Ġdesi": 5817,
      "Ġchecking": 5818,
      "Ġlater": 5819,
      "ROR": 5820,
      "aux": 5821,
      "endar": 5822,
      "conf": 5823,
      "Ġbits": 5824,
      "ÑĩÐ¸": 5825,
      "Column": 5826,
      "ĠMod": 5827,
      "Ġmag": 5828,
      "Ġtensor": 5829,
      "classmethod": 5830,
      "Ġepoch": 5831,
      "ĠĠĠĠĠĠĠĠĠĠĠĠĠĠĠĠĠĠĠĠĊ": 5832,
      "!'": 5833,
      "Ġbytes": 5834,
      "epoch": 5835,
      "89": 5836,
      ":'))": 5837,
      "fd": 5838,
      "EXT": 5839,
      "mor": 5840,
      "lan": 5841,
      "Sal": 5842,
      "hit": 5843,
      "Ġentre": 5844,
      "(\"*": 5845,
      "ĠHere": 5846,
      ".'''": 5847,
      "Ġinst": 5848,
      "Ġ{:.": 5849,
      "colour": 5850,
      "adas": 5851,
      "æĵįä½ľ": 5852,
      "lored": 5853,
      "selected": 5854,
      "ĠMult": 5855,
      "Bu": 5856,
      "walk": 5857,
      "pat": 5858,
      "inte": 5859,
      "Ġhome": 5860,
      "Parser": 5861,
      "ĠTry": 5862,
      "å¤Ħ": 5863,
      "reh": 5864,
      "åºıåĪĹ": 5865,
      "+(": 5866,
      "TY": 5867,
      "rotate": 5868,
      ")],": 5869,
      "ti": 5870,
      "ĠBase": 5871,
      "èĢħ": 5872,
      "ading": 5873,
      "./": 5874,
      "ĠSy": 5875,
      "Ġfigure": 5876,
      "ares": 5877,
      "DF": 5878,
      "dos": 5879,
      "ween": 5880,
      "Ġbeta": 5881,
      "Ġfactors": 5882,
      "Day": 5883,
      "}{": 5884,
      "renheit": 5885,
      "quantity": 5886,
      "Ġmouse": 5887,
      "æĺİ": 5888,
      "login": 5889,
      "íķľ": 5890,
      "gray": 5891,
      ")+\"": 5892,
      "ç¤ºä¾ĭ": 5893,
      "Menu": 5894,
      "Ð¼Ð°": 5895,
      "Ġdivisor": 5896,
      ")\",": 5897,
      "'ve": 5898,
      "æŃ¤": 5899,
      "Ġauthor": 5900,
      "Ġcapacity": 5901,
      "ĠNe": 5902,
      "999": 5903,
      "Initial": 5904,
      "suit": 5905,
      "Ġlowercase": 5906,
      "ĠÂł": 5907,
      "Ġhtml": 5908,
      "olute": 5909,
      "acters": 5910,
      "Ġfloor": 5911,
      "Ġll": 5912,
      "Ġpaddle": 5913,
      "ĠìĿ´": 5914,
      "Ġconnected": 5915,
      "Ġitself": 5916,
      "ä¹Ī": 5917,
      "exists": 5918,
      "Ġinclu": 5919,
      "stdin": 5920,
      "autifulSoup": 5921,
      "Ġrule": 5922,
      "candidate": 5923,
      "Ġpercentage": 5924,
      "RI": 5925,
      "éĵ¾è¡¨": 5926,
      "annel": 5927,
      "Ġ:\",": 5928,
      "Ġcolour": 5929,
      "Ġprompt": 5930,
      "folder": 5931,
      "Change": 5932,
      "category": 5933,
      "amily": 5934,
      "ä¸İ": 5935,
      "Sorry": 5936,
      "ĠRect": 5937,
      "Ġmulti": 5938,
      "Ġdot": 5939,
      "çĦ¶": 5940,
      "ÑħÐ¾Ð´": 5941,
      "mu": 5942,
      "antidad": 5943,
      "Ġalt": 5944,
      "æ·": 5945,
      "look": 5946,
      "stions": 5947,
      "Vector": 5948,
      "Ġcollection": 5949,
      "Mod": 5950,
      "operator": 5951,
      "uniform": 5952,
      "roman": 5953,
      "build": 5954,
      "prod": 5955,
      "å®ŀä¾ĭ": 5956,
      "Ġupdated": 5957,
      "expression": 5958,
      "Ġdegree": 5959,
      "Ġkwargs": 5960,
      "ĠWorld": 5961,
      "Select": 5962,
      "uding": 5963,
      "ä¼ł": 5964,
      "('/": 5965,
      "ĠDefine": 5966,
      "Ġparts": 5967,
      "è·¯": 5968,
      "duplic": 5969,
      "DD": 5970,
      "Ġconv": 5971,
      "tax": 5972,
      "Ġinclude": 5973,
      "___": 5974,
      "bt": 5975,
      "éĢļè¿ĩ": 5976,
      "Ġ':": 5977,
      "paths": 5978,
      "Ġdele": 5979,
      "sole": 5980,
      "=('": 5981,
      "ric": 5982,
      "Py": 5983,
      "fl": 5984,
      "Ġpat": 5985,
      "Ġdegrees": 5986,
      "hick": 5987,
      "gress": 5988,
      "Regression": 5989,
      "cts": 5990,
      "ged": 5991,
      "tributes": 5992,
      "ÑģÑģ": 5993,
      "Ġmarker": 5994,
      "Ġmatriz": 5995,
      "Ġyes": 5996,
      "ĠPlot": 5997,
      "astype": 5998,
      "atio": 5999,
      "Calcul": 6000,
      "ĠWord": 6001,
      "Arg": 6002,
      "Ġentire": 6003,
      "Ġadjacent": 6004,
      "inventory": 6005,
      "ctionaries": 6006,
      "Ġti": 6007,
      "Ġprediction": 6008,
      "known": 6009,
      "Ã§a": 6010,
      "grad": 6011,
      "ãģ«": 6012,
      "Ð²Ð¾Ð´": 6013,
      "Ġchanged": 6014,
      "Ġdecor": 6015,
      "ë©´": 6016,
      "Ġcas": 6017,
      "Ġthink": 6018,
      "lc": 6019,
      "ced": 6020,
      "Ġdealer": 6021,
      "ĠRep": 6022,
      "ĠIndexError": 6023,
      "--------------": 6024,
      "ita": 6025,
      "Ġ~": 6026,
      "åĲ«": 6027,
      "Ġdie": 6028,
      "äºº": 6029,
      "quivo": 6030,
      "Ĥĺ": 6031,
      "client": 6032,
      "Ġplan": 6033,
      "ìľ¼": 6034,
      "Model": 6035,
      "Ġregular": 6036,
      "Ġevaluate": 6037,
      "Insert": 6038,
      "Ġwritten": 6039,
      "Current": 6040,
      "Ġkind": 6041,
      "rev": 6042,
      "enemy": 6043,
      "chor": 6044,
      "generator": 6045,
      "velocity": 6046,
      "ibonacci": 6047,
      "Ġpickle": 6048,
      "Ġidade": 6049,
      "ìļ©": 6050,
      "ä»£çłģ": 6051,
      "Rep": 6052,
      "erc": 6053,
      "Ð½Ð°Ñĩ": 6054,
      "Ġtogether": 6055,
      "using": 6056,
      "Heap": 6057,
      "icion": 6058,
      "ĠĠĠĠĠĠĠĠĠĠĠĠĠĠĠĠĠĠĠĠĠĠĠĠĠĠĠĠĠĠ": 6059,
      "fruits": 6060,
      "loye": 6061,
      "ĠLinear": 6062,
      "ĠnÃºmeros": 6063,
      "Ġexactly": 6064,
      "ĠRemove": 6065,
      "pin": 6066,
      "Range": 6067,
      "uc": 6068,
      "(',')": 6069,
      "tor": 6070,
      "parameters": 6071,
      ")(": 6072,
      "aje": 6073,
      "Ġequation": 6074,
      "bn": 6075,
      "ĠGra": 6076,
      "lob": 6077,
      "ĠDraw": 6078,
      "ATA": 6079,
      "Problem": 6080,
      "median": 6081,
      "Sample": 6082,
      "Ġvalidation": 6083,
      "Ġdiagonal": 6084,
      "Draw": 6085,
      "means": 6086,
      "ĠVal": 6087,
      "`.": 6088,
      "áĥ": 6089,
      "Level": 6090,
      "ĠSto": 6091,
      "angles": 6092,
      "fast": 6093,
      "Mat": 6094,
      "Ġdebug": 6095,
      "Ġsuma": 6096,
      "Ġallowed": 6097,
      "Ġseu": 6098,
      "ensity": 6099,
      "Ġ{:": 6100,
      "éĶĻ": 6101,
      "ressor": 6102,
      "æł¹": 6103,
      "grades": 6104,
      "books": 6105,
      "ĠBu": 6106,
      "Ġdesired": 6107,
      "Ġgoes": 6108,
      "---------------": 6109,
      "íĦ": 6110,
      "inct": 6111,
      "abra": 6112,
      "TreeNode": 6113,
      "ĠÐ°": 6114,
      "ingre": 6115,
      "Book": 6116,
      "Ġ\"\":": 6117,
      "Ġcontinu": 6118,
      "xs": 6119,
      "ãģ§": 6120,
      "Box": 6121,
      "Ġemployee": 6122,
      "seng": 6123,
      "uristic": 6124,
      "aises": 6125,
      "reating": 6126,
      "questions": 6127,
      "cluster": 6128,
      "BST": 6129,
      "ama": 6130,
      "-------------": 6131,
      "æĿ¡": 6132,
      "rock": 6133,
      "unctuation": 6134,
      "chase": 6135,
      "pot": 6136,
      "ĠURL": 6137,
      "Ġvalidate": 6138,
      "Ġdistances": 6139,
      "Ġstats": 6140,
      "sheet": 6141,
      "Ġcos": 6142,
      "Man": 6143,
      "Ġ'{": 6144,
      "ĠInter": 6145,
      "ĠOne": 6146,
      "cross": 6147,
      "ìļĶ": 6148,
      "La": 6149,
      "Ġentries": 6150,
      "Ġsuit": 6151,
      "Ġreach": 6152,
      "Ġ34": 6153,
      "Ġpes": 6154,
      "directory": 6155,
      "rive": 6156,
      "Width": 6157,
      "åŃĺåľ¨": 6158,
      "Ag": 6159,
      "Ġ=\",": 6160,
      "same": 6161,
      "ĠÑģÑĤÑĢÐ¾Ðº": 6162,
      "Ap": 6163,
      "Square": 6164,
      "oring": 6165,
      "ances": 6166,
      "multiply": 6167,
      "Ġcada": 6168,
      "å½ĵåīį": 6169,
      "Ġrules": 6170,
      "Run": 6171,
      "Here": 6172,
      "Ġgender": 6173,
      "single": 6174,
      "ĠCSV": 6175,
      "Ġmar": 6176,
      "Dif": 6177,
      "{}\".": 6178,
      "comes": 6179,
      "osition": 6180,
      "sprite": 6181,
      "57": 6182,
      "fruit": 6183,
      "ithub": 6184,
      "Train": 6185,
      "Ð»ÐµÐ¼ÐµÐ½": 6186,
      "Ġreci": 6187,
      "ullet": 6188,
      "Root": 6189,
      "banana": 6190,
      "Rate": 6191,
      "å¹´": 6192,
      "éĢī": 6193,
      "Ġ64": 6194,
      "çļĦåĢ¼": 6195,
      "Ġways": 6196,
      "å®Į": 6197,
      "Ġ},": 6198,
      "123456": 6199,
      "å®ŀçİ°": 6200,
      "[[": 6201,
      "ãģĹ": 6202,
      "bc": 6203,
      "assertTrue": 6204,
      "Ġbackground": 6205,
      "59": 6206,
      "Trans": 6207,
      "err": 6208,
      "Ġ'_": 6209,
      "MAX": 6210,
      "Ġnl": 6211,
      "../": 6212,
      "only": 6213,
      "ÑĥÑİ": 6214,
      "Ġvs": 6215,
      "Ġactions": 6216,
      "GPIO": 6217,
      "éĴ": 6218,
      "phrase": 6219,
      "ĠTABLE": 6220,
      "ULT": 6221,
      "bed": 6222,
      "friends": 6223,
      "'%": 6224,
      "||": 6225,
      "Ġsrc": 6226,
      "Weight": 6227,
      "Ġprinting": 6228,
      "Ġshuffle": 6229,
      "ike": 6230,
      "amma": 6231,
      "Ġip": 6232,
      "Ġmarks": 6233,
      "ç«": 6234,
      "ĠMain": 6235,
      "ÐĿ": 6236,
      "ÂłÂł": 6237,
      "ĠSE": 6238,
      "Ġsamples": 6239,
      "Ġart": 6240,
      "vate": 6241,
      "Ġprofit": 6242,
      "Dist": 6243,
      "render": 6244,
      "heapp": 6245,
      "Ġregression": 6246,
      "bank": 6247,
      "paper": 6248,
      "Ġuni": 6249,
      "Ġdetails": 6250,
      "ÑĥÐ½Ðº": 6251,
      "Ġagent": 6252,
      "ighted": 6253,
      "íĺ": 6254,
      "qr": 6255,
      "åħ¨": 6256,
      "UI": 6257,
      "Oper": 6258,
      "Ġå¦Ĥæŀľ": 6259,
      "Ġeps": 6260,
      "network": 6261,
      "water": 6262,
      "ĠCall": 6263,
      "Ġ55": 6264,
      ")*(": 6265,
      "Ġnull": 6266,
      "éĤ£": 6267,
      "Ġgreen": 6268,
      "æģ": 6269,
      "]).": 6270,
      "Ġpredictions": 6271,
      "Ð¡": 6272,
      "Ġconstruct": 6273,
      "forms": 6274,
      "loyees": 6275,
      "Ġsection": 6276,
      "ccion": 6277,
      "è¶": 6278,
      "Ġpixels": 6279,
      "Ġdu": 6280,
      "Ġfuncion": 6281,
      "Ġprob": 6282,
      "éķ¿åº¦": 6283,
      "Ġincrease": 6284,
      "\">": 6285,
      "DOWN": 6286,
      "ĠÐ¸Ð·": 6287,
      "Ġcirc": 6288,
      "abstractmethod": 6289,
      "Ġ!": 6290,
      "Ġremainder": 6291,
      "Ġmoving": 6292,
      "Ġquantity": 6293,
      "Ð½ÑĭÑħ": 6294,
      "Ġseed": 6295,
      "sep": 6296,
      "ĠMove": 6297,
      "tol": 6298,
      "ffee": 6299,
      "ĠIs": 6300,
      "Ġmis": 6301,
      "abcdef": 6302,
      "æĮī": 6303,
      "Ġlit": 6304,
      "ĠState": 6305,
      "ĠĠĠčĊ": 6306,
      "Obj": 6307,
      "years": 6308,
      "èİ·åıĸ": 6309,
      "After": 6310,
      "250": 6311,
      "ipedia": 6312,
      "ãģĦ": 6313,
      "Ġ\"{": 6314,
      "Ġalong": 6315,
      "ili": 6316,
      "MI": 6317,
      "todo": 6318,
      "Ġadds": 6319,
      "Ġgives": 6320,
      "weather": 6321,
      "That": 6322,
      "iculty": 6323,
      "ye": 6324,
      "æľº": 6325,
      "LinkedList": 6326,
      "ceed": 6327,
      "ivity": 6328,
      "kan": 6329,
      "Ġorigin": 6330,
      "Ġcontrol": 6331,
      "ERS": 6332,
      "assign": 6333,
      "months": 6334,
      "Ġbracket": 6335,
      "ĠBeautifulSoup": 6336,
      "Ġfn": 6337,
      "Ġclosest": 6338,
      "teen": 6339,
      "(\"[": 6340,
      "umul": 6341,
      "Ġtransform": 6342,
      "Ġdivisible": 6343,
      "æľĢå¤§": 6344,
      "Ġmight": 6345,
      "ories": 6346,
      "Ġcer": 6347,
      "zen": 6348,
      "VAL": 6349,
      "gt": 6350,
      "velo": 6351,
      "gr": 6352,
      "Ġcomo": 6353,
      "success": 6354,
      "frequency": 6355,
      "unto": 6356,
      ".\".": 6357,
      "mass": 6358,
      "ured": 6359,
      "Rec": 6360,
      "contents": 6361,
      "Ġexecute": 6362,
      "å®¹": 6363,
      "Ġlayers": 6364,
      "(\"{": 6365,
      "ĠLoop": 6366,
      "ĠAPI": 6367,
      "Ġgcd": 6368,
      "Nodes": 6369,
      "ond": 6370,
      "('''": 6371,
      "Ġstation": 6372,
      "tot": 6373,
      "sented": 6374,
      "PE": 6375,
      "Ġhis": 6376,
      "ä¿®": 6377,
      "\"\"\"\"": 6378,
      "ĠVariable": 6379,
      "duction": 6380,
      "Ġls": 6381,
      "gan": 6382,
      "hesis": 6383,
      "ĠÐ¾ÑĤ": 6384,
      "inspace": 6385,
      "chain": 6386,
      "fi": 6387,
      "Ġ','": 6388,
      "Ġquad": 6389,
      "111": 6390,
      "\"]:": 6391,
      "è¾¹": 6392,
      "odo": 6393,
      "(\\": 6394,
      "Ġhigher": 6395,
      "heading": 6396,
      "Ġbuilt": 6397,
      "è¿Ń": 6398,
      "cope": 6399,
      "Product": 6400,
      "numeric": 6401,
      "è¿Ńä»£": 6402,
      "ocab": 6403,
      "ĠQuestion": 6404,
      "Ð¸Ð½": 6405,
      "Ġabc": 6406,
      "Ġwriter": 6407,
      "ä½Ĩ": 6408,
      "venue": 6409,
      "ëı": 6410,
      "Ġ'',": 6411,
      "hot": 6412,
      "bytes": 6413,
      "Ġdimensions": 6414,
      "æĹł": 6415,
      "=[\"": 6416,
      "00000": 6417,
      "']]": 6418,
      "âĢĶâĢĶ": 6419,
      "cogn": 6420,
      "learning": 6421,
      "Question": 6422,
      "Te": 6423,
      "Binary": 6424,
      "ĠTH": 6425,
      "éħ": 6426,
      "Ġvisit": 6427,
      "Ġbeginning": 6428,
      "åĵ": 6429,
      "]/": 6430,
      "ÅŁ": 6431,
      "variables": 6432,
      "Ġbank": 6433,
      "destroy": 6434,
      "ands": 6435,
      "neighbour": 6436,
      "Hi": 6437,
      "customer": 6438,
      "Ġca": 6439,
      "Ġhealth": 6440,
      "night": 6441,
      "Ġfree": 6442,
      "ya": 6443,
      "pur": 6444,
      "åĽł": 6445,
      "ynam": 6446,
      "intersection": 6447,
      "Ġ42": 6448,
      "dimension": 6449,
      "GER": 6450,
      "DI": 6451,
      "è®¤": 6452,
      "bus": 6453,
      "Ġreache": 6454,
      "Ġduplicate": 6455,
      "...')": 6456,
      "68": 6457,
      "secut": 6458,
      "alog": 6459,
      "ferences": 6460,
      "Ġ150": 6461,
      "ĠSpace": 6462,
      "Ġruns": 6463,
      "]=='": 6464,
      "41": 6465,
      "minutes": 6466,
      "Ġbad": 6467,
      "please": 6468,
      "Ġvisual": 6469,
      "Ġthing": 6470,
      "report": 6471,
      "Ġnested": 6472,
      "Ġdeci": 6473,
      "({'": 6474,
      "sex": 6475,
      "Ġexamples": 6476,
      "2019": 6477,
      "kemon": 6478,
      "rown": 6479,
      "ĠInte": 6480,
      "Ent": 6481,
      "çķ": 6482,
      "bst": 6483,
      "Ġ123": 6484,
      "omat": 6485,
      "ë§": 6486,
      "Now": 6487,
      "åŁ": 6488,
      "icial": 6489,
      "slot": 6490,
      "invalid": 6491,
      "cr": 6492,
      "Ġfar": 6493,
      "lapsed": 6494,
      "coin": 6495,
      "Ġê²": 6496,
      "ategy": 6497,
      "ĠOF": 6498,
      "Ġbet": 6499,
      "EST": 6500,
      "Ġrev": 6501,
      "Ġproperty": 6502,
      "Ġfeed": 6503,
      "Ġfive": 6504,
      "íķ´": 6505,
      "Ġbucket": 6506,
      "Good": 6507,
      "Ġinf": 6508,
      "ĠInt": 6509,
      "Ġesc": 6510,
      "é«": 6511,
      "plus": 6512,
      "Ġlearn": 6513,
      "details": 6514,
      "Ġplaying": 6515,
      "ended": 6516,
      "Ġtweet": 6517,
      "Ġreading": 6518,
      "iving": 6519,
      "ese": 6520,
      "loads": 6521,
      "reet": 6522,
      "debug": 6523,
      "cities": 6524,
      "apon": 6525,
      "Ġcombinations": 6526,
      "Ġactive": 6527,
      "çĪ": 6528,
      "?:": 6529,
      "pare": 6530,
      "Ġ65": 6531,
      "Ġcandidates": 6532,
      "Pop": 6533,
      "åľ°": 6534,
      "digo": 6535,
      "available": 6536,
      "Ġdoor": 6537,
      ")',": 6538,
      "Ġë³": 6539,
      "_,": 6540,
      "Ġ'':": 6541,
      "Ġhuman": 6542,
      ">>>>": 6543,
      "Red": 6544,
      "equ": 6545,
      "groupby": 6546,
      "Ġconstructor": 6547,
      "capitalize": 6548,
      "Ġelemento": 6549,
      "]>": 6550,
      "Points": 6551,
      "\"][": 6552,
      "PS": 6553,
      "alar": 6554,
      "ners": 6555,
      "lision": 6556,
      "but": 6557,
      "kel": 6558,
      "Font": 6559,
      "Ġseparated": 6560,
      "IO": 6561,
      "ĠScore": 6562,
      "metric": 6563,
      "Ġplus": 6564,
      "Ġgroups": 6565,
      "Ġmapping": 6566,
      "ĠOpen": 6567,
      "æµĭ": 6568,
      "Ġclock": 6569,
      "Message": 6570,
      "Ġloops": 6571,
      "Ġintro": 6572,
      "ĠÐ¼Ð°": 6573,
      "Ġlogin": 6574,
      "Ã¶": 6575,
      "Ġallows": 6576,
      "Ġsubject": 6577,
      "Ġlarger": 6578,
      "apter": 6579,
      "inorder": 6580,
      "km": 6581,
      "Ġwhose": 6582,
      "Sur": 6583,
      "Classifier": 6584,
      "nder": 6585,
      "aci": 6586,
      "before": 6587,
      "summary": 6588,
      "åı¥": 6589,
      "ÑĥÐ½ÐºÑĨÐ¸": 6590,
      "writ": 6591,
      "cases": 6592,
      "Ġrecords": 6593,
      "ĠResult": 6594,
      ">\",": 6595,
      "Ġjump": 6596,
      "positive": 6597,
      "Ãµ": 6598,
      ",[": 6599,
      "Ġchain": 6600,
      "Ġexisting": 6601,
      "intext": 6602,
      "])))": 6603,
      "stit": 6604,
      ",)": 6605,
      ":{": 6606,
      "ÑĤÑĭ": 6607,
      "Ġexercise": 6608,
      "Ġvo": 6609,
      "neg": 6610,
      "setter": 6611,
      "ê³ł": 6612,
      "Ġnumeros": 6613,
      "GE": 6614,
      "categor": 6615,
      "Ġvelocity": 6616,
      "void": 6617,
      "Method": 6618,
      "Ġcome": 6619,
      "ĠCur": 6620,
      "iness": 6621,
      "Ġcomment": 6622,
      "req": 6623,
      "Ġ\",\"": 6624,
      "ayer": 6625,
      "Ġsaved": 6626,
      "tro": 6627,
      "served": 6628,
      "Ġdetect": 6629,
      "Ġcube": 6630,
      "nan": 6631,
      "soup": 6632,
      "cision": 6633,
      "Ġfail": 6634,
      "project": 6635,
      "Ġconsider": 6636,
      "ourse": 6637,
      "usic": 6638,
      "double": 6639,
      "Ġfruit": 6640,
      "incipal": 6641,
      "mouse": 6642,
      "Ġhello": 6643,
      "Ġvertical": 6644,
      "RIGHT": 6645,
      "jor": 6646,
      "Ġë§": 6647,
      "oftmax": 6648,
      "coordinate": 6649,
      "ws": 6650,
      "ĠChange": 6651,
      "Ġcut": 6652,
      "Ġformula": 6653,
      "ç§»": 6654,
      "geometry": 6655,
      "CON": 6656,
      "cut": 6657,
      "ĠMon": 6658,
      "Ġkernel": 6659,
      "Ġclassifier": 6660,
      "ality": 6661,
      "ÑĢÐ¸": 6662,
      "Ġassoci": 6663,
      "Ġordered": 6664,
      "Ġsigmoid": 6665,
      "secutive": 6666,
      "roller": 6667,
      "ARY": 6668,
      "Ġerr": 6669,
      "ë¬¸": 6670,
      "çĶ¨æĪ·": 6671,
      "Ġfuncto": 6672,
      "flip": 6673,
      "Ġencrypt": 6674,
      "KEY": 6675,
      "Ġoccur": 6676,
      "ä»»": 6677,
      "Ġ----------------------------------------------------------------": 6678,
      "ĠMo": 6679,
      "ĠmÃ©": 6680,
      "ads": 6681,
      "ĠAnd": 6682,
      "éħį": 6683,
      "Amount": 6684,
      "ç¼ĸ": 6685,
      "ironment": 6686,
      "Account": 6687,
      "tit": 6688,
      "Ġfunctools": 6689,
      "module": 6690,
      "ëĵľ": 6691,
      "_)": 6692,
      "Ġkeras": 6693,
      "(__": 6694,
      "Ġneg": 6695,
      "stdout": 6696,
      "å¼Ģå§ĭ": 6697,
      "uni": 6698,
      "Ġsubtract": 6699,
      "Ġnecessary": 6700,
      "èĢĮ": 6701,
      "ised": 6702,
      "tion": 6703,
      "super": 6704,
      "ĠCODE": 6705,
      "acao": 6706,
      "unds": 6707,
      "(\"----------------": 6708,
      "Ġwrapper": 6709,
      "æŀĦ": 6710,
      "aded": 6711,
      "52": 6712,
      "Ġdog": 6713,
      "coeff": 6714,
      "icle": 6715,
      "false": 6716,
      "Ġinventory": 6717,
      "bability": 6718,
      "Ġones": 6719,
      "LO": 6720,
      ".*": 6721,
      "Ġborder": 6722,
      "Win": 6723,
      "NE": 6724,
      "Ġtraversal": 6725,
      "urname": 6726,
      "Series": 6727,
      "Ġrandomly": 6728,
      "COLOR": 6729,
      "Ġnone": 6730,
      "threshold": 6731,
      "']))": 6732,
      "ĠOper": 6733,
      "Ġphrase": 6734,
      "Ġcomplex": 6735,
      "]]:": 6736,
      "Ġ75": 6737,
      "Ass": 6738,
      "Over": 6739,
      "uron": 6740,
      "Ġ33": 6741,
      "Grid": 6742,
      "Ġstatistics": 6743,
      "Ġargv": 6744,
      "ĠTEXT": 6745,
      "linspace": 6746,
      "æ¡": 6747,
      "Ġrec": 6748,
      "Ð½ÑĭÐ¹": 6749,
      "æĮĩå®ļ": 6750,
      "Ġconverted": 6751,
      "ÅĤ": 6752,
      "ĠImplement": 6753,
      "ĠPass": 6754,
      "pc": 6755,
      "ä¿Ŀ": 6756,
      "ĠÐ³": 6757,
      "\"\"\")": 6758,
      "DB": 6759,
      "Ġsingly": 6760,
      "Ġbubble": 6761,
      "600": 6762,
      "ĠIS": 6763,
      "ÐºÐ¾": 6764,
      "eps": 6765,
      "Ġsec": 6766,
      "John": 6767,
      "gmail": 6768,
      "irm": 6769,
      "ä¿®æĶ¹": 6770,
      "expr": 6771,
      "Balance": 6772,
      "Ġtot": 6773,
      "rength": 6774,
      "Ġpieces": 6775,
      "åİŁ": 6776,
      "Ġfields": 6777,
      "ĠTuple": 6778,
      "soma": 6779,
      "ÄĻ": 6780,
      "employee": 6781,
      "å½ķ": 6782,
      "Act": 6783,
      "usive": 6784,
      "ĠBST": 6785,
      "Cell": 6786,
      "Ġcars": 6787,
      "é«ĺ": 6788,
      "Ġwinning": 6789,
      "Ġpin": 6790,
      "Tuple": 6791,
      "sage": 6792,
      "ç³": 6793,
      "Ġvectors": 6794,
      "å¤ĸ": 6795,
      "Ġsat": 6796,
      "ĠCompute": 6797,
      "Ġcontador": 6798,
      "Ġattr": 6799,
      "çĽ´æİ¥": 6800,
      "lar": 6801,
      "OUNT": 6802,
      "sect": 6803,
      "ĠĠĠĠĠĠĠĠĠĠĠĠĠĠĠĠčĊ": 6804,
      "hood": 6805,
      "chivo": 6806,
      "pus": 6807,
      "Ġrotation": 6808,
      "ìĬ¤íĬ¸": 6809,
      "ij": 6810,
      "opping": 6811,
      "ratio": 6812,
      "Ġanswers": 6813,
      "Ġear": 6814,
      "PLE": 6815,
      "=''": 6816,
      "Ġvideo": 6817,
      "éĿŀ": 6818,
      "Ġiterator": 6819,
      "Ð¸ÑĤ": 6820,
      "Net": 6821,
      "åĿĹ": 6822,
      "rup": 6823,
      "Ġtravel": 6824,
      "Ġsides": 6825,
      "Ã¤": 6826,
      "vol": 6827,
      "reat": 6828,
      "ĠExercise": 6829,
      "69": 6830,
      "Second": 6831,
      "Ġspecify": 6832,
      ":]:": 6833,
      "five": 6834,
      "ĠDO": 6835,
      "holder": 6836,
      "»åĬł": 6837,
      "att": 6838,
      "Ġinsertion": 6839,
      "ARE": 6840,
      "formed": 6841,
      "Ġappear": 6842,
      "ĠÐºÐ°": 6843,
      "MENT": 6844,
      "ĠTrain": 6845,
      "¨ìĪĺ": 6846,
      "Ġnb": 6847,
      "missions": 6848,
      "maximum": 6849,
      "Ġinstruction": 6850,
      "beta": 6851,
      "ĠÑįÐ»ÐµÐ¼ÐµÐ½": 6852,
      "æ¯ıä¸ª": 6853,
      "dicion": 6854,
      "Ġquestions": 6855,
      "Ġmerged": 6856,
      "ĠìĪĺ": 6857,
      "Ser": 6858,
      "Ġcalling": 6859,
      "?\",": 6860,
      "Ġroute": 6861,
      "iner": 6862,
      "Ġmass": 6863,
      "REEN": 6864,
      "pan": 6865,
      "short": 6866,
      "pu": 6867,
      "rag": 6868,
      "Ġsex": 6869,
      "FILE": 6870,
      "ĨĴ": 6871,
      "])]": 6872,
      "Ġ####": 6873,
      "Title": 6874,
      "YY": 6875,
      "ERROR": 6876,
      "writerow": 6877,
      "TEGER": 6878,
      "enqueue": 6879,
      "avra": 6880,
      "Ġpredicted": 6881,
      "Ġleaf": 6882,
      "nections": 6883,
      "?\"": 6884,
      "Ġsubset": 6885,
      "pady": 6886,
      "84": 6887,
      "wins": 6888,
      "Stat": 6889,
      "Ġreport": 6890,
      "plic": 6891,
      "Ġ))": 6892,
      "padx": 6893,
      "å¤´": 6894,
      "separ": 6895,
      "starting": 6896,
      "coins": 6897,
      "urs": 6898,
      "icks": 6899,
      "åĪ«": 6900,
      "Group": 6901,
      "Dictionary": 6902,
      "movies": 6903,
      "Ġthings": 6904,
      "Ġtipo": 6905,
      "which": 6906,
      "Ġtraverse": 6907,
      "ĠInsert": 6908,
      "Ġ180": 6909,
      "Ġfi": 6910,
      "ìĭľ": 6911,
      "Ġcart": 6912,
      "gorithms": 6913,
      "divide": 6914,
      "iding": 6915,
      "Ġsegment": 6916,
      "Ġcapital": 6917,
      "ĠNULL": 6918,
      "ym": 6919,
      "ç»Ļå®ļ": 6920,
      "æĶ¾": 6921,
      "note": 6922,
      "Ġbeh": 6923,
      "Ġ..": 6924,
      "¶ľëł¥": 6925,
      "Ġduplicates": 6926,
      "cycle": 6927,
      "ito": 6928,
      "Ð¸Ñĩ": 6929,
      "popleft": 6930,
      "lide": 6931,
      "Match": 6932,
      "Ġfriend": 6933,
      "Ġmetri": 6934,
      "Ãµes": 6935,
      "ĠVer": 6936,
      "ç¡": 6937,
      "gramming": 6938,
      "quick": 6939,
      "Ġë¬¸": 6940,
      "Ġintersection": 6941,
      "ractice": 6942,
      "Ġfoi": 6943,
      "Ġide": 6944,
      "Ġcombination": 6945,
      "ĠBy": 6946,
      "eks": 6947,
      "åĨį": 6948,
      "ĠHel": 6949,
      "elsius": 6950,
      "Fin": 6951,
      "vw": 6952,
      "ç´¢å¼ķ": 6953,
      "ë°": 6954,
      "ĠPath": 6955,
      "ĠComplexity": 6956,
      "Ġ\"<": 6957,
      "Ġëĭ": 6958,
      "Mon": 6959,
      "ĠOther": 6960,
      "Ġqual": 6961,
      "ulations": 6962,
      "transpose": 6963,
      "onus": 6964,
      "Thank": 6965,
      "ceil": 6966,
      "ORT": 6967,
      "matriz": 6968,
      "Ġyet": 6969,
      "Ġpt": 6970,
      "Division": 6971,
      "WH": 6972,
      "ĠCont": 6973,
      "leaf": 6974,
      "Ġprinted": 6975,
      "Ġmaking": 6976,
      "ìĨ": 6977,
      "Ġopcion": 6978,
      "ī¤": 6979,
      "................": 6980,
      "incl": 6981,
      "bre": 6982,
      "Ġcorner": 6983,
      "sl": 6984,
      "Ġvowels": 6985,
      "æľĢåĲİ": 6986,
      "COM": 6987,
      "minimum": 6988,
      "jkl": 6989,
      "strar": 6990,
      "Ġtie": 6991,
      "ATH": 6992,
      "Ġnltk": 6993,
      "Dis": 6994,
      "Employee": 6995,
      "given": 6996,
      "Idx": 6997,
      "Ġrespective": 6998,
      "ĠKEY": 6999,
      "groups": 7000,
      "cas": 7001,
      "Ġcities": 7002,
      ".',": 7003,
      "guesses": 7004,
      "ä¸įèĥ½": 7005,
      "iples": 7006,
      "ëŀ": 7007,
      "íĻ": 7008,
      "stanti": 7009,
      "*****": 7010,
      "spec": 7011,
      "relation": 7012,
      "factors": 7013,
      "otion": 7014,
      "è¯»": 7015,
      "Ġdictionaries": 7016,
      "Top": 7017,
      "cart": 7018,
      "ills": 7019,
      "Ĳľ": 7020,
      "789": 7021,
      "BO": 7022,
      "Ġregion": 7023,
      "ĠPR": 7024,
      "åĬŁ": 7025,
      "Ð½Ðµ": 7026,
      "äº¤": 7027,
      "ìŀħ": 7028,
      "dtype": 7029,
      "Ġ'-'": 7030,
      "rar": 7031,
      "Tri": 7032,
      "Ġedit": 7033,
      "Bl": 7034,
      "ÑĢÐ°Ð¼": 7035,
      "lore": 7036,
      "ĠDescription": 7037,
      "Ġbias": 7038,
      "Ġ\"\",": 7039,
      "Password": 7040,
      "ghi": 7041,
      "Ġends": 7042,
      "robot": 7043,
      "ìĺ": 7044,
      "=%": 7045,
      "endo": 7046,
      "ĠTrans": 7047,
      "Ġsche": 7048,
      "Ã¡l": 7049,
      "ç¬¬ä¸Ģä¸ª": 7050,
      "!!!": 7051,
      "duration": 7052,
      "Ġ<<": 7053,
      "wb": 7054,
      "izar": 7055,
      "Ġdia": 7056,
      "reversed": 7057,
      "ĠOptional": 7058,
      "rowser": 7059,
      "ĠÐ»": 7060,
      "^^": 7061,
      "ially": 7062,
      "Ġrecursion": 7063,
      "take": 7064,
      "INE": 7065,
      "pdf": 7066,
      "undred": 7067,
      "Ġsupport": 7068,
      "Ġregex": 7069,
      "ales": 7070,
      "Ġseparate": 7071,
      "Ð¾Ð»ÑĮÐ·": 7072,
      "ONE": 7073,
      "Ġparticular": 7074,
      "Parent": 7075,
      "memory": 7076,
      "ieve": 7077,
      "regex": 7078,
      "squared": 7079,
      "encoding": 7080,
      "Ġhorizontal": 7081,
      "ĠRectangle": 7082,
      "apes": 7083,
      "Ġ2017": 7084,
      "åĪĿ": 7085,
      "è£": 7086,
      "Ġascending": 7087,
      "]!=": 7088,
      "Ġbel": 7089,
      "OCK": 7090,
      "000000": 7091,
      "mission": 7092,
      "Ġencoded": 7093,
      "åİ»": 7094,
      "çľĭ": 7095,
      "ÑģÑĤÑĮ": 7096,
      "æģ¯": 7097,
      "Convert": 7098,
      "FO": 7099,
      "bsite": 7100,
      "256": 7101,
      "Ġ/=": 7102,
      "BER": 7103,
      "cra": 7104,
      "Ġten": 7105,
      "Ġcmd": 7106,
      "#----------------------------------------------------------------": 7107,
      "aussian": 7108,
      "><": 7109,
      "å¥½": 7110,
      "Ġliste": 7111,
      "ade": 7112,
      "Ġhost": 7113,
      "Ġhad": 7114,
      "Implemented": 7115,
      "github": 7116,
      "ä¿¡": 7117,
      "itter": 7118,
      "dump": 7119,
      "Ġbyte": 7120,
      "Ġslice": 7121,
      "more": 7122,
      "__,": 7123,
      "Ġreward": 7124,
      "forme": 7125,
      "ãĢĢ": 7126,
      "dates": 7127,
      "Ġmovies": 7128,
      "Answer": 7129,
      "Ðŀ": 7130,
      "Ġpermutations": 7131,
      "ĠArguments": 7132,
      "codes": 7133,
      "Depth": 7134,
      "æıĲ": 7135,
      "Ġ120": 7136,
      "Ġregist": 7137,
      "åħĥç»Ħ": 7138,
      "ç»§": 7139,
      "Ġincorrect": 7140,
      "cube": 7141,
      "íĦ°": 7142,
      "Would": 7143,
      "pag": 7144,
      "iterations": 7145,
      "ilk": 7146,
      "that": 7147,
      "Option": 7148,
      "bob": 7149,
      "Ġmini": 7150,
      "ç¨ĭåºı": 7151,
      "guessed": 7152,
      "Ġmes": 7153,
      "Ġinstances": 7154,
      "Ġ2021": 7155,
      "Ġverbose": 7156,
      "present": 7157,
      "ãģ¯": 7158,
      "Ġcontext": 7159,
      "è¨": 7160,
      "acency": 7161,
      "_{": 7162,
      "Ġfinish": 7163,
      "ĠTwo": 7164,
      "ãĤ¹": 7165,
      "inalg": 7166,
      "Ġstores": 7167,
      "mbed": 7168,
      "Ġlim": 7169,
      "åıĳ": 7170,
      "\");": 7171,
      "ingle": 7172,
      "ASE": 7173,
      "Rows": 7174,
      "Ġnumeric": 7175,
      "job": 7176,
      "Ġlic": 7177,
      "é»ĺ": 7178,
      "(\"|": 7179,
      "Ġpriority": 7180,
      "setup": 7181,
      "Ġut": 7182,
      "2018": 7183,
      "Open": 7184,
      "udo": 7185,
      "future": 7186,
      "timer": 7187,
      "ìĦ¸": 7188,
      "ĠJSON": 7189,
      "unded": 7190,
      "ä¸įæĺ¯": 7191,
      "Ð½Ð¾Ðµ": 7192,
      "third": 7193,
      "(\"#": 7194,
      "SH": 7195,
      "Ġrepresented": 7196,
      "Ġcompreh": 7197,
      "Ġtem": 7198,
      "(\",\")": 7199,
      "Ġdese": 7200,
      "cript": 7201,
      "áº": 7202,
      "percentage": 7203,
      "éĢĴå½Ĵ": 7204,
      "ĠnewNode": 7205,
      "Ġfavorite": 7206,
      "ĠEng": 7207,
      "quival": 7208,
      "bat": 7209,
      "edu": 7210,
      "=-=-": 7211,
      "Ġana": 7212,
      "ĠCOM": 7213,
      "#%%": 7214,
      "mir": 7215,
      "endswith": 7216,
      "ÑĥÐ¼": 7217,
      "ĠÐ·Ð½Ð°Ñĩ": 7218,
      "Ġsubtree": 7219,
      "ni": 7220,
      "smallest": 7221,
      "eto": 7222,
      "Ġdecision": 7223,
      "Ġ;": 7224,
      "Ġcalculated": 7225,
      "Ġpred": 7226,
      "kw": 7227,
      "ðŁ": 7228,
      "MIN": 7229,
      "ĠÂ": 7230,
      "ypot": 7231,
      "è½¬æį¢": 7232,
      "Ġartic": 7233,
      "ĥĿ": 7234,
      "Ġsong": 7235,
      "Ġdamage": 7236,
      ")/(": 7237,
      "por": 7238,
      "ÑĢÐ¾Ð²": 7239,
      "operation": 7240,
      "Ġfinally": 7241,
      "catenate": 7242,
      "Space": 7243,
      "éĩįå¤į": 7244,
      "ĠNotImplemented": 7245,
      "Ġnorm": 7246,
      "Ġ%%": 7247,
      "é»ĺè®¤": 7248,
      "åķ": 7249,
      "Ġpadding": 7250,
      "ï¼Ł": 7251,
      "lr": 7252,
      "Sto": 7253,
      "Ġcertain": 7254,
      "?')": 7255,
      "Ġchoices": 7256,
      "Ġscipy": 7257,
      "lev": 7258,
      "Play": 7259,
      "ãģĹãģ": 7260,
      "Ġmatching": 7261,
      "ĠFormat": 7262,
      "ae": 7263,
      "Wh": 7264,
      "Ġok": 7265,
      "æĢģ": 7266,
      "Ġrelative": 7267,
      "AGE": 7268,
      "surface": 7269,
      "paddle": 7270,
      "ASS": 7271,
      "courses": 7272,
      "76": 7273,
      "ĠEl": 7274,
      "Ġturns": 7275,
      "Ð½ÑĭÐµ": 7276,
      "prediction": 7277,
      "pixel": 7278,
      "Ġknown": 7279,
      "deepcopy": 7280,
      "Ð³Ð¾": 7281,
      "ech": 7282,
      ":,": 7283,
      "ï¼Ľ": 7284,
      "ĠAny": 7285,
      "ĠÎ": 7286,
      "volume": 7287,
      "heses": 7288,
      "simple": 7289,
      "ččĊ": 7290,
      "ë¶": 7291,
      "ĠSpe": 7292,
      "subject": 7293,
      "Ġsorting": 7294,
      "unch": 7295,
      "æ¸": 7296,
      "-->": 7297,
      "79": 7298,
      "ç³»": 7299,
      "period": 7300,
      "Ġjoin": 7301,
      "58": 7302,
      "Ġtimer": 7303,
      "Reader": 7304,
      "Ġable": 7305,
      "Choose": 7306,
      "Ġ{}\\": 7307,
      "characters": 7308,
      "compon": 7309,
      "Ġweather": 7310,
      "Ġconsist": 7311,
      "minute": 7312,
      "Ġptr": 7313,
      "park": 7314,
      "bra": 7315,
      "mediate": 7316,
      "Ð°Ð²": 7317,
      "station": 7318,
      "rices": 7319,
      "Pe": 7320,
      "atural": 7321,
      "ĠSquare": 7322,
      "å¿ħ": 7323,
      "choices": 7324,
      "Ġuseful": 7325,
      "Ġåľ": 7326,
      "isinstance": 7327,
      "Ġchunk": 7328,
      "`,": 7329,
      "Which": 7330,
      "Ġmachine": 7331,
      "ĠFibonacci": 7332,
      "union": 7333,
      "origin": 7334,
      "];": 7335,
      "ĠÑĢÐµ": 7336,
      "Ã¢": 7337,
      "Ġopponent": 7338,
      "('*": 7339,
      "Screen": 7340,
      "restaurant": 7341,
      "ĠÐ´Ð»Ñı": 7342,
      "Ġduration": 7343,
      "Location": 7344,
      "pped": 7345,
      "2000": 7346,
      "PER": 7347,
      "YES": 7348,
      "allow": 7349,
      "ĠìĤ¬": 7350,
      "Computer": 7351,
      "Ġmul": 7352,
      "å·²": 7353,
      "ĠDict": 7354,
      "income": 7355,
      "51": 7356,
      "Ter": 7357,
      "Ġvolume": 7358,
      "PR": 7359,
      "ahrenheit": 7360,
      "many": 7361,
      "è¿ĺ": 7362,
      "Ġsymbols": 7363,
      "utos": 7364,
      "ji": 7365,
      "wiki": 7366,
      "ĠMan": 7367,
      "zo": 7368,
      "Ġalign": 7369,
      "={'": 7370,
      "Ð¿ÑĢ": 7371,
      "Ġê°Ĵ": 7372,
      "/%": 7373,
      "Ġunderstand": 7374,
      "Ġ\"_": 7375,
      "pieces": 7376,
      "Ġinstructions": 7377,
      "Ġlose": 7378,
      "Ġheaders": 7379,
      "Final": 7380,
      "Ġgetting": 7381,
      "ìľ¼ë¡ľ": 7382,
      "Letter": 7383,
      "Ġfinished": 7384,
      "pendown": 7385,
      "åį³": 7386,
      "ĠNUM": 7387,
      "(\"/": 7388,
      "ãģ¨": 7389,
      "Ġmonthly": 7390,
      "Ġswitch": 7391,
      "fuel": 7392,
      "Ġimpri": 7393,
      "Ġrecent": 7394,
      "Med": 7395,
      "ming": 7396,
      "è¯´": 7397,
      "Ġmaster": 7398,
      "Ġnx": 7399,
      "Ġcurrently": 7400,
      "between": 7401,
      "åĮħåĲ«": 7402,
      "Ġè¾ĵåĩº": 7403,
      "Ġvi": 7404,
      "æīĢä»¥": 7405,
      "Read": 7406,
      "Ġblocks": 7407,
      "53": 7408,
      "Ġrepeated": 7409,
      "das": 7410,
      "Ġfla": 7411,
      "attemp": 7412,
      "ĠINTEGER": 7413,
      "Ġisn": 7414,
      "Ġstyle": 7415,
      "ĠSee": 7416,
      "ĠIF": 7417,
      "âĸĳâĸĳ": 7418,
      "æłĪ": 7419,
      "har": 7420,
      "ä»ĸ": 7421,
      "ride": 7422,
      "ergy": 7423,
      "visit": 7424,
      "ĠcurrentNode": 7425,
      "Ġratio": 7426,
      "Ġbs": 7427,
      "Ġë¦¬": 7428,
      "para": 7429,
      "rm": 7430,
      "Ġlight": 7431,
      "ĠÐ¾Ð±": 7432,
      "ĠKeyError": 7433,
      "Use": 7434,
      "Ġcoords": 7435,
      "ĠHand": 7436,
      "Ġdomain": 7437,
      "priate": 7438,
      "Ġsolutions": 7439,
      "Ġsuccessfully": 7440,
      "CL": 7441,
      "ĠElement": 7442,
      "spam": 7443,
      "Moves": 7444,
      "Ġanaly": 7445,
      "OF": 7446,
      "bucket": 7447,
      "###############": 7448,
      "æ³¨æĦı": 7449,
      "Ġsigma": 7450,
      "Duplic": 7451,
      ",))": 7452,
      "Ġ([": 7453,
      "Ġau": 7454,
      "Program": 7455,
      "utorial": 7456,
      "Ġterminal": 7457,
      "ift": 7458,
      "una": 7459,
      "Iteration": 7460,
      "Ġmodified": 7461,
      "geeks": 7462,
      "('[": 7463,
      "Ġcontact": 7464,
      "âĢľ": 7465,
      "æ¯į": 7466,
      "Ġresp": 7467,
      "Ġfraction": 7468,
      "Ġvol": 7469,
      "Ġleap": 7470,
      "Ġindexes": 7471,
      "ynamic": 7472,
      "ĉĉčĊ": 7473,
      "Ġderivative": 7474,
      "æĽ´": 7475,
      "Ġ'('": 7476,
      "media": 7477,
      "Ġdev": 7478,
      "Ġgap": 7479,
      "èĭ": 7480,
      "celer": 7481,
      "BU": 7482,
      "ham": 7483,
      "Ġnewline": 7484,
      "Ġì¶ľëł¥": 7485,
      "tty": 7486,
      "Ġtexto": 7487,
      "radians": 7488,
      "ancia": 7489,
      "'>": 7490,
      "tems": 7491,
      "Ġìĭ": 7492,
      "åĽ¾": 7493,
      "Ġstand": 7494,
      "fc": 7495,
      "none": 7496,
      "ridge": 7497,
      "Argument": 7498,
      "Ġassigned": 7499,
      "rooms": 7500,
      "xml": 7501,
      "ĠJo": 7502,
      "XXXX": 7503,
      "Ġ\"|": 7504,
      "Pair": 7505,
      "linalg": 7506,
      "Ġles": 7507,
      "Ġ'{}": 7508,
      "CP": 7509,
      "](": 7510,
      "Ġtransl": 7511,
      "éĩĬ": 7512,
      "ĠGenerate": 7513,
      "vest": 7514,
      "App": 7515,
      "ups": 7516,
      "iling": 7517,
      "Ġcommands": 7518,
      "Ġstatements": 7519,
      "Ġoccurren": 7520,
      "å±Ĥ": 7521,
      "apped": 7522,
      "optim": 7523,
      "Step": 7524,
      "models": 7525,
      "Ġeas": 7526,
      "'},": 7527,
      "classifier": 7528,
      "redentials": 7529,
      "å°¾": 7530,
      "figsize": 7531,
      "Ġregister": 7532,
      "ĠCON": 7533,
      "çī¹": 7534,
      "stacle": 7535,
      "ability": 7536,
      "Names": 7537,
      "Ġeat": 7538,
      "dealer": 7539,
      "RU": 7540,
      "interest": 7541,
      "stream": 7542,
      "ara": 7543,
      "ini": 7544,
      "Ġencrypted": 7545,
      "ìĹ´": 7546,
      "vance": 7547,
      "ä¸Ķ": 7548,
      "Ġweb": 7549,
      "Ġìłķ": 7550,
      "ordered": 7551,
      "Ġdeal": 7552,
      "Ġdirections": 7553,
      "ĠCircle": 7554,
      "ìĦ±": 7555,
      "Ġlogic": 7556,
      "sides": 7557,
      "SA": 7558,
      "Ġcorrectly": 7559,
      "complete": 7560,
      "lowercase": 7561,
      "Ġpet": 7562,
      "Ġduring": 7563,
      "Ġ\"'": 7564,
      "compare": 7565,
      "tage": 7566,
      "ĠZero": 7567,
      "song": 7568,
      "URL": 7569,
      "Ġflip": 7570,
      "finite": 7571,
      "Ġoperators": 7572,
      "Ġsell": 7573,
      "Intro": 7574,
      "quential": 7575,
      "NG": 7576,
      "çº¿ç¨ĭ": 7577,
      "ĠPh": 7578,
      "åĢĻ": 7579,
      "()}": 7580,
      "çļĦåħĥç´ł": 7581,
      "åĩºçİ°": 7582,
      "Ġapproach": 7583,
      "Ġ\"{}": 7584,
      "ĠDefault": 7585,
      "Ġzeros": 7586,
      "ĠEd": 7587,
      "ë²Ī": 7588,
      "Ġsuffix": 7589,
      "remaining": 7590,
      "VocÃª": 7591,
      "Ġexper": 7592,
      "ience": 7593,
      "WW": 7594,
      "Ġeverything": 7595,
      "amente": 7596,
      "æŃ¥": 7597,
      "running": 7598,
      "Ġåľ¨": 7599,
      "oment": 7600,
      "ÑģÐ»Ð¸": 7601,
      "tweet": 7602,
      "æ·»åĬł": 7603,
      "ĠĠĠĠĠĠĠĠĠĊ": 7604,
      "Ġfew": 7605,
      "damage": 7606,
      "ention": 7607,
      "romos": 7608,
      "Ġfriends": 7609,
      "Ġlock": 7610,
      "ĠÑĩÐ¸ÑģÐ»Ð°": 7611,
      "Ġ').": 7612,
      "ĠDog": 7613,
      "Animal": 7614,
      "ĠOver": 7615,
      "2017": 7616,
      "rency": 7617,
      "comment": 7618,
      "ĠStop": 7619,
      "ÄŁ": 7620,
      "ĠÐ¡": 7621,
      "ĠStep": 7622,
      "')]": 7623,
      "til": 7624,
      "=\"#": 7625,
      "sn": 7626,
      "Integer": 7627,
      "Ġclosed": 7628,
      ")'": 7629,
      "ÑĤÑĥ": 7630,
      "Ġdecrypt": 7631,
      "icients": 7632,
      "Ġdados": 7633,
      "Ġmedia": 7634,
      "Ġ'|": 7635,
      "Ġoutside": 7636,
      "idence": 7637,
      "Av": 7638,
      "à¸²": 7639,
      "è®°": 7640,
      "Ġ2000": 7641,
      "inc": 7642,
      "Ġhy": 7643,
      "Ð°Ð½Ð¸Ðµ": 7644,
      "Ã§o": 7645,
      "Ġreads": 7646,
      "anguages": 7647,
      "rado": 7648,
      "Äħ": 7649,
      "answers": 7650,
      "Ġnd": 7651,
      "domain": 7652,
      "Ġactually": 7653,
      "Piece": 7654,
      "ĠExt": 7655,
      "constant": 7656,
      "Ġmas": 7657,
      "Func": 7658,
      "bad": 7659,
      "ĠCreates": 7660,
      "ĠĠĠĠĠĠĠĠĠĠĠĠĠĠĠĠĠĠĠĠĠĠĠĠĠĠĠĠĠĠĠĠĠĠĠĠĠĠĠĠĠĠĠ": 7661,
      "Ġtags": 7662,
      "ĠÐĿ": 7663,
      "IME": 7664,
      "Sm": 7665,
      "othing": 7666,
      "Exit": 7667,
      "ĠÑĦÑĥÐ½ÐºÑĨÐ¸": 7668,
      "Ã§Ãµes": 7669,
      "PO": 7670,
      "urons": 7671,
      "ientation": 7672,
      "Ġeasy": 7673,
      "hero": 7674,
      "ĠÑģÐ¾": 7675,
      "addr": 7676,
      "Ġdates": 7677,
      "docs": 7678,
      "ÑĪÐµ": 7679,
      "Ġfoo": 7680,
      "ĠDictionary": 7681,
      "Ġeffect": 7682,
      "ĠĠĠĠĠĠĠĠĠĠĠĠĠĠĠĠĠĠĠĠĠĠĠĠĠĠĠĠĠĠĠĠĠ": 7683,
      "kg": 7684,
      "Ġ101": 7685,
      "ĠObject": 7686,
      "trees": 7687,
      "matches": 7688,
      "kind": 7689,
      "mg": 7690,
      "ĠPRO": 7691,
      "px": 7692,
      "Ġdefinition": 7693,
      "]==\"": 7694,
      "Ð»Ðµ": 7695,
      "ĠÂłĠÂł": 7696,
      "\\\"": 7697,
      "ìĿ¸": 7698,
      "Ġappears": 7699,
      "Ġaff": 7700,
      "candidates": 7701,
      "ĠYOUR": 7702,
      "preorder": 7703,
      "ĠBook": 7704,
      "liste": 7705,
      "ĠBL": 7706,
      "Ġevalu": 7707,
      "fitness": 7708,
      "\"%(": 7709,
      "nx": 7710,
      "Ġhistogram": 7711,
      "nota": 7712,
      "ILE": 7713,
      "Ġavoid": 7714,
      "Ġaway": 7715,
      "Ġbooks": 7716,
      "isupper": 7717,
      "fits": 7718,
      "rem": 7719,
      "intervals": 7720,
      "agent": 7721,
      "alindrom": 7722,
      "hou": 7723,
      "ĠFrame": 7724,
      "depend": 7725,
      "Ste": 7726,
      "choose": 7727,
      "|\\": 7728,
      "Ġbr": 7729,
      "metic": 7730,
      "parts": 7731,
      "Ġoptimal": 7732,
      "Ġfp": 7733,
      "ĠValid": 7734,
      "creasing": 7735,
      "Ġbro": 7736,
      "Ġappropriate": 7737,
      "Ġconsole": 7738,
      "Ġinher": 7739,
      "Ġconditions": 7740,
      "myList": 7741,
      "\",\".\",\".": 7742,
      "cepted": 7743,
      "Pay": 7744,
      "temperature": 7745,
      "ç»ı": 7746,
      "([-": 7747,
      "(((": 7748,
      "æĥħ": 7749,
      "Ġreached": 7750,
      "sel": 7751,
      "Block": 7752,
      "Ġindent": 7753,
      "Ġcalculates": 7754,
      "validation": 7755,
      "ais": 7756,
      "ĠestÃ¡": 7757,
      "ê³¼": 7758,
      "ĠfunÃ§Ã£o": 7759,
      "far": 7760,
      "ko": 7761,
      "handle": 7762,
      "Ġcollect": 7763,
      "è¯¯": 7764,
      "Ġpool": 7765,
      "Ġignore": 7766,
      "Ġ],": 7767,
      "Ġpreorder": 7768,
      "Ġperm": 7769,
      "Ġproducts": 7770,
      "å°ĳ": 7771,
      "locations": 7772,
      "eat": 7773,
      "ĠAfter": 7774,
      "110": 7775,
      "ration": 7776,
      "ĠFOR": 7777,
      "BB": 7778,
      "Ġsequences": 7779,
      "compute": 7780,
      "ìłķ": 7781,
      "urt": 7782,
      "Ġmais": 7783,
      "ĠMAX": 7784,
      "åŃĹæ¯į": 7785,
      "hh": 7786,
      "æľĢå°ı": 7787,
      "ÐµÑĤÑģÑı": 7788,
      "72": 7789,
      "ruck": 7790,
      "Ġvotes": 7791,
      "outh": 7792,
      "Ġnue": 7793,
      "Ġrespon": 7794,
      "è¯į": 7795,
      "Ġmeasure": 7796,
      "Turn": 7797,
      "Ġauto": 7798,
      "Ġmultiplication": 7799,
      "nr": 7800,
      "Ġdistinct": 7801,
      "Ġmodels": 7802,
      "Wrong": 7803,
      "irs": 7804,
      "Ġpeso": 7805,
      "62": 7806,
      "arri": 7807,
      "128": 7808,
      "éĽĨåĲĪ": 7809,
      "angman": 7810,
      "sche": 7811,
      "Ġho": 7812,
      "]].": 7813,
      "hir": 7814,
      "lets": 7815,
      "£¼": 7816,
      "Ġautomat": 7817,
      "Ġsua": 7818,
      "Field": 7819,
      "Ġslope": 7820,
      "aÃ§Ã£o": 7821,
      "PRO": 7822,
      "Cl": 7823,
      "utils": 7824,
      "Ġsession": 7825,
      "Ġtasks": 7826,
      "ÑĭÐ¹": 7827,
      "roids": 7828,
      "anging": 7829,
      "Ġ=',": 7830,
      "nal": 7831,
      "Ġoperand": 7832,
      "è¯Ńåı¥": 7833,
      "Ġwidget": 7834,
      "Ġtook": 7835,
      "ĠâĢĺ": 7836,
      "ListNode": 7837,
      "degrees": 7838,
      "ìĦ¸ìļĶ": 7839,
      "ESS": 7840,
      "Ġexcl": 7841,
      "Ġagainst": 7842,
      "bias": 7843,
      "Ġsl": 7844,
      "ĠÃł": 7845,
      "Ġtries": 7846,
      "Ġending": 7847,
      "ĠPoly": 7848,
      "jack": 7849,
      "Ġsurface": 7850,
      "Ġdatos": 7851,
      "urlo": 7852,
      "Ġingre": 7853,
      "outputs": 7854,
      "fields": 7855,
      "ÑĪÐ¸": 7856,
      "fibonacci": 7857,
      "Ġpaper": 7858,
      "rule": 7859,
      "(\"<": 7860,
      "è¾ĥ": 7861,
      "vin": 7862,
      "ilo": 7863,
      ")}\")": 7864,
      "oman": 7865,
      "Correct": 7866,
      "Ġassociated": 7867,
      "Ġstrip": 7868,
      "Ġ${": 7869,
      "æĹ¶åĢĻ": 7870,
      "######": 7871,
      "Ġplaces": 7872,
      "Ġlinha": 7873,
      "]<": 7874,
      "Ħì": 7875,
      "nes": 7876,
      "ĠModel": 7877,
      "Ġbas": 7878,
      "Ġdead": 7879,
      "Ġesta": 7880,
      "Lista": 7881,
      "Ve": 7882,
      "é¡º": 7883,
      "ĠPrints": 7884,
      "argin": 7885,
      "Ġbill": 7886,
      "filepath": 7887,
      "MO": 7888,
      "Remove": 7889,
      "ĠIP": 7890,
      "quired": 7891,
      "Ġgreatest": 7892,
      "ĠExplanation": 7893,
      "Ġvec": 7894,
      "Ġxy": 7895,
      "Ġdirectly": 7896,
      "Ġsentences": 7897,
      "ä¿¡æģ¯": 7898,
      "Ġrem": 7899,
      "Ġproduce": 7900,
      "erry": 7901,
      "destination": 7902,
      "MS": 7903,
      "objects": 7904,
      "urlopen": 7905,
      "coef": 7906,
      "Ġadditional": 7907,
      "Ġwriting": 7908,
      "Ġ[]:": 7909,
      "Ġbuilding": 7910,
      "backward": 7911,
      "rear": 7912,
      "blank": 7913,
      "Ġtrees": 7914,
      "Ġfilled": 7915,
      "Ġescol": 7916,
      "Ġcalculation": 7917,
      "Ġneural": 7918,
      "legal": 7919,
      "Ġhaving": 7920,
      "Ġttk": 7921,
      "Ġforce": 7922,
      "Ġhistory": 7923,
      "è£ħ": 7924,
      "Ġ################": 7925,
      "Main": 7926,
      "bye": 7927,
      "Ġstream": 7928,
      "free": 7929,
      "ãĥĪ": 7930,
      "xxxx": 7931,
      "storage": 7932,
      "Ġ***": 7933,
      "aN": 7934,
      "Cal": 7935,
      "èµ·": 7936,
      "agem": 7937,
      "Sorted": 7938,
      "axes": 7939,
      "Ġexpect": 7940,
      "illa": 7941,
      "è¾¾": 7942,
      "::::": 7943,
      "Arial": 7944,
      "Ġsudoku": 7945,
      "Ġstrs": 7946,
      "abcdefghi": 7947,
      "Ġtrie": 7948,
      "Ġdescri": 7949,
      "Ġencode": 7950,
      "Ġpermutation": 7951,
      "åĪĿå§ĭ": 7952,
      "ĠShow": 7953,
      "Ġast": 7954,
      "å¢": 7955,
      "ĠEnd": 7956,
      "ĹÐ°": 7957,
      "Ġè¿ĶåĽŀ": 7958,
      "è¿Ĳç®Ĺ": 7959,
      "Task": 7960,
      "products": 7961,
      "ĠTemp": 7962,
      "Ġelementos": 7963,
      "sales": 7964,
      "Ġinplace": 7965,
      "Ġwithdraw": 7966,
      "udy": 7967,
      "ĠMenu": 7968,
      "?,?,": 7969,
      "Ġgames": 7970,
      "Ġcri": 7971,
      "Ġfollows": 7972,
      "Back": 7973,
      "Op": 7974,
      "ìłľ": 7975,
      "Ð¾Ð¿": 7976,
      "emplo": 7977,
      "Ġcomma": 7978,
      "Ġarquivo": 7979,
      "Rad": 7980,
      "æĢĿ": 7981,
      "quant": 7982,
      "Ġlot": 7983,
      "Ġbigger": 7984,
      "86": 7985,
      "tiles": 7986,
      "repeat": 7987,
      "åģļ": 7988,
      "çĦ¶åĲİ": 7989,
      "cmd": 7990,
      "Ġdesign": 7991,
      "Ġfailed": 7992,
      "bill": 7993,
      "{}'.": 7994,
      "Ðļ": 7995,
      "gain": 7996,
      "åĨħå®¹": 7997,
      "Ġlife": 7998,
      "ssoa": 7999,
      "Ġdoing": 8000,
      "ITY": 8001,
      "servation": 8002,
      "fla": 8003,
      "CD": 8004,
      "raight": 8005,
      "border": 8006,
      "basic": 8007,
      "Ŀ¼": 8008,
      "CS": 8009,
      "Ġhard": 8010,
      "Ġfuel": 8011,
      "Ġ600": 8012,
      "ĠĠĠĠĠĠĠĠĠĠĠĠĠĠĠĠĠĠĠĠĠĠĠĠĠĠĠĠĠĠĠĠĠĠ": 8013,
      "numeros": 8014,
      "Raises": 8015,
      "EE": 8016,
      "rr": 8017,
      "timestamp": 8018,
      "ä¸ªæķ°": 8019,
      "serted": 8020,
      "Ġretrie": 8021,
      "Ġbackward": 8022,
      "dies": 8023,
      "AST": 8024,
      "need": 8025,
      "Ġmylist": 8026,
      "pts": 8027,
      "\"][\"": 8028,
      "Ext": 8029,
      "åıī": 8030,
      "iterable": 8031,
      "functions": 8032,
      "resses": 8033,
      "metrics": 8034,
      "oftw": 8035,
      "CREATE": 8036,
      "ĠChecks": 8037,
      "imin": 8038,
      "Ġ'<": 8039,
      "friend": 8040,
      "Ġcm": 8041,
      "tre": 8042,
      "Ġcare": 8043,
      "quer": 8044,
      "Ġ\"(": 8045,
      "annels": 8046,
      "partition": 8047,
      "variance": 8048,
      "greg": 8049,
      "æĺ¯ä¸Ģä¸ª": 8050,
      "Ġhero": 8051,
      "Ġascii": 8052,
      "Ġsums": 8053,
      "CO": 8054,
      "Ġ--------------------------------": 8055,
      "edy": 8056,
      "Ġusuario": 8057,
      "åĬĽ": 8058,
      "than": 8059,
      "Ġao": 8060,
      "ÐĶ": 8061,
      "éĺŁ": 8062,
      "ANT": 8063,
      "views": 8064,
      "Ġincluding": 8065,
      "Ġreally": 8066,
      "oting": 8067,
      "ç¡®": 8068,
      "Ġlost": 8069,
      "zer": 8070,
      "éĴĪ": 8071,
      "Ġshows": 8072,
      "mnop": 8073,
      "subplots": 8074,
      "Ġgrad": 8075,
      "ë¦": 8076,
      "aled": 8077,
      "Ġclusters": 8078,
      "Es": 8079,
      "µ¬": 8080,
      "ĠPa": 8081,
      "dataframe": 8082,
      "missing": 8083,
      "Helper": 8084,
      "#########": 8085,
      "çĻ": 8086,
      "Ġformatted": 8087,
      "language": 8088,
      "Ġvia": 8089,
      "Ġfontsize": 8090,
      "Ġíķ¨ìĪĺ": 8091,
      "ĠåĴĮ": 8092,
      "vered": 8093,
      "ifies": 8094,
      "Ġ37": 8095,
      "ACE": 8096,
      "æĿ¡ä»¶": 8097,
      "ĠTrie": 8098,
      "buy": 8099,
      "ĠÐ±Ñĥ": 8100,
      "ĠDis": 8101,
      "-(": 8102,
      "van": 8103,
      "æµĭè¯ķ": 8104,
      "ctest": 8105,
      "oftware": 8106,
      "ç§°": 8107,
      "ĠItem": 8108,
      "!\",": 8109,
      "ç¬¬äºĮ": 8110,
      "Linear": 8111,
      "ä¸Ģæ¬¡": 8112,
      "()),": 8113,
      "Zero": 8114,
      "Ġaxes": 8115,
      "RED": 8116,
      "Ġbi": 8117,
      "sudoku": 8118,
      "quencies": 8119,
      "validate": 8120,
      "Ġsegundo": 8121,
      "Ġcantidad": 8122,
      "Ġpizza": 8123,
      "NOT": 8124,
      "Ġflow": 8125,
      "itespace": 8126,
      "vs": 8127,
      "resultado": 8128,
      "traction": 8129,
      "Ġfl": 8130,
      "åĮº": 8131,
      "ĠWith": 8132,
      "vwxyz": 8133,
      "withdraw": 8134,
      "testing": 8135,
      "exist": 8136,
      "Mark": 8137,
      "ĠCH": 8138,
      "ora": 8139,
      "Ġfinding": 8140,
      "Ġminute": 8141,
      "Ġ\"-\"": 8142,
      "Ġabsolute": 8143,
      "driver": 8144,
      "Ġnever": 8145,
      "pause": 8146,
      "Ġgrades": 8147,
      "entes": 8148,
      "æĿŁ": 8149,
      "PT": 8150,
      "_(": 8151,
      "Qual": 8152,
      "IV": 8153,
      "fold": 8154,
      "Ä±n": 8155,
      "google": 8156,
      "Ġ'.'": 8157,
      "Ġmessagebox": 8158,
      "increment": 8159,
      "Ġsales": 8160,
      "Ġapprox": 8161,
      "qrstu": 8162,
      "Ġfac": 8163,
      "ĠHERE": 8164,
      "ĠYear": 8165,
      "Ġfinds": 8166,
      "graphi": 8167,
      "Ġdeposit": 8168,
      "å¤ĦçĲĨ": 8169,
      "Ġâī¤": 8170,
      "release": 8171,
      "ĠSimple": 8172,
      "getitem": 8173,
      "Ġ44": 8174,
      "ĠDiv": 8175,
      "+\")": 8176,
      "scissors": 8177,
      "ircu": 8178,
      "Ġce": 8179,
      "Vertex": 8180,
      "school": 8181,
      "å¹³": 8182,
      "circ": 8183,
      "spaces": 8184,
      "63": 8185,
      "Ġdenominator": 8186,
      "texto": 8187,
      "ç±»çļĦ": 8188,
      "erial": 8189,
      "Ġtit": 8190,
      "##########": 8191,
      "Ġcompany": 8192,
      "ĠChar": 8193,
      "ãģĮ": 8194,
      "gui": 8195,
      "nThe": 8196,
      "Ġlocations": 8197,
      "roid": 8198,
      "ithmetic": 8199,
      "vars": 8200,
      "listdir": 8201,
      "âĢĭ": 8202,
      "ĠHE": 8203,
      "payment": 8204,
      "Bob": 8205,
      "Ġlegal": 8206,
      "ctures": 8207,
      "Ġsetup": 8208,
      "Ġanalysis": 8209,
      "ptime": 8210,
      "ago": 8211,
      "Ġsimply": 8212,
      "reci": 8213,
      "Ġìĺ": 8214,
      "Ð¾Ð³ÑĢÐ°Ð¼": 8215,
      "93": 8216,
      "quivalent": 8217,
      "Ġje": 8218,
      "zone": 8219,
      "Ġens": 8220,
      "ãģª": 8221,
      "trip": 8222,
      "cionario": 8223,
      "([(": 8224,
      "ought": 8225,
      "may": 8226,
      "Ġpartial": 8227,
      "Dense": 8228,
      "contact": 8229,
      "Ġepsilon": 8230,
      "çĪ¶": 8231,
      "_[": 8232,
      "distances": 8233,
      "angulo": 8234,
      "][-": 8235,
      "DATE": 8236,
      "Ġmens": 8237,
      "ä½ĵ": 8238,
      "æĿĤ": 8239,
      "strong": 8240,
      "idos": 8241,
      ":#": 8242,
      "gold": 8243,
      "Email": 8244,
      "ĠTask": 8245,
      "Call": 8246,
      "XY": 8247,
      "attribute": 8248,
      "evaluate": 8249,
      "Ġano": 8250,
      "è®¿": 8251,
      "Ġsit": 8252,
      "uren": 8253,
      "OK": 8254,
      "ĠìĪ": 8255,
      "games": 8256,
      "81": 8257,
      "Description": 8258,
      "Ġremain": 8259,
      "Ġclassification": 8260,
      "mis": 8261,
      "ĠNotImplementedError": 8262,
      "delay": 8263,
      "Ġouter": 8264,
      "tolist": 8265,
      "jklmnop": 8266,
      "register": 8267,
      "gradient": 8268,
      "predictions": 8269,
      "mpo": 8270,
      "''')": 8271,
      "life": 8272,
      "ĠSp": 8273,
      "tags": 8274,
      "Ġpackage": 8275,
      "):#": 8276,
      "Ġha": 8277,
      "ĠPo": 8278,
      "Ġ_,": 8279,
      "NS": 8280,
      "Ġgeneral": 8281,
      "ÐµÐ½ÑĮ": 8282,
      "¹éħį": 8283,
      "ĠSim": 8284,
      "Ġlooks": 8285,
      "assertRaises": 8286,
      "decor": 8287,
      "icon": 8288,
      "cryption": 8289,
      "Ġ),": 8290,
      "Bot": 8291,
      "ìĨĮ": 8292,
      "Layer": 8293,
      "ĠvocÃª": 8294,
      "Ġbd": 8295,
      "ÐºÑĥ": 8296,
      "Ð°Ð¹": 8297,
      "Ġlis": 8298,
      "tweets": 8299,
      "ycor": 8300,
      "æĹ¥": 8301,
      "WORD": 8302,
      "auth": 8303,
      "mmetric": 8304,
      "Ġair": 8305,
      "Lists": 8306,
      "IF": 8307,
      "Ġbuffer": 8308,
      "utable": 8309,
      "ĠFraction": 8310,
      ")<": 8311,
      "savefig": 8312,
      "Ġspot": 8313,
      "Ġcam": 8314,
      "Ġimportant": 8315,
      "activation": 8316,
      "Ġunion": 8317,
      "çĶ±": 8318,
      "è®¿éĹ®": 8319,
      "Buzz": 8320,
      "Ġlooking": 8321,
      "Ġentrada": 8322,
      "ĠSample": 8323,
      "Ġconversion": 8324,
      "ĠPosition": 8325,
      "å¤įæĿĤ": 8326,
      "both": 8327,
      "Ð½Ð¾Ð³Ð¾": 8328,
      "íķĺëĬĶ": 8329,
      "Ġnearest": 8330,
      "Ð±Ð¾": 8331,
      "atur": 8332,
      "asc": 8333,
      "(''.": 8334,
      "Ġdriver": 8335,
      "Ġequals": 8336,
      "trace": 8337,
      "ÑģÐµ": 8338,
      "é¡ºåºı": 8339,
      "Ġpprint": 8340,
      "DP": 8341,
      "vid": 8342,
      "Sim": 8343,
      "lam": 8344,
      "ç»Ł": 8345,
      "ĠColumn": 8346,
      "ĠThat": 8347,
      "æī¾åĪ°": 8348,
      "åıį": 8349,
      "Sw": 8350,
      "Ġmayor": 8351,
      "orders": 8352,
      "buffer": 8353,
      "Ġsn": 8354,
      "Comple": 8355,
      "DivisionError": 8356,
      "ĠAnimal": 8357,
      "Ġcosts": 8358,
      "earning": 8359,
      "clusters": 8360,
      "Ġå°Ĩ": 8361,
      "orst": 8362,
      "Ġkm": 8363,
      "ky": 8364,
      "quad": 8365,
      "æĭ¬": 8366,
      "ibility": 8367,
      "who": 8368,
      "Ġå¯": 8369,
      "diagonal": 8370,
      ".'.": 8371,
      "ĠÑĢÐ°Ð·": 8372,
      "Ġ[['": 8373,
      "ersion": 8374,
      "='\\": 8375,
      "Ġbat": 8376,
      "Cap": 8377,
      "Make": 8378,
      "posed": 8379,
      "ĠUS": 8380,
      "aciÃ³n": 8381,
      "Ġbecomes": 8382,
      "---+": 8383,
      "multiple": 8384,
      "92": 8385,
      "Ġste": 8386,
      "force": 8387,
      "æĸ¹å¼ı": 8388,
      "headers": 8389,
      "###########": 8390,
      "Ġë¦¬ìĬ¤íĬ¸": 8391,
      "lask": 8392,
      "Ð¾Ñģ": 8393,
      "æ®": 8394,
      "ises": 8395,
      "straint": 8396,
      "Scal": 8397,
      "ture": 8398,
      "region": 8399,
      "PLAY": 8400,
      "Ġrepr": 8401,
      "ĠColor": 8402,
      "pm": 8403,
      "Ġprodu": 8404,
      "sigmoid": 8405,
      "deposit": 8406,
      "Ġsyntax": 8407,
      "quire": 8408,
      "Ġ({": 8409,
      "Ġfr": 8410,
      "qrstuvwxyz": 8411,
      "Ġlookup": 8412,
      "**(": 8413,
      "================================================": 8414,
      "Ġcadena": 8415,
      "ĠExamples": 8416,
      "bas": 8417,
      "noun": 8418,
      "Ġ[])": 8419,
      "atura": 8420,
      "Ġfixed": 8421,
      "engine": 8422,
      "Ab": 8423,
      "Ġsetting": 8424,
      "Ġ250": 8425,
      "äºĽ": 8426,
      "Ġdecorator": 8427,
      "Ġboxes": 8428,
      "[['": 8429,
      "Ġslot": 8430,
      "~~~~~~~~~~~~~~~~": 8431,
      "Ġ97": 8432,
      "Ġtip": 8433,
      "ĠSQL": 8434,
      "uro": 8435,
      "ĠOtherwise": 8436,
      "TR": 8437,
      "enta": 8438,
      "éļı": 8439,
      "Ġmovement": 8440,
      "ÅĽ": 8441,
      "Ġexpress": 8442,
      "ĠLE": 8443,
      "ucli": 8444,
      "Ġanchor": 8445,
      "Ġê°Ģ": 8446,
      "Ġspa": 8447,
      "ĠMat": 8448,
      "Ġlex": 8449,
      "dr": 8450,
      "æķ¸": 8451,
      "ĠCase": 8452,
      "FG": 8453,
      "(\">": 8454,
      "Ġvote": 8455,
      "getter": 8456,
      "Ġtiles": 8457,
      "slice": 8458,
      "dna": 8459,
      "company": 8460,
      "Ġcalculator": 8461,
      "å¤©": 8462,
      "sigma": 8463,
      "hu": 8464,
      "ëĿ¼": 8465,
      "Ġcompleted": 8466,
      "AI": 8467,
      "Ġparents": 8468,
      "sidered": 8469,
      "Ġcomprehension": 8470,
      "encia": 8471,
      "deque": 8472,
      "Ġê³": 8473,
      "Ġfaster": 8474,
      "iral": 8475,
      "PH": 8476,
      "Ġchance": 8477,
      "Ġcounting": 8478,
      "Black": 8479,
      "Process": 8480,
      "Ġprogramming": 8481,
      "äºĮåıī": 8482,
      "Ġsimulation": 8483,
      "ired": 8484,
      "gap": 8485,
      "à¸Ļ": 8486,
      "ä½ķ": 8487,
      "Ġdeleted": 8488,
      "Ġtimestamp": 8489,
      "Ġpopular": 8490,
      "vl": 8491,
      "#############": 8492,
      "Ġpan": 8493,
      "Using": 8494,
      "ota": 8495,
      "Ġrock": 8496,
      "outube": 8497,
      "ĠTri": 8498,
      "Ġexpand": 8499,
      "Gen": 8500,
      "Ġè¾ĵåħ¥": 8501,
      "atform": 8502,
      "Ð´Ðµ": 8503,
      "ÑĤÐ¾Ð²": 8504,
      "ĠThese": 8505,
      "ME": 8506,
      "template": 8507,
      "Ġ'[": 8508,
      "Digit": 8509,
      "é¡»": 8510,
      "ëĤĺ": 8511,
      "##############": 8512,
      "rl": 8513,
      "imb": 8514,
      "tx": 8515,
      "Ġsheet": 8516,
      "wrong": 8517,
      "uting": 8518,
      "places": 8519,
      "marker": 8520,
      "CK": 8521,
      "ĠCreating": 8522,
      "ĠNet": 8523,
      "tests": 8524,
      "jog": 8525,
      "ĉĉĉĉĉĉĉ": 8526,
      "blocks": 8527,
      "flatten": 8528,
      "Sc": 8529,
      "Link": 8530,
      "medio": 8531,
      "Ġtu": 8532,
      "91": 8533,
      "Coord": 8534,
      "#######": 8535,
      "Ġpressed": 8536,
      "orna": 8537,
      "Ġincome": 8538,
      "Ġiss": 8539,
      "Ð½Ñı": 8540,
      "))):": 8541,
      "pping": 8542,
      "Ð¸ÑĤÑĮ": 8543,
      "Ġbold": 8544,
      "Copy": 8545,
      "Plot": 8546,
      "Ġins": 8547,
      "Ġbranch": 8548,
      "Vis": 8549,
      "Ġgray": 8550,
      "Ġtaking": 8551,
      "']=": 8552,
      "ends": 8553,
      "])+": 8554,
      "Ġrecur": 8555,
      "Ġcast": 8556,
      "Ġtodos": 8557,
      "Click": 8558,
      "ĠDep": 8559,
      "åĨµ": 8560,
      "Ġëª": 8561,
      "tp": 8562,
      "eca": 8563,
      "dean": 8564,
      "Ġdas": 8565,
      "layout": 8566,
      "Ġengine": 8567,
      "ĠSelect": 8568,
      "raries": 8569,
      "Interval": 8570,
      "Speed": 8571,
      "Ġincluded": 8572,
      "ĠProduct": 8573,
      "mmer": 8574,
      "minus": 8575,
      "æ°": 8576,
      "Ġpublic": 8577,
      "è¿ŀ": 8578,
      "Room": 8579,
      "åł": 8580,
      "ÐµÐ·": 8581,
      "Ġ\"[": 8582,
      "Ġmill": 8583,
      "Three": 8584,
      "æĪĸèĢħ": 8585,
      "lief": 8586,
      "Ġdue": 8587,
      "ĠTakes": 8588,
      "800": 8589,
      "handler": 8590,
      "ĠAsk": 8591,
      "ĢìĪĺ": 8592,
      "Circle": 8593,
      "Ġpolynomial": 8594,
      "describe": 8595,
      "ĠÐ¿Ð¾Ð»": 8596,
      "Ġbtn": 8597,
      "Ġseat": 8598,
      "die": 8599,
      "abcdefghijklmnop": 8600,
      "Ġdecode": 8601,
      "Ġvals": 8602,
      "Est": 8603,
      "Ġtensorflow": 8604,
      "Ġrequire": 8605,
      "ĠĠĠĠĠĠĠĠĠĠĊ": 8606,
      "isEmpty": 8607,
      "ãĥ³": 8608,
      "Ġstuff": 8609,
      "segment": 8610,
      "Ġfuture": 8611,
      "Ġadjust": 8612,
      "Ġsumm": 8613,
      "imize": 8614,
      "Ġmiles": 8615,
      "PATH": 8616,
      "iler": 8617,
      "ĠPL": 8618,
      "Ġnth": 8619,
      "isf": 8620,
      "+')": 8621,
      "Ġphi": 8622,
      "Ġnormalize": 8623,
      "ðĿ": 8624,
      "])-": 8625,
      "lasse": 8626,
      "ç»ĵæĿŁ": 8627,
      "ĠMay": 8628,
      "Ġeg": 8629,
      "multi": 8630,
      "ĠSplit": 8631,
      "æĢ»": 8632,
      "Update": 8633,
      "iris": 8634,
      "Ġlittle": 8635,
      ">',": 8636,
      "rece": 8637,
      "{},": 8638,
      "Ġ\"--": 8639,
      "Ġ2016": 8640,
      "Ġconsecutive": 8641,
      "grama": 8642,
      "verted": 8643,
      "prop": 8644,
      "################################################################################": 8645,
      "hold": 8646,
      "without": 8647,
      "Ġoccup": 8648,
      "Orig": 8649,
      "cesses": 8650,
      "Ġevents": 8651,
      "Ġsubarray": 8652,
      "ĠExit": 8653,
      "${": 8654,
      "guest": 8655,
      "LIST": 8656,
      "Ġinverse": 8657,
      "·¸": 8658,
      "ktop": 8659,
      "tip": 8660,
      "+',": 8661,
      "ĠÑĤÐµ": 8662,
      "ĠâĨĴ": 8663,
      "ĠBut": 8664,
      "Ġbounds": 8665,
      "Ġtam": 8666,
      "ĠSup": 8667,
      "ç»Ń": 8668,
      "sci": 8669,
      "Format": 8670,
      "73": 8671,
      "('#": 8672,
      "Times": 8673,
      "Ġbins": 8674,
      "Ġhay": 8675,
      "Ġsom": 8676,
      "Ġmessages": 8677,
      "clf": 8678,
      "çīĩ": 8679,
      "ìĬµ": 8680,
      "TER": 8681,
      "æº": 8682,
      "Ġspeak": 8683,
      "Ġimplemented": 8684,
      "Ġapplication": 8685,
      "Ġscan": 8686,
      "Action": 8687,
      "ëıĦ": 8688,
      "éĿ¢çļĦ": 8689,
      "Ġinstanti": 8690,
      "video": 8691,
      "Mar": 8692,
      "avings": 8693,
      "uses": 8694,
      "ĠìĦ": 8695,
      "ios": 8696,
      "æ£": 8697,
      "arts": 8698,
      "Ġdivisors": 8699,
      "Ġsummary": 8700,
      "aily": 8701,
      ">\"": 8702,
      "pizza": 8703,
      "custom": 8704,
      "dequeue": 8705,
      "contador": 8706,
      "3333": 8707,
      "won": 8708,
      "Ġnumerical": 8709,
      "ercicio": 8710,
      "human": 8711,
      "('{": 8712,
      "Ġmi": 8713,
      "ĠDay": 8714,
      "Ġ?,": 8715,
      "2016": 8716,
      "wikipedia": 8717,
      "fol": 8718,
      "sound": 8719,
      "mix": 8720,
      "Ġserial": 8721,
      "tein": 8722,
      "Cong": 8723,
      "Token": 8724,
      "Ġflatten": 8725,
      "connected": 8726,
      "Ġroman": 8727,
      "Ġconverts": 8728,
      "dem": 8729,
      "ĠKe": 8730,
      "Ġconsidered": 8731,
      "å¯¹åºĶ": 8732,
      "ĈĈ": 8733,
      "Ġej": 8734,
      "'d": 8735,
      "ament": 8736,
      "tokenize": 8737,
      "Ġneighbours": 8738,
      "uclidean": 8739,
      "Some": 8740,
      "Loop": 8741,
      "ĠSecond": 8742,
      "rer": 8743,
      "ĠTop": 8744,
      "Ġfur": 8745,
      "sg": 8746,
      "chose": 8747,
      "æĥħåĨµ": 8748,
      "ĮĢ": 8749,
      "lah": 8750,
      "records": 8751,
      "BLACK": 8752,
      "anu": 8753,
      "Ġpolygon": 8754,
      "special": 8755,
      "Ġoccurs": 8756,
      "argmax": 8757,
      "Split": 8758,
      "Ġaltura": 8759,
      "City": 8760,
      "frac": 8761,
      "////////////////": 8762,
      "Hash": 8763,
      "meta": 8764,
      "Try": 8765,
      "Ĵåħ¥": 8766,
      "Ġusage": 8767,
      "strptime": 8768,
      "PA": 8769,
      "parameter": 8770,
      "Ġai": 8771,
      "Calculate": 8772,
      "Ġlon": 8773,
      "Ġremoving": 8774,
      "aaa": 8775,
      "Cy": 8776,
      "Fact": 8777,
      "Ġstrategy": 8778,
      "crete": 8779,
      "sell": 8780,
      "è®¾ç½®": 8781,
      "Each": 8782,
      "ĠÐ¿ÑĢÐ¾": 8783,
      "Ġbrackets": 8784,
      "appy": 8785,
      "Bar": 8786,
      "Ġ56": 8787,
      "éĹ®é¢ĺ": 8788,
      "Status": 8789,
      "aling": 8790,
      "æł¼å¼ı": 8791,
      "199": 8792,
      "Ġmagic": 8793,
      "çŁ©": 8794,
      "Ġlonger": 8795,
      "lit": 8796,
      "Common": 8797,
      "MPTY": 8798,
      "Ġingres": 8799,
      "settings": 8800,
      "mak": 8801,
      "diag": 8802,
      "ĽĲ": 8803,
      "Ġlang": 8804,
      "Ġ------------------------------------------------": 8805,
      "energy": 8806,
      "recv": 8807,
      "Ġdoctest": 8808,
      "ìĻ": 8809,
      "Ġfruits": 8810,
      "readth": 8811,
      "statement": 8812,
      "å¼Ĥ": 8813,
      "isa": 8814,
      "$$$$": 8815,
      "CR": 8816,
      "Ġ(\"\\": 8817,
      "ĠABC": 8818,
      "icha": 8819,
      "Ġexpr": 8820,
      "Work": 8821,
      "examples": 8822,
      "74": 8823,
      "Factor": 8824,
      "priority": 8825,
      "Ġfollowed": 8826,
      "duplicates": 8827,
      "Ġsalario": 8828,
      "Ġ:\")": 8829,
      "Ġproperties": 8830,
      "ĠĠĠĠĠĠĠĠĠĠĠĠĠĠĠĠĠĠĠĠĠĠĠĠĠĠĠĠĠĠĠĠĠĠĠĠ": 8831,
      "acker": 8832,
      "Ġchecked": 8833,
      "_.": 8834,
      "83": 8835,
      "budget": 8836,
      "«ìŀĲ": 8837,
      "alive": 8838,
      "ĠÐ´Ð¾": 8839,
      "Ġxs": 8840,
      "ê°Ĵ": 8841,
      "Ġuppercase": 8842,
      "Grade": 8843,
      "ĠÑĤ": 8844,
      "Project": 8845,
      "orage": 8846,
      "å¾Ħ": 8847,
      "Ġfitness": 8848,
      "Ġcomponents": 8849,
      "íĸ": 8850,
      "ĠisPrime": 8851,
      "Ġnatural": 8852,
      "traversal": 8853,
      "tas": 8854,
      "dims": 8855,
      "{\"": 8856,
      "æĥ³": 8857,
      "rotation": 8858,
      "concat": 8859,
      "Ang": 8860,
      "ãģĻãĤĭ": 8861,
      "Ġdownload": 8862,
      "peek": 8863,
      "exec": 8864,
      "Even": 8865,
      "increase": 8866,
      "Ġlinks": 8867,
      "CHAR": 8868,
      "Ġparsed": 8869,
      "Ġlab": 8870,
      "æ»": 8871,
      "Ġenergy": 8872,
      "xi": 8873,
      "sess": 8874,
      "Ke": 8875,
      "sizes": 8876,
      "iteration": 8877,
      "\"]))": 8878,
      "hickness": 8879,
      "Country": 8880,
      "ĠLinked": 8881,
      "çĮ": 8882,
      "Ġperfect": 8883,
      "ÑģÐ¿": 8884,
      "éĶĻè¯¯": 8885,
      "nYou": 8886,
      "Ġholds": 8887,
      "ports": 8888,
      "perm": 8889,
      "èµĭ": 8890,
      "Ġcomparison": 8891,
      "iterator": 8892,
      "ÑĤÑĢÐ¸": 8893,
      "Ð¾Ð»Ð¸Ñĩ": 8894,
      "Ġlove": 8895,
      "context": 8896,
      "æ¯Ķè¾ĥ": 8897,
      "Ġsignal": 8898,
      "vowels": 8899,
      "ĠRight": 8900,
      "ĠMar": 8901,
      "Ġë¬¸ìŀĲ": 8902,
      "Ġaltern": 8903,
      "ëį": 8904,
      "Ġtweets": 8905,
      "Ġedad": 8906,
      "arial": 8907,
      "highest": 8908,
      "substring": 8909,
      "abcdefghijklmnopqrstuvwxyz": 8910,
      "}}": 8911,
      "cus": 8912,
      "ValueError": 8913,
      "ArgumentParser": 8914,
      "heappush": 8915,
      "Ġ'--": 8916,
      ":/": 8917,
      "Ġcontainer": 8918,
      "Ġchess": 8919,
      "Ġfall": 8920,
      "ĠCal": 8921,
      "Ġdeviation": 8922,
      "ley": 8923,
      "Ġrestaurant": 8924,
      "attery": 8925,
      "Ġquantidade": 8926,
      "Ġdivid": 8927,
      "Ġresulting": 8928,
      "Ġvariance": 8929,
      "ìĿ¼": 8930,
      "Ġprimeiro": 8931,
      "session": 8932,
      "ĠÑĩÐ¸ÑģÐµÐ»": 8933,
      "Ġcomponent": 8934,
      "collection": 8935,
      "Ġbfs": 8936,
      "Valor": 8937,
      "ln": 8938,
      "Ġdiscount": 8939,
      "epochs": 8940,
      "ĠDFS": 8941,
      "logy": 8942,
      "âĪ": 8943,
      "Ġalien": 8944,
      "Ġ']": 8945,
      "Ġbag": 8946,
      "Ġheuristic": 8947,
      "Ġaccepts": 8948,
      "Ðĺ": 8949,
      "ĠFUN": 8950,
      "suma": 8951,
      "Ġsolved": 8952,
      "slow": 8953,
      "å¢ŀ": 8954,
      "ĠUT": 8955,
      "spa": 8956,
      "Sup": 8957,
      "åı¯èĥ½": 8958,
      "nual": 8959,
      "entries": 8960,
      "ĠìĤ¬ìļ©": 8961,
      "ìŀ¥": 8962,
      "extra": 8963,
      "tu": 8964,
      "Ġ'\"": 8965,
      "ĠCor": 8966,
      "denominator": 8967,
      "ÑīÐ°": 8968,
      "deg": 8969,
      "acher": 8970,
      "Ð¾Ð»Ð¸ÑĩÐµÑģÑĤ": 8971,
      "jump": 8972,
      "Ġpotential": 8973,
      "ISTS": 8974,
      "extract": 8975,
      "__.": 8976,
      "ĠSal": 8977,
      "amt": 8978,
      "posta": 8979,
      "Informe": 8980,
      "isect": 8981,
      "Profit": 8982,
      "ĠTable": 8983,
      "ĠÑĤÐ¾": 8984,
      "ĠÐºÐ¾ÑĤÐ¾ÑĢ": 8985,
      "Ġ=================================================================": 8986,
      "aster": 8987,
      "pis": 8988,
      "slope": 8989,
      "wind": 8990,
      "ëª": 8991,
      "Ġigual": 8992,
      "Ġ49": 8993,
      "buzz": 8994,
      "âķĲâķĲâķĲâķĲ": 8995,
      "reward": 8996,
      "ĠLoad": 8997,
      "Ġ\\\"": 8998,
      "ango": 8999,
      "Ġschool": 9000,
      "Mean": 9001,
      "byte": 9002,
      "ÑĤÐµÐ»ÑĮ": 9003,
      "Ġextension": 9004,
      "Ġalgorithms": 9005,
      "ONT": 9006,
      "ollars": 9007,
      "æĮĩéĴĪ": 9008,
      "çĽ¸åĲĮ": 9009,
      "ìĹĲìĦľ": 9010,
      "Pool": 9011,
      "Ġflight": 9012,
      "animals": 9013,
      "rename": 9014,
      "åĪ©": 9015,
      "Ð¸Ð¼Ð°": 9016,
      "Ġinterface": 9017,
      "ĠOnly": 9018,
      "Ġjug": 9019,
      "fileName": 9020,
      "Ġrestart": 9021,
      "Ġverify": 9022,
      "ĠìŀĪ": 9023,
      "bag": 9024,
      "ĠAct": 9025,
      "should": 9026,
      "Ġsquared": 9027,
      "ĠAL": 9028,
      "andw": 9029,
      "Ġmn": 9030,
      "ails": 9031,
      "ĠProcess": 9032,
      "Ġfiltered": 9033,
      "resent": 9034,
      "verb": 9035,
      "road": 9036,
      "ĠHT": 9037,
      "Ġ'-':": 9038,
      "Ġ52": 9039,
      "ÐµÐ»Ð¸": 9040,
      "mic": 9041,
      "ÑīÐ¸": 9042,
      "âĶĢâĶĢâĶĢâĶĢ": 9043,
      "ĠRet": 9044,
      "Eng": 9045,
      "Ġrep": 9046,
      "ĠSep": 9047,
      "Ġstarted": 9048,
      "terms": 9049,
      "ä¸įåĲĮ": 9050,
      "Ġminus": 9051,
      "Pi": 9052,
      "letra": 9053,
      "å¿ħé¡»": 9054,
      "Ġreceived": 9055,
      "White": 9056,
      "ĠSave": 9057,
      "UB": 9058,
      "licing": 9059,
      "ĠStore": 9060,
      "åĮ¹éħį": 9061,
      "Ġss": 9062,
      "suffix": 9063,
      "symbols": 9064,
      "aria": 9065,
      "Ġdrink": 9066,
      "åħ³éĶ®": 9067,
      "Ġauth": 9068,
      "fp": 9069,
      "unday": 9070,
      "æĻ": 9071,
      "access": 9072,
      "shi": 9073,
      "hr": 9074,
      "Ġprimer": 9075,
      "traverse": 9076,
      "Ġbst": 9077,
      "directed": 9078,
      "Ġenvironment": 9079,
      "Ġfname": 9080,
      "ov": 9081,
      "slots": 9082,
      "Ġlive": 9083,
      "Ġtransaction": 9084,
      "gcd": 9085,
      "versions": 9086,
      "subset": 9087,
      "94": 9088,
      "Ġcalendar": 9089,
      "mac": 9090,
      ",\\": 9091,
      "ypes": 9092,
      "cons": 9093,
      "uan": 9094,
      "outer": 9095,
      "shortest": 9096,
      "Ġbacktrack": 9097,
      "links": 9098,
      "Ġnu": 9099,
      "probability": 9100,
      "Bet": 9101,
      "Ġpayment": 9102,
      "tensor": 9103,
      "Ġvowel": 9104,
      ")}')": 9105,
      "Ġmed": 9106,
      "Ġplaced": 9107,
      "Ġ])": 9108,
      "lbl": 9109,
      "ength": 9110,
      "Items": 9111,
      "angular": 9112,
      "Done": 9113,
      "100000": 9114,
      "ĠZeroDivisionError": 9115,
      "Ġtextvariable": 9116,
      "Ð¾Ð»ÑĮÐ·Ð¾Ð²Ð°": 9117,
      "Ġrender": 9118,
      "edit": 9119,
      "('-'*": 9120,
      "shop": 9121,
      "Address": 9122,
      "Ġcredit": 9123,
      "CG": 9124,
      "lb": 9125,
      "DATA": 9126,
      "csvfile": 9127,
      "Ð½Ð¾Ð¹": 9128,
      "Ġban": 9129,
      "Fore": 9130,
      "Ġ48": 9131,
      "keras": 9132,
      "('<": 9133,
      "Fill": 9134,
      "whe": 9135,
      "Ġher": 9136,
      "Desktop": 9137,
      "numerator": 9138,
      "gi": 9139,
      "ĠFin": 9140,
      "TA": 9141,
      "lang": 9142,
      "sns": 9143,
      "Ġdecry": 9144,
      "yield": 9145,
      "achine": 9146,
      "bru": 9147,
      "esar": 9148,
      "Ġshown": 9149,
      "Ġwhy": 9150,
      "ĠAlso": 9151,
      "çļĦæĹ¶åĢĻ": 9152,
      "Ġremoves": 9153,
      "veral": 9154,
      "pw": 9155,
      "åŁº": 9156,
      "ĠDNA": 9157,
      "à¸²à¸": 9158,
      "vertical": 9159,
      "Ġsaid": 9160,
      "ĠInteger": 9161,
      "Ġincreasing": 9162,
      "Ðł": 9163,
      "itions": 9164,
      "Ġtemplate": 9165,
      "see": 9166,
      "Close": 9167,
      "Ġnice": 9168,
      "large": 9169,
      "tasks": 9170,
      "jkstra": 9171,
      "ĠProject": 9172,
      "adjacent": 9173,
      "Ġfrontier": 9174,
      "Ġmultiples": 9175,
      "ROW": 9176,
      "when": 9177,
      "ĠLast": 9178,
      "ĠFunctions": 9179,
      "xcor": 9180,
      "Ġlogger": 9181,
      "ĠÐ´Ð°Ð½": 9182,
      "Ġpalabra": 9183,
      "mk": 9184,
      "));": 9185,
      "Ġsess": 9186,
      "Hist": 9187,
      "Ġboundary": 9188,
      "ĠĠĠĠĠĠĠĠĠĠĠĠĠĠĠĠĠĠĠĠĠĠĠĠĠĠĠĠĠĠĠĠĠĠĠĠĠĠĠĠĠĠĠĠĠĠĠ": 9189,
      "sengers": 9190,
      "Ġexecution": 9191,
      "Diff": 9192,
      "mies": 9193,
      "chunk": 9194,
      "adores": 9195,
      "ĠĠĠĠĠĠĠĠĠĠĠĊ": 9196,
      "Ã±o": 9197,
      "Ġ\".\"": 9198,
      "')[": 9199,
      "ì²": 9200,
      "Ġtemper": 9201,
      "å¤įæĿĤåº¦": 9202,
      "memo": 9203,
      "ĠDon": 9204,
      "monstr": 9205,
      "jug": 9206,
      "Sprite": 9207,
      "machine": 9208,
      "currency": 9209,
      "61": 9210,
      "Ġattempts": 9211,
      "Ġsns": 9212,
      "1000000": 9213,
      "Ġmodules": 9214,
      "bubble": 9215,
      "Ġlengths": 9216,
      "strs": 9217,
      "æ¨¡åĿĹ": 9218,
      "Ñĳ": 9219,
      "errors": 9220,
      "mbedding": 9221,
      "ĠInvalid": 9222,
      "Ġ360": 9223,
      "Ġverb": 9224,
      "ĠPop": 9225,
      "artist": 9226,
      "Ġfra": 9227,
      "ç»ĵçĤ¹": 9228,
      "ĠMark": 9229,
      "HI": 9230,
      "ĠAssign": 9231,
      "#-": 9232,
      "ĠCopy": 9233,
      "vy": 9234,
      "');": 9235,
      "Ġwish": 9236,
      "Ġëį": 9237,
      "Ġmatrices": 9238,
      "Ð¾Ð»Ð¶": 9239,
      "hattan": 9240,
      "wi": 9241,
      "ĠPe": 9242,
      "Fizz": 9243,
      "Ġnoun": 9244,
      "Ġbuttons": 9245,
      "Ġsear": 9246,
      "Ġgreat": 9247,
      "CV": 9248,
      "ĠStandard": 9249,
      "anic": 9250,
      "ĠÑĨÐ¸": 9251,
      "ĠHash": 9252,
      "Ġattempt": 9253,
      "lier": 9254,
      "))/": 9255,
      "ĠÐĶ": 9256,
      "deredDict": 9257,
      "çĶ¨äºİ": 9258,
      "Fa": 9259,
      "ĠON": 9260,
      "ecause": 9261,
      "ali": 9262,
      "è§£éĩĬ": 9263,
      "ĠMed": 9264,
      "pressed": 9265,
      "Ġ(%": 9266,
      "åĪĩ": 9267,
      "motor": 9268,
      "ĠAlgorithm": 9269,
      "fac": 9270,
      "ĠÑģÐ¿Ð¸ÑģÐ¾Ðº": 9271,
      "seat": 9272,
      "Ġleave": 9273,
      "çļĦæĺ¯": 9274,
      "Ġ</": 9275,
      "bracket": 9276,
      "Ġinterpre": 9277,
      "æĭ©": 9278,
      "Ġinserted": 9279,
      "Äĩ": 9280,
      "thers": 9281,
      "å¯Ĩ": 9282,
      "feed": 9283,
      "éĢīæĭ©": 9284,
      "encrypt": 9285,
      "usu": 9286,
      "icao": 9287,
      "åķĨ": 9288,
      "Ġscalar": 9289,
      "romosome": 9290,
      "weekday": 9291,
      "(**": 9292,
      "Ġmetrics": 9293,
      "Â°": 9294,
      "Ġä½¿çĶ¨": 9295,
      "duc": 9296,
      "aking": 9297,
      "ratic": 9298,
      "Ġ################################################################": 9299,
      "demo": 9300,
      "Ġgold": 9301,
      "ĠFrom": 9302,
      "è¿ĻéĩĮ": 9303,
      "predicted": 9304,
      "Full": 9305,
      "fall": 9306,
      "ê±": 9307,
      "Success": 9308,
      "kit": 9309,
      "ĠEnglish": 9310,
      "aze": 9311,
      "âĢ¬": 9312,
      "dumps": 9313,
      "follow": 9314,
      "Ġautomatically": 9315,
      "randn": 9316,
      "ĠEmpty": 9317,
      "wer": 9318,
      "there": 9319,
      "ĠTake": 9320,
      "ĠSu": 9321,
      "tica": 9322,
      "Ġtempor": 9323,
      "ĠNO": 9324,
      "esta": 9325,
      "celeration": 9326,
      "dc": 9327,
      "Doc": 9328,
      "Ġepochs": 9329,
      "nl": 9330,
      "Ġ89": 9331,
      "Ġtrace": 9332,
      "ĠCurrent": 9333,
      "Ġcategories": 9334,
      "Ġidea": 9335,
      "Ġexecuted": 9336,
      "Ġready": 9337,
      "Ġliter": 9338,
      "Dir": 9339,
      "82": 9340,
      "Ġtwice": 9341,
      "war": 9342,
      "overflow": 9343,
      "Ġcombine": 9344,
      "ç®Ĺæ³ķ": 9345,
      "wa": 9346,
      "posite": 9347,
      "ratings": 9348,
      "Ã¨": 9349,
      "keep": 9350,
      "Ġland": 9351,
      "\"\")": 9352,
      "Ġë°ĺ": 9353,
      "Poly": 9354,
      "360": 9355,
      "ADD": 9356,
      "QUIT": 9357,
      "ĠRegression": 9358,
      "Ġexponent": 9359,
      "ç®Ģ": 9360,
      "Ġatt": 9361,
      "ÑģÐ»": 9362,
      "acte": 9363,
      "ORM": 9364,
      "Ġ:]": 9365,
      "rep": 9366,
      "1234": 9367,
      "ificar": 9368,
      "ì¤": 9369,
      "ĠAI": 9370,
      "Ġpode": 9371,
      "Ġcoffee": 9372,
      "Jack": 9373,
      "nEnter": 9374,
      "MN": 9375,
      "xls": 9376,
      "ril": 9377,
      "ifica": 9378,
      "ĠCourse": 9379,
      "ĠGUI": 9380,
      "Ġ=\"": 9381,
      "Ġreturning": 9382,
      "ä¼ĺ": 9383,
      "ola": 9384,
      "Ġarticle": 9385,
      "Ġinc": 9386,
      "ä¹ł": 9387,
      "container": 9388,
      "sqlite": 9389,
      "chosen": 9390,
      "mpl": 9391,
      "ĠLink": 9392,
      "ĠâĢĵ": 9393,
      "()-": 9394,
      "Ġdrawing": 9395,
      "ĠHTML": 9396,
      "Ġwants": 9397,
      ")?": 9398,
      "Ġacross": 9399,
      "CI": 9400,
      "cwd": 9401,
      "Ġactiv": 9402,
      "Ġdepending": 9403,
      "ĠLoc": 9404,
      "ĠMonth": 9405,
      "arnings": 9406,
      "salario": 9407,
      "combinations": 9408,
      "iste": 9409,
      "expand": 9410,
      "monthly": 9411,
      "}',": 9412,
      "Ġdna": 9413,
      "Ġ1000000": 9414,
      "Salary": 9415,
      "Ġ00": 9416,
      "_|": 9417,
      "Ġìľ": 9418,
      "1024": 9419,
      "Ġcurve": 9420,
      "éĥ¨åĪĨ": 9421,
      "Ġarchivo": 9422,
      "Ġ128": 9423,
      "Ġconcaten": 9424,
      "Ġwebsite": 9425,
      "ìĿĮ": 9426,
      "Ġcolumnspan": 9427,
      "Ġtimedelta": 9428,
      "Seg": 9429,
      "ĠWork": 9430,
      "Ġartist": 9431,
      "ãģĭ": 9432,
      "Ġ\\\\": 9433,
      "2015": 9434,
      "arios": 9435,
      "************": 9436,
      "Gues": 9437,
      "123456789": 9438,
      "Ġeste": 9439,
      "album": 9440,
      "ĠAttribute": 9441,
      "æľŁ": 9442,
      "Ġfrequent": 9443,
      "íķ©": 9444,
      ">'": 9445,
      "RES": 9446,
      "ku": 9447,
      "ä½Ĩæĺ¯": 9448,
      "zes": 9449,
      "Page": 9450,
      "Ġfrase": 9451,
      "branch": 9452,
      "(\"(": 9453,
      "Ġutils": 9454,
      "ikes": 9455,
      "ĠAccount": 9456,
      "Rot": 9457,
      "Ġdepart": 9458,
      "rules": 9459,
      "Ġpunctuation": 9460,
      "junto": 9461,
      "islower": 9462,
      "Ġdivided": 9463,
      "arrow": 9464,
      "ĠisValid": 9465,
      "ceptron": 9466,
      "gun": 9467,
      "auto": 9468,
      "Command": 9469,
      "imento": 9470,
      "Ġcsvfile": 9471,
      "When": 9472,
      "ķĮ": 9473,
      "Ġcp": 9474,
      "ativ": 9475,
      "èº": 9476,
      "ĠStringVar": 9477,
      "]\"": 9478,
      "ĠComputer": 9479,
      "Ġchannel": 9480,
      "horizontal": 9481,
      "Ġconsists": 9482,
      "ĠLinearRegression": 9483,
      "fraction": 9484,
      "preprocessing": 9485,
      "ĠÐºÐ»Ð°": 9486,
      "Power": 9487,
      "anted": 9488,
      "umes": 9489,
      "Ġequivalent": 9490,
      "ĠRuntime": 9491,
      "occup": 9492,
      "Ġcodes": 9493,
      "forma": 9494,
      "entropy": 9495,
      "english": 9496,
      "accept": 9497,
      "Ġ=================": 9498,
      "ĠSome": 9499,
      "...\\": 9500,
      "ĠNumbers": 9501,
      "ylim": 9502,
      "à¹Ī": 9503,
      "miles": 9504,
      "aring": 9505,
      "ĠÐ¿ÑĢÐ¸": 9506,
      "æŁ¥æī¾": 9507,
      "ãĥ«": 9508,
      "omial": 9509,
      "WHITE": 9510,
      "parents": 9511,
      "èī": 9512,
      "Ġplayed": 9513,
      "regressor": 9514,
      "Ġgir": 9515,
      "west": 9516,
      "ç»´": 9517,
      "ĠMap": 9518,
      "Ġì§": 9519,
      "ĠIO": 9520,
      "Sent": 9521,
      "ĠThread": 9522,
      "May": 9523,
      "contra": 9524,
      "Ġnoise": 9525,
      "pickle": 9526,
      "pq": 9527,
      "six": 9528,
      "Rank": 9529,
      "ÐµÑĢÐ°": 9530,
      "Vert": 9531,
      "matmul": 9532,
      "ĠSeries": 9533,
      "æŁĲ": 9534,
      "ĠâĶ": 9535,
      "ratulations": 9536,
      "instruction": 9537,
      "Ġticket": 9538,
      "Ġonline": 9539,
      ":(": 9540,
      "éĸ": 9541,
      "lowest": 9542,
      "èº«": 9543,
      "çļĦæķ°": 9544,
      "oooo": 9545,
      "flight": 9546,
      "ĠOUT": 9547,
      "Ġlicz": 9548,
      "71": 9549,
      "ĠBY": 9550,
      "ĠCL": 9551,
      "iento": 9552,
      "aciones": 9553,
      "åħ¬": 9554,
      "permutation": 9555,
      "ĠEXISTS": 9556,
      "ãĤĮ": 9557,
      "Ġune": 9558,
      "ŀŀ": 9559,
      "indexes": 9560,
      "World": 9561,
      "library": 9562,
      "Ġpast": 9563,
      "magic": 9564,
      "Ġrespectively": 9565,
      "ê¹": 9566,
      "@@@@@@@@": 9567,
      "éĤ£ä¹Ī": 9568,
      "Scaler": 9569,
      "...\"": 9570,
      "subtract": 9571,
      "Ġdidn": 9572,
      "Ġ||": 9573,
      "race": 9574,
      "ĠSince": 9575,
      "AF": 9576,
      "Ġints": 9577,
      "Ġpue": 9578,
      "Ġalbum": 9579,
      "ITH": 9580,
      "****************************************************************": 9581,
      "éļıæľº": 9582,
      "ENTER": 9583,
      "Encoder": 9584,
      "Ġlevels": 9585,
      "antes": 9586,
      "æľĪ": 9587,
      "Ġpeek": 9588,
      "Ġdig": 9589,
      ")\"\"\"": 9590,
      "ÐµÐ¹": 9591,
      "ĠPIL": 9592,
      "lookup": 9593,
      "Fre": 9594,
      "bins": 9595,
      "Ge": 9596,
[...]
